{
  "version": "1.0",
  "truncation": null,
  "padding": null,
  "added_tokens": [
    {
      "id": 0,
      "content": "<|endoftext|>",
      "single_word": false,
      "lstrip": false,
      "rstrip": false,
      "normalized": false,
      "special": true
    }
  ],
  "normalizer": null,
  "pre_tokenizer": {
    "type": "ByteLevel",
    "add_prefix_space": false,
    "trim_offsets": true,
    "use_regex": true
  },
  "post_processor": {
    "type": "ByteLevel",
    "add_prefix_space": true,
    "trim_offsets": false,
    "use_regex": true
  },
  "decoder": {
    "type": "ByteLevel",
    "add_prefix_space": true,
    "trim_offsets": true,
    "use_regex": true
  },
  "model": {
    "type": "BPE",
    "dropout": null,
    "unk_token": null,
    "continuing_subword_prefix": null,
    "end_of_word_suffix": null,
    "fuse_unk": false,
    "byte_fallback": false,
    "ignore_merges": false,
    "vocab": {
      "<|endoftext|>": 0,
      "!": 1,
      "\"": 2,
      "#": 3,
      "$": 4,
      "%": 5,
      "&": 6,
      "'": 7,
      "(": 8,
      ")": 9,
      "*": 10,
      "+": 11,
      ",": 12,
      "-": 13,
      ".": 14,
      "/": 15,
      "0": 16,
      "1": 17,
      "2": 18,
      "3": 19,
      "4": 20,
      "5": 21,
      "6": 22,
      "7": 23,
      "8": 24,
      "9": 25,
      ":": 26,
      ";": 27,
      "<": 28,
      "=": 29,
      ">": 30,
      "?": 31,
      "@": 32,
      "A": 33,
      "B": 34,
      "C": 35,
      "D": 36,
      "E": 37,
      "F": 38,
      "G": 39,
      "H": 40,
      "I": 41,
      "J": 42,
      "K": 43,
      "L": 44,
      "M": 45,
      "N": 46,
      "O": 47,
      "P": 48,
      "Q": 49,
      "R": 50,
      "S": 51,
      "T": 52,
      "U": 53,
      "V": 54,
      "W": 55,
      "X": 56,
      "Y": 57,
      "Z": 58,
      "[": 59,
      "\\": 60,
      "]": 61,
      "^": 62,
      "_": 63,
      "`": 64,
      "a": 65,
      "b": 66,
      "c": 67,
      "d": 68,
      "e": 69,
      "f": 70,
      "g": 71,
      "h": 72,
      "i": 73,
      "j": 74,
      "k": 75,
      "l": 76,
      "m": 77,
      "n": 78,
      "o": 79,
      "p": 80,
      "q": 81,
      "r": 82,
      "s": 83,
      "t": 84,
      "u": 85,
      "v": 86,
      "w": 87,
      "x": 88,
      "y": 89,
      "z": 90,
      "{": 91,
      "|": 92,
      "}": 93,
      "~": 94,
      "¡": 95,
      "¢": 96,
      "£": 97,
      "¤": 98,
      "¥": 99,
      "¦": 100,
      "§": 101,
      "¨": 102,
      "©": 103,
      "ª": 104,
      "«": 105,
      "¬": 106,
      "®": 107,
      "¯": 108,
      "°": 109,
      "±": 110,
      "²": 111,
      "³": 112,
      "´": 113,
      "µ": 114,
      "¶": 115,
      "·": 116,
      "¸": 117,
      "¹": 118,
      "º": 119,
      "»": 120,
      "¼": 121,
      "½": 122,
      "¾": 123,
      "¿": 124,
      "Â": 125,
      "Ã": 126,
      "Ä": 127,
      "Å": 128,
      "Æ": 129,
      "Ç": 130,
      "È": 131,
      "É": 132,
      "Ê": 133,
      "Ë": 134,
      "Ì": 135,
      "Í": 136,
      "Î": 137,
      "Ï": 138,
      "Ð": 139,
      "Ñ": 140,
      "Ò": 141,
      "Ó": 142,
      "Ô": 143,
      "Õ": 144,
      "Ö": 145,
      "×": 146,
      "Ø": 147,
      "Ù": 148,
      "Ú": 149,
      "Û": 150,
      "Ü": 151,
      "Ý": 152,
      "Þ": 153,
      "ß": 154,
      "à": 155,
      "á": 156,
      "â": 157,
      "ã": 158,
      "ä": 159,
      "å": 160,
      "æ": 161,
      "ç": 162,
      "è": 163,
      "é": 164,
      "ê": 165,
      "ë": 166,
      "ì": 167,
      "í": 168,
      "î": 169,
      "ï": 170,
      "ð": 171,
      "ó": 172,
      "ô": 173,
      "ă": 174,
      "ć": 175,
      "Ĉ": 176,
      "Ċ": 177,
      "Đ": 178,
      "Ē": 179,
      "ē": 180,
      "ĕ": 181,
      "Ę": 182,
      "ę": 183,
      "Ġ": 184,
      "ġ": 185,
      "Ģ": 186,
      "ģ": 187,
      "Ĥ": 188,
      "ĥ": 189,
      "Ħ": 190,
      "ħ": 191,
      "Ĩ": 192,
      "ĩ": 193,
      "Ī": 194,
      "ī": 195,
      "Ĭ": 196,
      "ĭ": 197,
      "Į": 198,
      "į": 199,
      "İ": 200,
      "ı": 201,
      "Ĳ": 202,
      "ĳ": 203,
      "Ĵ": 204,
      "ĵ": 205,
      "Ķ": 206,
      "ķ": 207,
      "ĸ": 208,
      "Ĺ": 209,
      "ĺ": 210,
      "Ļ": 211,
      "ļ": 212,
      "Ľ": 213,
      "ľ": 214,
      "Ŀ": 215,
      "ŀ": 216,
      "Ł": 217,
      "ł": 218,
      "Ń": 219,
      "à®": 220,
      "à¯": 221,
      "à¯į": 222,
      "Ġà®": 223,
      "à¯ģ": 224,
      "à®¿": 225,
      "à®ķ": 226,
      "à®¤": 227,
      "à®°": 228,
      "à®Ł": 229,
      "à®¾": 230,
      "à®©": 231,
      "à®®": 232,
      "à®²": 233,
      "à®ª": 234,
      "à¯Ī": 235,
      "à®¯": 236,
      "à®±": 237,
      "à®³": 238,
      "à®µ": 239,
      "Ġà®ª": 240,
      "Ġà®ķ": 241,
      "Ġà®µ": 242,
      "Ġà®®": 243,
      "à®ķà®³": 244,
      "à®ļ": 245,
      "Ġà®ħ": 246,
      "à¯ĩ": 247,
      "à®¨": 248,
      "à®£": 249,
      "Ġà®¤": 250,
      "Ġà®ļ": 251,
      "Ġà®ĩ": 252,
      "à¯Ĩ": 253,
      "Ġà®¨": 254,
      "à¯ĭ": 255,
      "Ġà®İ": 256,
      "à¯į.": 257,
      "à®Ļ": 258,
      "à¯Ĭ": 259,
      "à®´": 260,
      "à®ªà®Ł": 261,
      "à¯į,": 262,
      "à¯Ģ": 263,
      "Ġà®ī": 264,
      "à¯Ĥ": 265,
      "Ġà®İà®©": 266,
      "à®µà®°": 267,
      "Ġà®Ĩ": 268,
      "à¯ģ.": 269,
      "Ġà®ĩà®°": 270,
      "Ġà®Ĵ": 271,
      "Ġà®ħà®¤": 272,
      "à®¸": 273,
      "âĢ": 274,
      "à®ªà®¤": 275,
      "à®µà®¤": 276,
      "à®Łà®¤": 277,
      "à®±à®¤": 278,
      "Ġà®Ĵà®°": 279,
      "Ġà®µà®°": 280,
      "à®ķà®ª": 281,
      "Ġà®ĩà®¨": 282,
      "à®©à®°": 283,
      "à¯ģ,": 284,
      "à®Łà®®": 285,
      "à®¤à®²": 286,
      "à®ķà®®": 287,
      "Ġà®ķà®Ł": 288,
      "Ġà®ĩà®¤": 289,
      "Ġà®°": 290,
      "à®¤à®¤": 291,
      "Ġà®ħà®µà®°": 292,
      "à®°à®®": 293,
      "Ġà®®à®±": 294,
      "à®ķà®µ": 295,
      "à®ķà®¤": 296,
      "Ġà®ı": 297,
      "à®Łà®©": 298,
      "à®ķà®°": 299,
      "Ġà®ħà®°": 300,
      "à®¯à®¤": 301,
      "à®¯à®²": 302,
      "Ġà®īà®³": 303,
      "à®¯à®®": 304,
      "à®ľ": 305,
      "à®³à®¤": 306,
      "Ġà®ħà®®": 307,
      "Ġà®¨à®Ł": 308,
      "à®µà®©": 309,
      "à®¤à®®": 310,
      "Ġ1": 311,
      "à®Łà®°": 312,
      "à®¯à®°": 313,
      "à®·": 314,
      "..": 315,
      "à®©à®¤": 316,
      "Ġà®ªà®Ł": 317,
      "Ġà®ĩà®²": 318,
      "Ġà®ħà®©": 319,
      "ĠâĢ": 320,
      "Ġà®ħà®Ł": 321,
      "Ġà®Ł": 322,
      "à®³à®°": 323,
      "à®¤à®©": 324,
      "Ġà®µà®´": 325,
      "à®ŀ": 326,
      "Ġ2": 327,
      "à®°à®¤": 328,
      "Ġà®ªà®²": 329,
      "Ġà®¤à®®": 330,
      "à®¿,": 331,
      "à®²à®¤": 332,
      "à®²à®®": 333,
      "Ġ(": 334,
      "Ġà®ħà®±": 335,
      "Ġà®ķà®£": 336,
      "Ġà®ľ": 337,
      "Ġà®®à®ķ": 338,
      "à¯Ī.": 339,
      "Ġà®ħà®°à®ļ": 340,
      "à®¿.": 341,
      "Ġà®µà®¨": 342,
      "Ġà®ĩà®©": 343,
      "à®¤à®°": 344,
      "à®ķà®²": 345,
      "à®¤à®ª": 346,
      "Ġà®ķà®²": 347,
      "Ġà®ħà®µ": 348,
      "à®ªà®°": 349,
      "Ġà®ıà®±": 350,
      "à®£à®®": 351,
      "Ġà®ħà®¨": 352,
      "Ġà®ļà®®": 353,
      "Ġà®İà®¤": 354,
      "à®¯à®©": 355,
      "à®Łà®Ļ": 356,
      "à®®à®²": 357,
      "Ġà®¤à®©": 358,
      "Ġà®ħà®²": 359,
      "Ġà®ªà®¤": 360,
      "Ġà®Ĩà®£": 361,
      "Ġà®¯": 362,
      "Ġà®ķà®°": 363,
      "Ġà®Ĩà®ķ": 364,
      "Ġà®®à®©": 365,
      "Ġà®¤à®²": 366,
      "Ġà®īà®£": 367,
      "Ġà®ħà®ª": 368,
      "Ġà®ªà®ķ": 369,
      "Ġà®ªà®£": 370,
      "Ġà®Ĩà®©": 371,
      "à®ļà®®": 372,
      "à®ĩ": 373,
      "à¯Ī,": 374,
      "Ġà®²": 375,
      "à®Łà®²": 376,
      "à®³à®µ": 377,
      "à®¤à®µ": 378,
      "Ġà®īà®°": 379,
      "Ġà®İà®Ł": 380,
      "00": 381,
      "Ġà®ªà®°": 382,
      "à®¯à®ª": 383,
      "à®µà®Ł": 384,
      "âĢĻ": 385,
      "Ġà®Ĭ": 386,
      "à®İ": 387,
      "Ġà®®à®°": 388,
      "à®µà®®": 389,
      "Ġà®¨à®®": 390,
      "Ġà®ĵ": 391,
      "à®ħ": 392,
      "à®ļà®°": 393,
      "à®¯à®ķ": 394,
      "Ġà®īà®±": 395,
      "à®©à®®": 396,
      "Ġà®İà®´": 397,
      "à®±à®ª": 398,
      "Ġà®®à®¤": 399,
      "à®±à®©": 400,
      "à®µà®²": 401,
      "Ġà®ļà®°": 402,
      "à®Łà®ª": 403,
      "Ġà®ħà®´": 404,
      "Ġà®®à®Ł": 405,
      "Ġà®¸": 406,
      "à®¤à®ķ": 407,
      "Ġ-": 408,
      "Ġà®ĩà®ª": 409,
      "Ġà®ħà®£": 410,
      "à®ķà®Ł": 411,
      "Ġà®ħà®¤à®©": 412,
      "à®®à®¤": 413,
      "à®®à®©": 414,
      "Ġà®İà®²": 415,
      "Ġà®ªà®±": 416,
      "à®ķà®ķ": 417,
      "Ġà®Ĵà®©": 418,
      "à®Łà®ķ": 419,
      "à®°à®ļ": 420,
      "à®³à®®": 421,
      "à®ķà®´": 422,
      "Ġà®¤à®°": 423,
      "Ġ\"": 424,
      "à®¯à®µ": 425,
      "à®¯à®±": 426,
      "à®²à®ķ": 427,
      "Ġà®®à®£": 428,
      "Ġà®īà®Ļ": 429,
      "à®±à®ķ": 430,
      "Ġà®ĩà®µà®°": 431,
      "Ġà®ļà®¨": 432,
      "à®±à®®": 433,
      "à®Ĩ": 434,
      "Ġà®¹": 435,
      "Ġ'": 436,
      "à®ļà®©": 437,
      "à®°à®£": 438,
      "à®¯à®Ļ": 439,
      "Ġà®¤à®Ł": 440,
      "in": 441,
      "ĠâĢĺ": 442,
      "âĢĿ": 443,
      "à®ļà®¤": 444,
      "Ġà®µà®ķ": 445,
      "Ġà®µà®´à®Ļ": 446,
      "Ġà®ªà®¯à®©": 447,
      "à®ķà®©": 448,
      "Ġà®Ĳ": 449,
      "à®±à®¨": 450,
      "Ġà®Ĩà®Ł": 451,
      "Ġ3": 452,
      "à®µà®¤à®±": 453,
      "à®´à®¨": 454,
      "Ġà®ĩà®¤à®©": 455,
      "à®¤à®µà®°": 456,
      "Ġà®ĩà®°à®£": 457,
      "Ġ20": 458,
      "ĠâĢľ": 459,
      "à®¹": 460,
      "à®´à®ķ": 461,
      "Ġà®¤à®Ļ": 462,
      "Ġà®ĩà®µ": 463,
      "à®¾,": 464,
      "Ġà®Ĩà®¯": 465,
      "Ġà®Ī": 466,
      "Ġà®ªà®¯": 467,
      "à®±à®©à®°": 468,
      "Ġà®Ĩà®°": 469,
      "an": 470,
      "Ġà®ļà®Ł": 471,
      "Ġà®ĩà®£": 472,
      "Ġà®¨à®²": 473,
      "Ġà®¤à®µ": 474,
      "à®ªà®®": 475,
      "à®°à®£à®®": 476,
      "à®²à®µ": 477,
      "Ġà®İà®£": 478,
      "Ġà®ħà®Ļ": 479,
      "am": 480,
      "Ġà®ħà®µà®©": 481,
      "Ġà®ķà®¤": 482,
      "Ġà®ħà®³à®µ": 483,
      "Ġà®īà®Ł": 484,
      "à®¤à®©à®°": 485,
      "ĥà®ª": 486,
      "Ġà®İà®Ļ": 487,
      "Ġ19": 488,
      "Ġà®ĩà®Ł": 489,
      "à®ªà®©": 490,
      "Ġà®µà®²": 491,
      "Ġà®¨à®Łà®¤": 492,
      "à®°à®ª": 493,
      "...": 494,
      "à®±à®µ": 495,
      "Ġà®İà®¨": 496,
      "Ġà®İà®ª": 497,
      "Ġà®µà®Ł": 498,
      "à®³à®©": 499,
      "à®®à®°": 500,
      "Ġ5": 501,
      "Ġà®ĩà®±": 502,
      "Ġà®İà®©à®ķ": 503,
      "Ġà®īà®¤": 504,
      "à®ªà®µà®°": 505,
      "Ġà®µà®´à®ķ": 506,
      "à®ļà®²": 507,
      "à®ªà®ķ": 508,
      "à®ķà®ļ": 509,
      "Ġà®ķà®Łà®¨": 510,
      "Ġà®¤à®±": 511,
      "Ġà®Ĩà®ļ": 512,
      "at": 513,
      "Ġ4": 514,
      "à®³à®©à®°": 515,
      "Ġà®¨à®Łà®¨": 516,
      "à®²à®°": 517,
      "er": 518,
      "à®µà®ķ": 519,
      "il": 520,
      "ĠT": 521,
      "à®°à®Ļ": 522,
      "à®¾?": 523,
      "Ġà®¤à®¯": 524,
      "Ġà®Ĭà®°": 525,
      "Ġà®īà®¯à®°": 526,
      "Ġà®ħà®ķ": 527,
      "à¯įâĢĻ": 528,
      "Ġà®ħà®µà®³": 529,
      "à®°à®°": 530,
      "Ġà®µà®³à®°": 531,
      "Ġà®ħà®³": 532,
      "Ġà®ĩà®¯à®ķ": 533,
      "Ġà®īà®¤à®µ": 534,
      "à®µà®ļ": 535,
      "à¯ĩ,": 536,
      "on": 537,
      "Ġà®¤à®©à®¤": 538,
      "Ġà®ĩà®Ļ": 539,
      "ÂŃ": 540,
      "al": 541,
      "à®°à®Ł": 542,
      "à®²à®Ļ": 543,
      "Ġà®Ĩà®®": 544,
      "ar": 545,
      "âĢ¦": 546,
      "à®ķà®Ļ": 547,
      "à¯į)": 548,
      "Ġà®īà®¯": 549,
      "à®ķà®£": 550,
      "or": 551,
      "âĢĮ": 552,
      "Ġà®¨à®ķà®°": 553,
      "Ġà®ĵà®Ł": 554,
      "Ġà®ªà®Ļ": 555,
      "Ġà®¨à®©": 556,
      "ĠâĢĵ": 557,
      "Ġà®ħà®¤à®±": 558,
      "Ġà®ļà®ķ": 559,
      "à®Łà®µ": 560,
      "à®©à®µ": 561,
      "Ġà®ªà®´": 562,
      "à®¤à®°à®µ": 563,
      "Ġà®īà®Łà®²": 564,
      "20": 565,
      "à®ªà®¤à®±": 566,
      "Ġà®Ĩà®°à®®": 567,
      "à®£à®¤": 568,
      "Ġ|": 569,
      "à®¾.": 570,
      "Ġà®ªà®³": 571,
      "à®¤à®Ļ": 572,
      "à®°à®²": 573,
      "Ġ201": 574,
      "à®³à®ķ": 575,
      "à¯ĩ.": 576,
      "es": 577,
      "à¯į!": 578,
      "à®²à®ª": 579,
      "à®ķà®µà®²": 580,
      "à¯į'": 581,
      "Ġà®ħà®ļ": 582,
      "Ġà®ĩà®Łà®®": 583,
      "Ġ6": 584,
      "à®°à®©": 585,
      "Ġà®¤à®£": 586,
      "à®£à®ª": 587,
      "à®ªà®µ": 588,
      "à¯ĩà®¾": 589,
      "th": 590,
      "à®ªà®¨": 591,
      "Ġà®İà®®": 592,
      "Ġà®īà®£à®°": 593,
      "Ġà®ķà®´": 594,
      "Ġà®¤à®ķà®µà®²": 595,
      "à®ŀà®°": 596,
      "à¯Ĩà®¾": 597,
      "à®°à®¸": 598,
      "en": 599,
      "Ġà®Ĩà®±": 600,
      "Ġ7": 601,
      "à®°à®ķ": 602,
      "Ġà®ĩà®Łà®¤": 603,
      "Ġà®İà®©à®µ": 604,
      "ĠN": 605,
      "à®ªà®±": 606,
      "Ġà®ıà®©": 607,
      "Ġà®¨à®Łà®µà®Ł": 608,
      "Ġà®īà®Łà®©": 609,
      "Ġ,": 610,
      "à®°à®µ": 611,
      "à®´à®²": 612,
      "Ġà®ķà®±": 613,
      "Ġà®Ĵà®ª": 614,
      "Ġà®ªà®Łà®¤": 615,
      "Ġà®µà®£": 616,
      "Ġà®ķà®®": 617,
      "Ġà®Ĵà®µ": 618,
      "à¯į...": 619,
      "Ġà®īà®²à®ķ": 620,
      "à®µà®©à®®": 621,
      "Ġà®®à®²": 622,
      "Ġà®ķà®µ": 623,
      "Ġà®ħà®µà®°à®¤": 624,
      "amil": 625,
      "Ġà®µà®¯à®¤": 626,
      "à®ī": 627,
      "Ġà®ĩà®²à®Ļ": 628,
      "Ġà®īà®²": 629,
      "Ġà®īà®£à®µ": 630,
      "à¯į:": 631,
      "à®ĥà®ª": 632,
      "Ġ10": 633,
      "à®¯à®Ł": 634,
      "Ġà®Īà®Ł": 635,
      "à®ªà®²": 636,
      "ew": 637,
      "à®£à®µà®°": 638,
      "Ġà®ļà®Ļ": 639,
      "à®ĩà®¨": 640,
      "à¯į-": 641,
      "Ġà®ļà®¤": 642,
      "Ġ.": 643,
      "Ġà®ĩà®ļ": 644,
      "à®®à®ķ": 645,
      "Ġà®²à®Ł": 646,
      "à¯į?": 647,
      "à®³à®Ļ": 648,
      "Ġà®Ĩà®²": 649,
      "Ġà®Ĩà®¤": 650,
      "Ġà®¤à®¨": 651,
      "ĠS": 652,
      "à¯į\"": 653,
      "Ġà®·": 654,
      "à¯į;": 655,
      "ĠP": 656,
      "à®´à®°": 657,
      "Ġà®ķà®²à®¨": 658,
      "à®Łà®©à®°": 659,
      "à¯į..": 660,
      "Ġà®ĩà®¤à®±": 661,
      "à®¯à®µà®°": 662,
      "à®·à®©": 663,
      "Ġà®ľà®©": 664,
      "Ġà®µà®ļ": 665,
      "à®¤à®¨": 666,
      "à®İà®¸": 667,
      "à®µà®¨": 668,
      "à®®à®£": 669,
      "ĠC": 670,
      "Ġ8": 671,
      "à®İà®©": 672,
      "Ġà®Ĵà®¤": 673,
      "à¯ĭ,": 674,
      "Ġà®ĥà®ª": 675,
      "Ġ200": 676,
      "Ġà®ıà®¤": 677,
      "à®³à®ª": 678,
      "à®£à®©": 679,
      "à¯įâĢĿ": 680,
      "ews": 681,
      "Ġà®ķà®©": 682,
      "à®´à®®": 683,
      "st": 684,
      "à®±à®µà®°": 685,
      "à®ı": 686,
      "Ġà®ĩà®³": 687,
      "à®µà®©à®¤": 688,
      "Ġà®ĩà®²à®ķ": 689,
      "à®Ĩà®®": 690,
      "ic": 691,
      "à®Łà®µà®°": 692,
      "Ġ9": 693,
      "ed": 694,
      "à®ļà®ª": 695,
      "à®±à®²": 696,
      "Ġà®ķà®³": 697,
      "Ġà®µà®°à®²": 698,
      "it": 699,
      "Ġà®īà®©": 700,
      "Ġà®¨à®Łà®ķ": 701,
      "ĠM": 702,
      "à®µà®³à®µ": 703,
      "à®ĩà®¤": 704,
      "Ġà®ªà®Łà®®": 705,
      "Ġà®Ĩà®³": 706,
      "à®ķà®±": 707,
      "Ġà®ĵà®°": 708,
      "ĠTamil": 709,
      "ĠA": 710,
      "Ġà®ļà®ª": 711,
      "Ġà®¤à®µà®±": 712,
      "Ġà®İà®µ": 713,
      "à®Ĳ": 714,
      "Ġà®µà®Ļ": 715,
      "à®µà®ª": 716,
      "Ġà®µà®°à®µ": 717,
      "à®µà®Ļ": 718,
      "''": 719,
      "à®£à®Ļ": 720,
      "Ġà®¨à®£": 721,
      "Ġà®ĩà®Łà®Ļ": 722,
      "Ġà®ªà®²à®°": 723,
      "om": 724,
      "000": 725,
      "à®£à®°": 726,
      "à®²à®©": 727,
      "re": 728,
      "ad": 729,
      "Ġà®ķà®£à®ķ": 730,
      "Ġà®ħà®´à®ķ": 731,
      "Ġà®ªà®©": 732,
      "à®°à®¤à®®": 733,
      "à®±à®Ļ": 734,
      "Ġà®ħà®µà®±": 735,
      "à®ķà®³à®¤": 736,
      "à®¤à®Ł": 737,
      "à®©à®µà®°": 738,
      "Ġà®ªà®ļ": 739,
      "Ġà®ĩà®´": 740,
      "Ġt": 741,
      "ĠNews": 742,
      "à®Ĵ": 743,
      "à®¨à®ķà®°": 744,
      "Ġs": 745,
      "Ġà®ªà®¤à®µ": 746,
      "à¯Į": 747,
      "à¯įÂŃ": 748,
      "Ġà®¤à®ķ": 749,
      "Ġà®Ĵà®Ł": 750,
      "le": 751,
      "Ġà®Ĩà®¤à®°à®µ": 752,
      "à®´à®ķà®¤": 753,
      "à®µà®©à®Ļ": 754,
      "19": 755,
      "à®¤à®ļ": 756,
      "Ġà®Ĩà®ª": 757,
      "Ġ15": 758,
      "Ġà®īà®±à®µ": 759,
      "Ġà®°à®ļ": 760,
      "à®ªà®Ļ": 761,
      "à®ħà®¤": 762,
      "Ġà®µà®³": 763,
      ".,": 764,
      "à®ªà®Łà®µ": 765,
      "Ġà®İà®³": 766,
      "Ġà®ķà®Łà®²": 767,
      "ol": 768,
      "Ġ18": 769,
      "à¯Ĥ.": 770,
      "Ġc": 771,
      "ĠR": 772,
      "Ġà®®à®ķà®©": 773,
      "Ġ12": 774,
      "Ġà®Ĩà®µ": 775,
      "Ġà®¤à®³": 776,
      "à®ļà®Ļ": 777,
      "Ġà®ĩà®¯à®±": 778,
      "Ġp": 779,
      "Ġà®ĩà®°à®µ": 780,
      "à¯ģ:": 781,
      "à®¯à®ļ": 782,
      "Ġà®İà®©à®¤": 783,
      "ing": 784,
      "Ġà®µà®ļà®¤": 785,
      "Ġà®İà®°": 786,
      "Ġà®¨à®ķ": 787,
      "à®ªà®£": 788,
      "),": 789,
      "à®Ĩà®°": 790,
      "à®µà®®à®©": 791,
      "ion": 792,
      "Ġà®İà®¸": 793,
      "à®İà®²": 794,
      "à®ªà®ª": 795,
      "à®©à®Ļ": 796,
      "Ġà®īà®ļ": 797,
      "is": 798,
      "Ġà®®à®©à®¤": 799,
      "à®ªà®Łà®¤": 800,
      "âĢĭ": 801,
      "Ġà®ıà®°": 802,
      "ou": 803,
      "à®®à®®": 804,
      "à®©à®ª": 805,
      "à®¨à®°": 806,
      "Ġ:": 807,
      "à®¯à®µà®±": 808,
      "ai": 809,
      "Ġà®ªà®£à®®": 810,
      "ĠI": 811,
      "Ġà®ħà®µà®ļ": 812,
      "à®ľà®©": 813,
      "Ġà®ļà®¤à®µ": 814,
      "Ġà®Ĵà®´": 815,
      "ĠB": 816,
      "Ġà®Ĳà®¨": 817,
      "as": 818,
      "Ġà®ĩà®¯à®²": 819,
      "Ġà®®à®´": 820,
      "Ġà®īà®ª": 821,
      "Ġà®Ĵà®³": 822,
      "Ġà®¨à®ªà®°": 823,
      "à®°à®¤à®®à®°": 824,
      "à®Łà®£": 825,
      "Ġà®ħà®®à®°": 826,
      "Ġà®¤à®°à®ª": 827,
      "Ġà®Ĩà®Ļ": 828,
      "à¯ģà®¾": 829,
      "à®¯à®¨": 830,
      "à®ªà®Łà®®": 831,
      "Ġm": 832,
      "à®µà®°à®¤": 833,
      "Ġà®ªà®Łà®Ļ": 834,
      "Ġà®ķà®Łà®©": 835,
      "à®£à®µ": 836,
      "Ġ[": 837,
      "Ġà®®à®ķà®³": 838,
      "à®ļà®ķ": 839,
      "Ġ11": 840,
      "Ġth": 841,
      "à®ªà®°à®ª": 842,
      "à®µà®±": 843,
      "Ġà®µà®©": 844,
      "//": 845,
      "Ġin": 846,
      "à®µà®³": 847,
      "à®Łà®±": 848,
      "à¯įâĢ¦": 849,
      "el": 850,
      "à®¤à®±": 851,
      "à®µà®²à®°": 852,
      "Ġà®ĩà®®": 853,
      "Ġà®ĩà®ķ": 854,
      "Ġ`": 855,
      "ĠD": 856,
      "Ġà®°à®¤": 857,
      "Ġb": 858,
      "à¯ģ?": 859,
      "ĠL": 860,
      "Ġà®ŀ": 861,
      "à¯ģ!": 862,
      "à®®à®£à®®": 863,
      "Ġà®ĩà®¸": 864,
      "à®ļà®¨": 865,
      "âĢĺ": 866,
      "Ġà®ıà®´": 867,
      "Ġà®Ĭà®Ł": 868,
      "Ġà®¤à®ª": 869,
      "à®ªà®³": 870,
      "Ġ0": 871,
      "Ġà®¨à®®à®ķ": 872,
      "Ġà®ĩà®±à®¨": 873,
      "à®©à®²": 874,
      "à®©à®£": 875,
      "à®Łà®ļ": 876,
      "id": 877,
      "Ġf": 878,
      "à®İà®®": 879,
      "à®¤à®ªà®Ł": 880,
      "Ġà®ªà®¯à®£": 881,
      "à®·à®®": 882,
      "Ġà®ļà®©": 883,
      "Ġw": 884,
      "à®ļà®¯à®®": 885,
      "à®°à®³": 886,
      "à®¾à¯į": 887,
      "Ġà®Īà®°": 888,
      "Ġà®ķà®µà®©": 889,
      "à®ªà®µà®®": 890,
      "ĠO": 891,
      "ay": 892,
      "ent": 893,
      "ag": 894,
      "Ġà®ªà®°à®µ": 895,
      "Ġ30": 896,
      "Ġo": 897,
      "Ġ25": 898,
      "à®©à®ķ": 899,
      "Ġà®Ĭà®´": 900,
      "ch": 901,
      "Ġà®ķà®Łà®µ": 902,
      "Ġà®ķà®ª": 903,
      "à®³à®²": 904,
      "Ġ14": 905,
      "Ġà®İà®ļ": 906,
      "Ġà®°à®¯": 907,
      "à¯ģ...": 908,
      "à®¤à®ķà®®": 909,
      "Ġà®¨à®®à®¤": 910,
      "à®ľà®°": 911,
      "ĠH": 912,
      "à®´à®ª": 913,
      "ur": 914,
      "Ġà®İà®©à®ª": 915,
      "and": 916,
      "Ġà®ĩà®µà®±": 917,
      "Ġ16": 918,
      "à®ľà®¯": 919,
      "Ġà®µà®Łà®ķ": 920,
      "Ġà®ļà®±": 921,
      "à®ķà®°à®®": 922,
      "ine": 923,
      "21": 924,
      "à®®à®Ļ": 925,
      "Ġà®īà®´": 926,
      "ĠG": 927,
      "Ġ13": 928,
      "....": 929,
      "à¯ģ..": 930,
      "à®¤à®©à®®": 931,
      "Ġà®ªà®´à®ķ": 932,
      "à®Ĵà®°": 933,
      "à®®à®±": 934,
      "à®ķà®°à®©": 935,
      "Ġà®ĩà®±à®Ļ": 936,
      "à®®à®¨": 937,
      "ĠF": 938,
      "à¯ģ)": 939,
      "Ġ17": 940,
      "ex": 941,
      "Ġà®µà®±": 942,
      "Ġà®ļà®µ": 943,
      "Ġà®İà®ķ": 944,
      "201": 945,
      "et": 946,
      "à¯ĩ!": 947,
      "Ġà®ĩà®¯à®Ļ": 948,
      "Ġà®Ĵà®²": 949,
      "Ġh": 950,
      "à®µà®£": 951,
      "Ġd": 952,
      "à¯ģâĢĻ": 953,
      "Ġà®ļà®²": 954,
      "Ġà®ķà®µà®©à®®": 955,
      "Ġ50": 956,
      "à®ĩà®²": 957,
      "Ġà®ªà®¨": 958,
      "Ġà®ķà®µà®°": 959,
      "Ġ''": 960,
      "à®Ĩà®©": 961,
      "à®ħà®ª": 962,
      "30": 963,
      "ia": 964,
      "à®©à®©": 965,
      "ct": 966,
      "Ġà®ªà®ŀ": 967,
      "Ġn": 968,
      "à®ķà®©à®µ": 969,
      "ak": 970,
      "Ġà®®à®©à®®": 971,
      "ĠV": 972,
      "ir": 973,
      "ĠE": 974,
      "Ġà®īà®Łà®©à®Ł": 975,
      "Ġà®¤à®©à®ķ": 976,
      "Ġà®ļà®£": 977,
      "à®ķà®¨": 978,
      "Ġà®¨à®µ": 979,
      "Ġthe": 980,
      "à¯ģ;": 981,
      "à®µà®´": 982,
      "Ġ199": 983,
      "Ġof": 984,
      "Ġà®ıà®ķ": 985,
      "à®¿-": 986,
      "à®ªà®¯": 987,
      "à®¯à®²à®²": 988,
      "Ġà®ªà®°à®ª": 989,
      "Ġ100": 990,
      "à®ķà®£à®ķ": 991,
      "Ġà®ªà®£à®¤": 992,
      "Ġà®ķà®µà®²": 993,
      "Ġà®ķà®Łà®±": 994,
      "!!": 995,
      "ro": 996,
      "10": 997,
      "Ġa": 998,
      "à®£à®ķ": 999,
      "ik": 1000,
      "à®¤à®µà®©": 1001,
      "Ġà®Ĩà®¸": 1002,
      "à®ªà®Łà®Ļ": 1003,
      "ĠK": 1004,
      "à®±à®ļ": 1005,
      "Ġ24": 1006,
      "Ġà®¤à®®à®¤": 1007,
      "Ġà®ĵà®¯": 1008,
      "à®Łà®®à®©": 1009,
      "à®ļà®Ł": 1010,
      "à®²à®Ł": 1011,
      "à®·à®¯à®Ļ": 1012,
      "est": 1013,
      "à®µà®°à®Ļ": 1014,
      "Ġà®īà®²à®ķà®®": 1015,
      "Ġà®ĩà®±à®ķ": 1016,
      "à®ĩà®©": 1017,
      "50": 1018,
      "Ġà®ĩà®³à®®": 1019,
      "à®·à®¯à®®": 1020,
      "Ġ/": 1021,
      "Ġà®ĩà®´à®¨": 1022,
      "iv": 1023,
      "à®®à®Ł": 1024,
      "ĠâĢĿ": 1025,
      "à®ķà®³à®µ": 1026,
      "à®ªà®°à®®": 1027,
      "à®£à®²": 1028,
      "à®Łà®¨": 1029,
      "Ġà®ĩà®µà®°à®¤": 1030,
      "à®¤à®´": 1031,
      "Ġà®®à®¨": 1032,
      ").": 1033,
      "un": 1034,
      "à®ĵ": 1035,
      "Ġà®Ĳà®ķ": 1036,
      "oo": 1037,
      "um": 1038,
      "Ġà®Ĩà®ķà®µ": 1039,
      "Ġà®ħà®Łà®Ļ": 1040,
      "à¯įâĢĮ": 1041,
      "à®ļà®©à®®": 1042,
      "tt": 1043,
      "ĠW": 1044,
      "Ġà®¤à®¤": 1045,
      "Ġà®ķà®©à®µ": 1046,
      "à®¯à®³": 1047,
      "Ġà®ļà®ļ": 1048,
      "à®¯à®£": 1049,
      "Ġà®ªà®²à®©": 1050,
      "Ġà®°à®µ": 1051,
      "à®°à®£à®¤": 1052,
      "Ġà®Ĩà®´": 1053,
      "à®³à®µà®°": 1054,
      "à®µà®¤à®©": 1055,
      "à¯Ī:": 1056,
      "à®ļà®ķà®°": 1057,
      "à®ħà®®": 1058,
      "ath": 1059,
      "à®¨à®Ł": 1060,
      "Ġà®ħà®ŀ": 1061,
      "Ġk": 1062,
      "Ġà®ªà®µ": 1063,
      "à®¿)": 1064,
      "à®µà®°à®®": 1065,
      "Ġà®Ĵà®±": 1066,
      "ip": 1067,
      "à¯ģâĢĿ": 1068,
      "Ġà®®à®ļ": 1069,
      "Ġà®°à®ľ": 1070,
      "us": 1071,
      "à®®à®ª": 1072,
      "ation": 1073,
      "Ġà®Ĳà®°": 1074,
      "Ġà®ªà®¸": 1075,
      "à®µà®²à®ķà®¤": 1076,
      "av": 1077,
      "à®°à®¨": 1078,
      "à®°à®µà®°": 1079,
      "Ġ21": 1080,
      "à®¿âĢĻ": 1081,
      "Ġà®ªà®²à®®": 1082,
      "Ġà®ªà®¯à®£à®®": 1083,
      "Ġl": 1084,
      "Ġà®ħà®Łà®ķ": 1085,
      "à®¤à®²à®®": 1086,
      "em": 1087,
      "Ġà®ķà®Łà®®": 1088,
      "Ġà®µà®¯": 1089,
      "Ġ198": 1090,
      "Ġà®ħà®µà®¤": 1091,
      "à®¤à®ķà®¤": 1092,
      "Ġà®ªà®°à®µà®²": 1093,
      "à®Łà®ķà®Ļ": 1094,
      "ig": 1095,
      "à¯į.,": 1096,
      "Ġà®¤à®°à®®": 1097,
      "à®°à®£à®Ļ": 1098,
      "Ġà®Ĭà®±": 1099,
      "Ġ40": 1100,
      "Ġà®ıà®®": 1101,
      "à®±à®µà®±": 1102,
      "à®ķà®µà®°": 1103,
      "à®ľà®ķ": 1104,
      "à®¿.,": 1105,
      "ot": 1106,
      "à®²à®ļ": 1107,
      "ind": 1108,
      "Ġà®ķà®Łà®¤": 1109,
      "à®ħà®µà®°": 1110,
      "Ġv": 1111,
      "Ġà®ĩà®´à®ª": 1112,
      "ul": 1113,
      "à®ªà®¤à®©": 1114,
      "--": 1115,
      "à®©à®¨": 1116,
      "Ġà®ĩà®¤à®´": 1117,
      "12": 1118,
      "Ġà®İà®®à®¤": 1119,
      "Ġà®ªà®¯à®Ļ": 1120,
      "à®²à®µà®°": 1121,
      "à®ªà®µà®¤": 1122,
      "Ġ?": 1123,
      "Ġà®¨à®°": 1124,
      "Ġà®ķà®£à®µà®°": 1125,
      "Ġà®®à®²à®°": 1126,
      "Ġ22": 1127,
      "à®¿:": 1128,
      "Ġto": 1129,
      "à®¾...": 1130,
      "ĠIn": 1131,
      "Ġà®ªà®´à®©": 1132,
      "à®£à®±": 1133,
      "Ġà®Ĭà®ķ": 1134,
      "à®ªà®µà®Ļ": 1135,
      "à¯ģ\"": 1136,
      "à®Łà®³": 1137,
      "Ġà®ħà®µà®Ļ": 1138,
      "line": 1139,
      "Ġand": 1140,
      "à®ªà®Łà®²": 1141,
      "à®±à®°": 1142,
      "Ġà®ªà®´à®Ļ": 1143,
      "Ġà®¤à®Łà®µ": 1144,
      "à®®à®ļ": 1145,
      "Ġà®Ĩà®ªà®¤": 1146,
      "Ġà®ıà®ª": 1147,
      "à®·à®¯à®¤": 1148,
      "Ġà®¤à®°à®µ": 1149,
      "Ġà®ľà®©à®¨": 1150,
      "ĠÂ": 1151,
      "Ġà®°à®©": 1152,
      "ttp": 1153,
      "Ġà®ķà®®à®²": 1154,
      "Ġ)": 1155,
      "im": 1156,
      "à®¤à®°à®®": 1157,
      "Ġà®ĩà®°à®¤": 1158,
      "à®¤à®³": 1159,
      "://": 1160,
      "Ġ23": 1161,
      "à®ļà®µ": 1162,
      "à¯į(": 1163,
      "Ġ2020": 1164,
      "Ġà®®à®¹": 1165,
      "Ġà®®à®ŀ": 1166,
      "ĠU": 1167,
      "à¯ĪâĢĻ": 1168,
      "Ġà®ħà®°à®Ļ": 1169,
      "Ġà®®à®°à®ª": 1170,
      "âĢľ": 1171,
      "Ġà®ħà®¯": 1172,
      "à®´à®©": 1173,
      "à®¯à®ķà®®": 1174,
      "ap": 1175,
      "Ġà®ķà®£à®µà®©": 1176,
      "Ġà®ķà®ļ": 1177,
      "à¯Ī)": 1178,
      "ĠOn": 1179,
      "à®²à®²": 1180,
      "11": 1181,
      "à®°à®®à®£": 1182,
      "à®°à®ªà®²à®®": 1183,
      "à®ªà®ļ": 1184,
      "à®´à®¤": 1185,
      "Ġ...": 1186,
      "à®ķà®©à®Ļ": 1187,
      "à¯ģ'": 1188,
      "Ġ197": 1189,
      "ce": 1190,
      "Ġà®ħà®ķà®±": 1191,
      "à®¾..": 1192,
      "ov": 1193,
      "Ġ27": 1194,
      "Ġà®īà®²à®ķà®¤": 1195,
      "à¯ģâĢ¦": 1196,
      "18": 1197,
      "Ġà®¨à®Łà®ª": 1198,
      "Ġà®®à®¯": 1199,
      "à®ĩà®ª": 1200,
      "à®¤à®ķà®Ļ": 1201,
      "Ġà®ĵà®µ": 1202,
      "à®³à®Łà®ķ": 1203,
      "os": 1204,
      "ore": 1205,
      "Ġà®īà®©à®ķ": 1206,
      "à®ĩà®°": 1207,
      "Ġà®¨à®±": 1208,
      "à®ħà®¨": 1209,
      "Ġ26": 1210,
      "Ġà®¤à®³à®¤": 1211,
      "à®ļà®³": 1212,
      "ĠTh": 1213,
      "Ġà®īà®®": 1214,
      "Ġà®ħà®²à®Ļ": 1215,
      "à®¤à®°à®°": 1216,
      "à¯ģ-": 1217,
      "Ġà®¨à®²à®©": 1218,
      "Ġà®Ĭà®¤": 1219,
      "Ġà®İà®µà®°": 1220,
      "à®ħà®Ł": 1221,
      "Ġ28": 1222,
      "à®ªà®µà®©": 1223,
      "Ġà®ªà®°à®ªà®°à®ª": 1224,
      "à®ħà®©": 1225,
      "à®¯à®ķà®°": 1226,
      "ut": 1227,
      "à®´à®ķà®®": 1228,
      "Ġ(\"": 1229,
      "à®¿ÂŃ": 1230,
      "com": 1231,
      "Ġon": 1232,
      "15": 1233,
      "à®©à®Ł": 1234,
      "200": 1235,
      "à®²à®¯": 1236,
      "Ġà®ķà®·": 1237,
      "à®ķà®´à®ķà®¤": 1238,
      "à®ķà®ªà®Ł": 1239,
      "Ġà®®à®±à®¨": 1240,
      "Ġà®ªà®Łà®ķ": 1241,
      "Ġ&": 1242,
      "Ġà®Ĭà®´à®²": 1243,
      "à®´à®Ļ": 1244,
      "à¯Ī!": 1245,
      "Ġà®®à®Ļ": 1246,
      "Ġà®ħà®®à®²": 1247,
      "à®ķà®Łà®²": 1248,
      "à®¯à®°à®ļ": 1249,
      "Ġ60": 1250,
      "Ġà®ķà®µà®©à®¤": 1251,
      "ri": 1252,
      "Ġg": 1253,
      "Ġà®ľà®©à®µà®°": 1254,
      "Ġà®®à®©à®¨": 1255,
      "Ġà®¨à®ª": 1256,
      "Ġà®¨à®¤": 1257,
      "à®ªà®Łà®ķ": 1258,
      "ra": 1259,
      "ow": 1260,
      "Ġà®ªà®²à®µ": 1261,
      "à®¿'": 1262,
      "Ġà®ĩà®¯à®¨": 1263,
      "à®ĥ": 1264,
      "Ġà®ªà®°à®®": 1265,
      "Ġà®ĩà®µà®©": 1266,
      "ta": 1267,
      "Ġà®¹à®°": 1268,
      "Ġà®®à®°à®Ļ": 1269,
      "à®ķà®²à®®": 1270,
      "Ġà®ªà®´à®®": 1271,
      "Ġà®µà®¤": 1272,
      "Ġà®ļà®®à®¯à®¤": 1273,
      "Ġà®Ĩà®©à®¨": 1274,
      "Ġà®ķà®¤à®µ": 1275,
      "ph": 1276,
      "Ġà®Ĭà®Łà®ķà®Ļ": 1277,
      "ers": 1278,
      "Ġ196": 1279,
      "à®¤à®£": 1280,
      "à®²à®ķà®Ł": 1281,
      "Ġà®¨à®µà®®": 1282,
      "Ġà®Ĭà®°à®Łà®Ļ": 1283,
      "Ġà®Ĩà®¤à®°": 1284,
      "à®ļà®©à®Ļ": 1285,
      "25": 1286,
      "ĠJ": 1287,
      "à®·à®¤": 1288,
      "Ġ#": 1289,
      "à®¾âĢĻ": 1290,
      "à®ķà®°à®µ": 1291,
      "Ġà®ļà®®à®°": 1292,
      "à¯ĩ?": 1293,
      "Ġà®¤à®ŀ": 1294,
      "à®©à®ļ": 1295,
      "ĠâĢĭ": 1296,
      "à®´à®±": 1297,
      "ĠRe": 1298,
      "Ġ2011": 1299,
      "ment": 1300,
      "ĠâĢĺâĢĺ": 1301,
      "à®µà®°à®©": 1302,
      "à¯į''": 1303,
      "à¯įâĢĭ": 1304,
      "à¯Ĩ.": 1305,
      "Ùİ": 1306,
      "à®¾!": 1307,
      "ess": 1308,
      "40": 1309,
      "Ġà®ĩà®°à®Ł": 1310,
      "à®Łà®£à®®": 1311,
      "od": 1312,
      "Ġà®ªà®¯à®®": 1313,
      "old": 1314,
      "Ġst": 1315,
      "Ġà®®à®©à®ļ": 1316,
      "Ġà®©": 1317,
      "Ġà®ľà®®": 1318,
      "Ġ2019": 1319,
      "à®ļà®°à®µ": 1320,
      "Ġà®İà®Łà®ª": 1321,
      "ith": 1322,
      "à¯Ģ.": 1323,
      "Ġà®ħà®¸": 1324,
      "Ġre": 1325,
      "Ġà®°à®®": 1326,
      "ttps": 1327,
      "à®ªà®ķà®®": 1328,
      "à®¯à®ªà®Ł": 1329,
      "Ġà®ļà®®à®¯à®®": 1330,
      "Ãł": 1331,
      "à¯į),": 1332,
      "à®®à®¤à®®": 1333,
      "à®ĩà®¤à®©": 1334,
      "à®¯à®¸": 1335,
      "Ġà®¨à®ķà®°à®®": 1336,
      "Ġtamil": 1337,
      "ĠOnline": 1338,
      "à®¯à®ķà®¤": 1339,
      "à®¿!": 1340,
      "ate": 1341,
      "Ġà®Ĩà®¨": 1342,
      "og": 1343,
      "Ġ29": 1344,
      "à®ĩà®µ": 1345,
      "Ġà®µà®°à®®": 1346,
      "à®¤à®°à®ª": 1347,
      "Ġà®ªà®±à®µ": 1348,
      "à®²à®¨": 1349,
      "à®īà®Ļ": 1350,
      "Ġ!": 1351,
      "à®ªà®°à®Ļ": 1352,
      "Ġ*": 1353,
      "16": 1354,
      "Ġ2021": 1355,
      "ies": 1356,
      "Ġà®®à®°à®¤": 1357,
      "vi": 1358,
      "Ġà®µà®£à®Ļ": 1359,
      "Ġà®ķà®³à®®": 1360,
      "à®°à®¯": 1361,
      "17": 1362,
      "ist": 1363,
      "à®¯à®³à®µ": 1364,
      "Ġà®®à®°à®£à®®": 1365,
      "Ġà®¨à®ķà®°à®¤": 1366,
      "Ġà®°à®·": 1367,
      "Ġà®ĩà®¯": 1368,
      "à®ķà®Łà®¨": 1369,
      "à®°à®ªà®²": 1370,
      "âĢĻâĢĻ": 1371,
      "Ġà®µà®°à®ª": 1372,
      "à®ľà®ªà®ķ": 1373,
      "à®ľà®®": 1374,
      "à¯ĩ...": 1375,
      "Ġà®¨à®Łà®©": 1376,
      "org": 1377,
      "à®ķà®®à®¤": 1378,
      "Ġà®®à®¤à®¤": 1379,
      "à¯Ī;": 1380,
      "à®ħà®²": 1381,
      "à®¿...": 1382,
      "ost": 1383,
      "à®®à®£à®¤": 1384,
      "Ġà®ħà®µà®ļà®°": 1385,
      "à®¤à®³à®¤": 1386,
      "Ġà®īà®³à®µ": 1387,
      "art": 1388,
      "Ġà®®à®¤à®®": 1389,
      "13": 1390,
      "Ġà®ªà®¯à®£à®¤": 1391,
      "à®£à®¯": 1392,
      "Ġà®ħà®µà®©à®¤": 1393,
      "Ġà®īà®Łà®®": 1394,
      "Ġ+": 1395,
      "oc": 1396,
      "à¤": 1397,
      "all": 1398,
      "Ġà®ħà®ľ": 1399,
      "à®¯à®ķà®©": 1400,
      "à®¤à®³à®Ļ": 1401,
      "ww": 1402,
      "24": 1403,
      "Ġà®¨à®ķà®°à®Ļ": 1404,
      "Ġ{": 1405,
      "14": 1406,
      "ab": 1407,
      "ĠCh": 1408,
      "Ġà®ķà®²à®ķ": 1409,
      "à¯Ī...": 1410,
      "op": 1411,
      "à®©à®¸": 1412,
      "ĠâĢ¦": 1413,
      "ter": 1414,
      "Ġà®ľà®ª": 1415,
      "Ġà®¤à®´": 1416,
      "Ġà®İà®±": 1417,
      "ome": 1418,
      "Ġà®ķà®²à®µ": 1419,
      "à®¯à®µà®¨": 1420,
      "Ġ194": 1421,
      "ric": 1422,
      "60": 1423,
      "99": 1424,
      "à¯į.âĢĿ": 1425,
      "ud": 1426,
      "à®Ī": 1427,
      "Ġà®ķà®Ļ": 1428,
      "Ġà®Ĩà®©à®¤": 1429,
      "Ġà®ªà®Łà®ª": 1430,
      "à®Łà®Ł": 1431,
      "âĢĵ": 1432,
      "à®µà®ļà®®": 1433,
      "à®ķà®Łà®©": 1434,
      "Ġ2016": 1435,
      "à®³à®¸": 1436,
      "Ġâ": 1437,
      "Ġà®¨à®¨": 1438,
      "à¯į.[": 1439,
      "Ġà®ļà®ŀ": 1440,
      "Ġ2018": 1441,
      "Ġà®ªà®²à®¤": 1442,
      "ma": 1443,
      "22": 1444,
      "Ġ195": 1445,
      "adu": 1446,
      "à®ķà®³à®ª": 1447,
      "Ġ2017": 1448,
      "Ġà®ĩà®©à®¤": 1449,
      "Ġ31": 1450,
      "Ġà®¨à®ļ": 1451,
      "à®ħà®°à®ļ": 1452,
      "Ġà®¤à®ļ": 1453,
      "à¯Ī\"": 1454,
      "Ġ35": 1455,
      "à®µà®²à®ķà®®": 1456,
      "]]": 1457,
      "ĠâĢĻ": 1458,
      "Ġà®īà®ªà®¯": 1459,
      "Ġà®ħà®µà®³à®¤": 1460,
      "Ġà®°à®ķ": 1461,
      "Ġà®İà®¤à®±": 1462,
      "Ġà®±": 1463,
      "Ġà®¤à®³à®ªà®¤": 1464,
      "Ġà®®à®£à®²": 1465,
      "Ġ..": 1466,
      "à®¿\"": 1467,
      "à®¸à®²": 1468,
      "Ġfor": 1469,
      "Ġà®ĩà®²à®µà®ļ": 1470,
      "Ġà®Ĩà®´à®®": 1471,
      "Ġà®Ĩà®ĥà®ª": 1472,
      "à®¨à®²": 1473,
      "ac": 1474,
      "Ġà®Ĳà®ª": 1475,
      "à®Łà®ķà®®": 1476,
      "wik": 1477,
      "à®²à®£": 1478,
      "Ġà®ķà®¨": 1479,
      "à®®à®³à®µ": 1480,
      "ive": 1481,
      "à¯Ī'": 1482,
      "Ġà®Īà®´à®¤": 1483,
      "ang": 1484,
      "à®Ĭ": 1485,
      "Ġ``": 1486,
      "Ġà®°à®ķà®ļ": 1487,
      "à®¿..": 1488,
      "à¯Ī-": 1489,
      "à¯ĭ.": 1490,
      "https": 1491,
      "à®ķà®©à®¤": 1492,
      "à¯ĪâĢĿ": 1493,
      "à®¤à®³à®µ": 1494,
      "Ġà®ªà®¯à®©à®°": 1495,
      "Ġr": 1496,
      "Ġà®ķà®´à®ķà®¤": 1497,
      "Ġ80": 1498,
      "Ġà®Ĩà®µà®£à®Ļ": 1499,
      "à¯ģ.[": 1500,
      "Ġà®Ĩà®ķà®¸": 1501,
      "Ġà®īà®¯à®°à®®": 1502,
      "à®İà®Ļ": 1503,
      "à®¨à®®": 1504,
      "à®µà®°à®°": 1505,
      "edia": 1506,
      "à®¯à®²à®°": 1507,
      "à¯į....": 1508,
      "Ġ500": 1509,
      "Ġ2015": 1510,
      "Ġ2014": 1511,
      "à®³à®ļ": 1512,
      "à®ķà®°à®¤": 1513,
      "Ġà®ªà®ķà®²": 1514,
      "à®ķà®©à®®": 1515,
      "à®ªà®³à®®": 1516,
      "tit": 1517,
      "à®¯à®µà®©": 1518,
      "à®ķà®¸": 1519,
      "Ġà®ĩà®±à®ª": 1520,
      "à¯Ī..": 1521,
      "à®ħà®°": 1522,
      "iy": 1523,
      "à®ļà®£": 1524,
      "our": 1525,
      "à¯įâĢĻâĢĻ": 1526,
      "Ġà®µà®®": 1527,
      "à®¾'": 1528,
      "Ġà®ĵà®µà®°": 1529,
      "à®ªà®´": 1530,
      "Ġà®ĩà®²à®Ł": 1531,
      "atest": 1532,
      "à®±à®ªà®Ł": 1533,
      "Ġ70": 1534,
      "Ġà®µà®Łà®®": 1535,
      "ub": 1536,
      "à®ļà®©à®¤": 1537,
      "Ġ[[": 1538,
      "Â®": 1539,
      "Ġà®®à®£à®®": 1540,
      "Ġ//": 1541,
      "à®²à®³": 1542,
      "à®¤à®¤à®±": 1543,
      "Ġà®¤à®³à®°": 1544,
      "à®¤à®°à®©": 1545,
      "Ġà®ĩà®©à®®": 1546,
      "ec": 1547,
      "Ġà®®à®±à®ķ": 1548,
      "à®ķà®´à®ķ": 1549,
      "Ġà®ħà®ķà®¤": 1550,
      "à®ħà®¤à®©": 1551,
      "Ġ2009": 1552,
      "php": 1553,
      "title": 1554,
      "à®¾à¯į.": 1555,
      "à®Łà®ļà®ª": 1556,
      "à®ªà®ķà®¤": 1557,
      "Ġà®®à®°à®®": 1558,
      "à®ŀà®©": 1559,
      "Ġà®ķà®©à®Ł": 1560,
      "index": 1561,
      "23": 1562,
      "à®±à®³": 1563,
      "ide": 1564,
      "à®®à®¸": 1565,
      "Ġà®ªà®¤à®±": 1566,
      "à®ļà®ķà®®": 1567,
      "Ġà®īà®Łà®±": 1568,
      "ook": 1569,
      "Ġà®ļà®°à®£": 1570,
      "Ġà®Ĵà®£": 1571,
      "if": 1572,
      "à®²à®ķà®®": 1573,
      "Ġà®ĵà®°à®³à®µ": 1574,
      "Ġà®ķà®³à®¤": 1575,
      "Ġà®¤à®³à®®": 1576,
      "à¯į).": 1577,
      "ĠâĢĭâĢĭ": 1578,
      "à®ħà®µ": 1579,
      "ous": 1580,
      "à®ĩà®µà®°": 1581,
      "Ġ45": 1582,
      "Ġà®²à®ķ": 1583,
      "Ġ90": 1584,
      "oldid": 1585,
      "à®°à®°à®ļ": 1586,
      "à®¤à®µà®³": 1587,
      "80": 1588,
      "27": 1589,
      "Ġà®Ĳà®¯": 1590,
      "à®¤à®³à®®": 1591,
      "Ġà®µà®²à®¤": 1592,
      "Ġis": 1593,
      "Ġà®®à®Łà®Ļ": 1594,
      "Ø§": 1595,
      "à¯ģÂŃ": 1596,
      "à®¹à®®": 1597,
      "ĠInd": 1598,
      "up": 1599,
      "à®¯à®®à®Ł": 1600,
      "ort": 1601,
      "Ġà®īà®¯à®°à®¤": 1602,
      "à®¤à®¯": 1603,
      "à®²à®¸": 1604,
      "Ġy": 1605,
      "Ġà®ªà®±à®ķ": 1606,
      "à®¯à®°à®Ļ": 1607,
      "Ġà®ļà®®à®®": 1608,
      "ill": 1609,
      "Ġà®¤à®°à®¤": 1610,
      "ĠCom": 1611,
      "à®Łà®ķà®¤": 1612,
      "à¯į/": 1613,
      "45": 1614,
      "??": 1615,
      "à®¤à®©à®¤": 1616,
      "ht": 1617,
      "à®Łà®¯à®®": 1618,
      "Ġe": 1619,
      "à®Łà®µà®©": 1620,
      "à®¾âĢ¦": 1621,
      "à®Łà®¯à®Ļ": 1622,
      "Ġà®¨à®²à®®": 1623,
      "à®¾\"": 1624,
      "Ġà®ĩà®©à®ª": 1625,
      "ly": 1626,
      "500": 1627,
      "Ġà®ħà®°à®£": 1628,
      "à®®à®ķà®©": 1629,
      "à®±à®µà®©": 1630,
      "Ġà®ĩà®²à®µà®ļà®®": 1631,
      "28": 1632,
      "ipedia": 1633,
      "2020": 1634,
      "Ġà®ªà®ķà®µ": 1635,
      "Ġà®®à®°à®£à®¤": 1636,
      "à®ªà®°à®¤": 1637,
      "Ġà®ªà®¯à®¨": 1638,
      "Ġ2013": 1639,
      "à®²à®±": 1640,
      "à¯ĭ?": 1641,
      "26": 1642,
      "29": 1643,
      "à®µà®°à®µ": 1644,
      "Ġà®¤à®ķà®°": 1645,
      "à®İà®ª": 1646,
      "wikipedia": 1647,
      "Ġà®ħà®°à®ª": 1648,
      "\")": 1649,
      "Ġà®ħà®ªà®°": 1650,
      "ram": 1651,
      "2021": 1652,
      "à¯į_": 1653,
      "35": 1654,
      "à®±à®Ł": 1655,
      "eb": 1656,
      "Ġà®Łà®©": 1657,
      "Ġà®ĩà®©à®Ļ": 1658,
      "à®Łà®²à®¤": 1659,
      "ish": 1660,
      "à®ľà®¯à®ķ": 1661,
      "Ġà®ħà®Łà®°": 1662,
      "Ġà®¤à®³à®Ļ": 1663,
      "Ġà®īà®ķ": 1664,
      "ant": 1665,
      "à®İà®¤": 1666,
      "à®µà®¯à®¤": 1667,
      "Ġà®µà®¯à®²": 1668,
      "à®ķà®³à®®": 1669,
      "à®İà®©à®ķ": 1670,
      "ity": 1671,
      "ank": 1672,
      "Ġà®ıà®µ": 1673,
      "à®¾-": 1674,
      "Ġà®µà®³à®®": 1675,
      "ĠSt": 1676,
      "à®µà®ķà®Ļ": 1677,
      "Ġwith": 1678,
      "à®ľà®¸": 1679,
      "Ġ2008": 1680,
      "à®©à®ļà®°": 1681,
      "à®ķà®´à®ķà®®": 1682,
      "Ġà®ĩà®³à®µà®°": 1683,
      "ee": 1684,
      "à®´à®µ": 1685,
      "à®©à®ķà®°à®©": 1686,
      "ell": 1687,
      "à®Ĩà®ķ": 1688,
      "Ġà®¨à®°à®®": 1689,
      "ĠMore": 1690,
      "à®µà®£à®©": 1691,
      "ĠLatest": 1692,
      "Ġà®īà®²à®ķà®ª": 1693,
      "Ġà®ªà®°à®¨": 1694,
      "ÙĴ": 1695,
      "à®°à®´": 1696,
      "à®£à®ļ": 1697,
      "end": 1698,
      "à¯ĩ..": 1699,
      "Ġ300": 1700,
      "uth": 1701,
      "70": 1702,
      "à®ħà®£": 1703,
      "âĢ¦]": 1704,
      "à®°à®®à®®": 1705,
      "Ġà®ķà®´à®ķà®®": 1706,
      "à¯Ī?": 1707,
      "Ġà®ĩà®µà®³": 1708,
      "Ġà®ķà®´à®ķ": 1709,
      "à®¸à®°": 1710,
      "nd": 1711,
      "Ġà®Ĳà®Ł": 1712,
      "Ġ2012": 1713,
      "à®°à®ķà®®": 1714,
      "Ġà®²à®£": 1715,
      "Ġà®¨à®³": 1716,
      "Ġà®µà®¯à®ļ": 1717,
      "à®µà®²à®®": 1718,
      "à®¤à®¸": 1719,
      "Ġà®ļà®°à®ķ": 1720,
      "Ġ2010": 1721,
      "ĠÂ·": 1722,
      "75": 1723,
      "Ġà®ĩà®´à®ķ": 1724,
      "Ġà®®à®©à®ª": 1725,
      "à®ķà®±à®¤": 1726,
      "à®Łà®ªà®¤": 1727,
      "Ġà®ļà®Łà®Ļ": 1728,
      "à®±à®´": 1729,
      "Ġà®İà®©à®ļ": 1730,
      "ĠY": 1731,
      "à®¿?": 1732,
      "Ġà®ªà®±à®¨": 1733,
      "ian": 1734,
      "Ġà®¨à®Łà®°": 1735,
      "Ġà®ķà®ŀ": 1736,
      "à®¾ÂŃ": 1737,
      "][": 1738,
      "ary": 1739,
      "36": 1740,
      "âĢĺâĢĺ": 1741,
      "à®µà®°à®ª": 1742,
      "90": 1743,
      "ber": 1744,
      "Ġà®¯à®¤": 1745,
      "Ġà®ħà®°à®ļà®°": 1746,
      "Ġà®ħà®°à®ļà®©": 1747,
      "age": 1748,
      "ĠHome": 1749,
      "ry": 1750,
      "à®ªà®¸": 1751,
      "Ġà®®à®¯à®ķ": 1752,
      "à®¤à®°à®Ļ": 1753,
      "à®ļà®®à®¯à®®": 1754,
      "Ġà®µà®²à®®": 1755,
      "ast": 1756,
      "à®©à®ŀ": 1757,
      "à®°à®ķà®¤": 1758,
      "Ġà®µà®£à®ķ": 1759,
      "Ġ36": 1760,
      "Ġ2006": 1761,
      "ie": 1762,
      "ÙĦ": 1763,
      "à®¿âĢĿ": 1764,
      "à®ļà®¯": 1765,
      "à®ĩà®Ļ": 1766,
      "Ġà®ķà®¯": 1767,
      "Ġà®¤à®¯à®Ļ": 1768,
      "Ġ2007": 1769,
      "Ġà®Ĩà®ľà®°": 1770,
      "à®ĩà®²à®Ļ": 1771,
      "ite": 1772,
      "are": 1773,
      "à®¤à®©à®Ļ": 1774,
      "ory": 1775,
      "à®¾?âĢĿ": 1776,
      "à®īà®³": 1777,
      "à®®à®ķà®³": 1778,
      "Ġà®®à®°à®£": 1779,
      "à®¤à®ķà®°": 1780,
      "Ġà®¤à®®à®ķ": 1781,
      "ĠâĨ": 1782,
      "ru": 1783,
      "Ġà®īà®¤à®Ł": 1784,
      "ear": 1785,
      "Ġà®µà®µ": 1786,
      "à®¯à®²à®®": 1787,
      "Ġà®Ĳà®®": 1788,
      "à®ªà®³à®µ": 1789,
      "ff": 1790,
      "Ġ=": 1791,
      "à®ħà®±": 1792,
      "\",": 1793,
      "Ġà®Ĩà®µà®¤": 1794,
      "Ġà®ļà®ķà®²": 1795,
      "Ġà®ķà®²à®ª": 1796,
      "Ġà®ħà®µà®ļà®°à®®": 1797,
      "Ġà®³": 1798,
      "à®©à®µà®©": 1799,
      "Ġ32": 1800,
      "Ġà®İà®ŀ": 1801,
      "à®ªà®ķà®²": 1802,
      "37": 1803,
      "Ġà®ħà®²à®ķ": 1804,
      "Ġ2000": 1805,
      "à®·à®©à®°": 1806,
      "he": 1807,
      "Ġà®ĵà®ļ": 1808,
      "nadu": 1809,
      "ect": 1810,
      "Ġ150": 1811,
      "ard": 1812,
      "Ġà®µà®©à®¤": 1813,
      "ĠThe": 1814,
      "Ġ75": 1815,
      "Ġ[âĢ¦]": 1816,
      "à®¾)": 1817,
      "01": 1818,
      "à®²à®ķà®¤": 1819,
      "Ġà®ļà®®à®¯à®Ļ": 1820,
      "Ġà®µà®ļà®¨": 1821,
      "----": 1822,
      "à¯į.\"": 1823,
      "à®ĩà®¤à®±": 1824,
      "à®Łà®¤à®±": 1825,
      "Ġà®Ĩà®²à®¯à®¤": 1826,
      "Ġà®¨à®²à®¤": 1827,
      "Ġà®ħà®±à®ķ": 1828,
      "Ġà®İà®¯": 1829,
      "à®¹à®°": 1830,
      "Ġà®īà®²à®°": 1831,
      "à®¤à®¤à®©": 1832,
      "ann": 1833,
      "Ġà®Īà®¸": 1834,
      "Ġà®ªà®¯à®ª": 1835,
      "Ġà®Łà®µ": 1836,
      "qu": 1837,
      "iz": 1838,
      "ont": 1839,
      "Ġà®ªà®²à®ķ": 1840,
      "out": 1841,
      "à®Łà®²à®®": 1842,
      "à®®à®²à®°": 1843,
      "44": 1844,
      "à®°à®µà®¤": 1845,
      "à®·à®Ļ": 1846,
      "à®¾âĢĿ": 1847,
      "à®¨à®ªà®°": 1848,
      "à¯į..!": 1849,
      "ld": 1850,
      "ext": 1851,
      "Ġà®Ĳà®¸": 1852,
      "Ġà®ħà®µà®®": 1853,
      "à®ħà®ķ": 1854,
      "ail": 1855,
      "ĠPost": 1856,
      "38": 1857,
      "à®Ĩà®£": 1858,
      "Ġà®ªà®®": 1859,
      "39": 1860,
      "Ġà®Ĩà®ªà®°": 1861,
      "Ġà®²à®ŀ": 1862,
      "à®²à®¯à®¤": 1863,
      "Ġà®µà®°à®¤": 1864,
      "Ġsex": 1865,
      "ĠTag": 1866,
      "Ġà®ªà®£à®ķ": 1867,
      "31": 1868,
      "à®Łà®ªà®Ł": 1869,
      "05": 1870,
      "Ġà®ķà®²à®Ļ": 1871,
      "Ġà®ħà®ķà®°": 1872,
      "Ġà®¨à®Łà®®": 1873,
      "ress": 1874,
      "à®Łà®¸": 1875,
      "Ġà®ĩà®³à®Ļ": 1876,
      "Ġà®ľà®²": 1877,
      "ĠIndia": 1878,
      "Ġà®µà®°à®ķ": 1879,
      "à®µà®²à®ķ": 1880,
      "Ġà®¨à®·": 1881,
      "à®°à®¹": 1882,
      "ood": 1883,
      "02": 1884,
      "ðŁ": 1885,
      "Ġ;": 1886,
      "Â®Â": 1887,
      "Ġà®®à®°à®ķ": 1888,
      "ĠRs": 1889,
      "à®°à®±": 1890,
      "49": 1891,
      "pl": 1892,
      "Ġà®ħà®²à®Ł": 1893,
      "Ġ48": 1894,
      "Ġà®°à®Ļ": 1895,
      "à¯ĩâĢĻ": 1896,
      "Ġà®ķà®©à®®": 1897,
      "Ġà®īà®ªà®ķà®°": 1898,
      "09": 1899,
      "ial": 1900,
      "âĢį": 1901,
      "Ġà®ħà®µà®°à®µà®°": 1902,
      "à®Łà®©à®®": 1903,
      "Ġà®Łà®ª": 1904,
      "**": 1905,
      "à®ķà®¯": 1906,
      "à®Łà®£à®¤": 1907,
      "Ġà®ĩà®¤à®¯à®¤": 1908,
      "Ġ33": 1909,
      "Ġà®ľà®©à®¤": 1910,
      "à®£à®®à®Ł": 1911,
      "Ġà®ıà®Ł": 1912,
      "à®ľà®ķà®µ": 1913,
      "Ġà®ĩà®©à®µ": 1914,
      "Ġà®ļà®°à®¤": 1915,
      "ice": 1916,
      "ĠTamilnadu": 1917,
      "Ġch": 1918,
      "à®£à®µà®©": 1919,
      "à®¯à®²à®±": 1920,
      "ight": 1921,
      "ah": 1922,
      "Ġà®ªà®ª": 1923,
      "Ġby": 1924,
      "ord": 1925,
      "à¯įâĢ¦.": 1926,
      "Ġà®ªà®µà®°": 1927,
      "ĠÂ»": 1928,
      "à®ªà®£à®®": 1929,
      "à®°à®ľ": 1930,
      "ug": 1931,
      "Ġà®ĩà®¤à®°": 1932,
      "uk": 1933,
      "à®¯à®£à®©": 1934,
      "âĢ¦.": 1935,
      "à®ĩà®°à®£": 1936,
      "ÙĲ": 1937,
      "Ġà®İà®®à®ķ": 1938,
      "à®ļà®²à®®": 1939,
      "ev": 1940,
      "Ġà®ħà®°à®µ": 1941,
      "Ġà®ķà®Łà®ķ": 1942,
      "à®İà®ĥà®ª": 1943,
      "ĠComment": 1944,
      "03": 1945,
      "Ġà®īà®²à®ķà®³": 1946,
      "à®¤à®®à®Ł": 1947,
      "à®īà®¤": 1948,
      "Ġà®¨à®Łà®©à®®": 1949,
      "48": 1950,
      "ong": 1951,
      "à®ıà®©": 1952,
      "Ġà®ªà®²à®ª": 1953,
      "AA": 1954,
      "à®ļà®ļ": 1955,
      "à®Łà®¯à®¤": 1956,
      "à®µà®´à®ķ": 1957,
      "Ġà®ħà®ļà®²": 1958,
      "Ġà®¤à®°à®ķ": 1959,
      "à®©à®°à®²": 1960,
      "55": 1961,
      "à¯į!''": 1962,
      "Ġà®®à®ķà®¤": 1963,
      "att": 1964,
      "à®·à®²": 1965,
      "Ġ38": 1966,
      "Ġà®īà®²à®ķà®ķ": 1967,
      "ain": 1968,
      "athai": 1969,
      "Ġ37": 1970,
      "à®¯à®¤à®±": 1971,
      "Ġ1000": 1972,
      "à®·à®°": 1973,
      "33": 1974,
      "08": 1975,
      "à®³à®Ł": 1976,
      "Ġ2004": 1977,
      "à®İà®ļ": 1978,
      "à®²à®µà®´": 1979,
      "Ġà®ļà®®à®¨": 1980,
      "Ġà®ľà®µ": 1981,
      "Ġ2005": 1982,
      "anch": 1983,
      "à®¨à®Łà®¤": 1984,
      "2019": 1985,
      "ĠAn": 1986,
      "à®ļà®±": 1987,
      "à®µà®²à®ķà®Ļ": 1988,
      "à®īà®²à®ķ": 1989,
      "à¯Ĭ.": 1990,
      "à®®à®¯": 1991,
      "ER": 1992,
      "à®ħà®µà®©": 1993,
      "à®Łà®µà®£": 1994,
      "aking": 1995,
      "Ġà®ĵà®¤": 1996,
      "Ġà®ªà®¯à®£à®Ļ": 1997,
      "Ġà®Ĳà®¤à®°": 1998,
      "ass": 1999,
      "à®ľà®ª": 2000,
      "à®°à®®à®¤": 2001,
      "à®¯à®®à®°": 2002,
      "à®Ĩà®¯": 2003,
      "à®Ĩà®µà®¤": 2004,
      "Ġcom": 2005,
      "ction": 2006,
      "Ġà®ķà®¸": 2007,
      "à®²à®¯à®®": 2008,
      "06": 2009,
      "ĠPre": 2010,
      "ST": 2011,
      "à¯į]]": 2012,
      "Ġà®ļà®®à®¯": 2013,
      "Ġà®ħà®ļà®¤": 2014,
      "34": 2015,
      "Ġ65": 2016,
      "ans": 2017,
      "Ġà®¤à®¯à®µ": 2018,
      "rom": 2019,
      "à®¿(": 2020,
      "07": 2021,
      "à®³à®±": 2022,
      "Ġà®ĵà®ķ": 2023,
      "Ġà®īà®ªà®ķà®°à®£à®Ļ": 2024,
      "pp": 2025,
      "à®ļà®¸": 2026,
      "32": 2027,
      "à®¿;": 2028,
      "Ġà®ħà®·": 2029,
      "Ġà®ıà®¨": 2030,
      "Ġà®Ĭà®ļ": 2031,
      "à®¯à®ķà®ª": 2032,
      "à®¯à®¤à®³à®¤": 2033,
      "ĠRead": 2034,
      "Ġà®ķà®²à®°": 2035,
      "à®Łà®ªà®®": 2036,
      "Ġ34": 2037,
      "Ġwh": 2038,
      "Ġj": 2039,
      "ories": 2040,
      "Ġà®ĥà®ªà®£": 2041,
      "Ġà®µà®³à®Ļ": 2042,
      ">>": 2043,
      "à®¤à®°à®¤": 2044,
      "ob": 2045,
      "Ġà®°à®£": 2046,
      "Ġbe": 2047,
      "Ġà®°à®ŀ": 2048,
      "Ġ400": 2049,
      "à®¾?âĢĻ": 2050,
      "ark": 2051,
      "à®Ĵà®¤": 2052,
      "à®²à®ªà®®": 2053,
      "à®¤à®µà®±": 2054,
      "Ġà®ĵà®²": 2055,
      "inema": 2056,
      "à®ķà®Łà®µ": 2057,
      "à®£à®¯à®®": 2058,
      "04": 2059,
      "à®¤à®²à®°": 2060,
      "à®ķà®µà®©": 2061,
      "199": 2062,
      "ead": 2063,
      "Ġà®īà®¨": 2064,
      "à¯į}": 2065,
      "ue": 2066,
      "ure": 2067,
      "à®®à®£à®°": 2068,
      "Ġà®ªà®¯à®¤": 2069,
      "Ġ55": 2070,
      "ĠPro": 2071,
      "à®ĩà®±": 2072,
      "Ġà®īà®±à®Ļ": 2073,
      "à®¾à®¾à¯į": 2074,
      "à®Łà®²à®Ļ": 2075,
      "Ġà®ļà®®à®¸": 2076,
      "à®ªà®Łà®ª": 2077,
      "Ġà®®à®ķà®°": 2078,
      "Ġà®Ĭà®Łà®ķ": 2079,
      "à¯į.(": 2080,
      "ated": 2081,
      "Ġà®®à®µ": 2082,
      "à®°à®ķà®Ļ": 2083,
      "65": 2084,
      "Ġà®ħà®µà®ķ": 2085,
      "Ġà®Ĩà®µà®²": 2086,
      "à®ħà®Ļ": 2087,
      "Ġnews": 2088,
      "ey": 2089,
      "Ġà®ļà®®à®¤": 2090,
      "à®¿âĢ¦": 2091,
      "Ġà®µà®°à®µà®´": 2092,
      "alai": 2093,
      "ĠQ": 2094,
      "Ġà®®à®®": 2095,
      "Ġà®¹à®µ": 2096,
      "à®µà®°à®ķ": 2097,
      "Ġà®Ĩà®²à®¯à®®": 2098,
      "aj": 2099,
      "à®·à®ª": 2100,
      "ep": 2101,
      "à®¿âĢĭ": 2102,
      "2018": 2103,
      "Ġpro": 2104,
      "und": 2105,
      "pd": 2106,
      "à®°à®¤à®¤": 2107,
      "à®ļà®ķà®¤": 2108,
      "à®ªà®¯à®©": 2109,
      "__": 2110,
      "Ġà®µà®ļà®©à®Ļ": 2111,
      "ĠÙ": 2112,
      "Ùı": 2113,
      "vious": 2114,
      "ash": 2115,
      "reaking": 2116,
      "].": 2117,
      "ust": 2118,
      "Ġà®Ĵà®ķ": 2119,
      "à®³à®¨": 2120,
      "Ġà®Ĵà®¯": 2121,
      "à®¨à®ķà®°à®®": 2122,
      "à®°à®ªà®ŀ": 2123,
      "\":": 2124,
      "Ġà®īà®ķà®¨": 2125,
      "à®¨à®µ": 2126,
      "ayat": 2127,
      "ics": 2128,
      "à®īà®©": 2129,
      "à®µà®©à®°": 2130,
      "à®ªà®²à®®": 2131,
      "ĠPanch": 2132,
      "Ġà®®à®°à®ªà®£": 2133,
      "47": 2134,
      "ĠComments": 2135,
      "à®Łà®ķà®°": 2136,
      "AN": 2137,
      "ĠGram": 2138,
      "........": 2139,
      "ĠEn": 2140,
      "à¯ĪÂŃ": 2141,
      "Ġà®µà®ļà®®": 2142,
      "Ġà®¤à®¯à®ķ": 2143,
      "Ġà®ĩà®ŀ": 2144,
      "à®ªà®³à®¤": 2145,
      "ĠPanchayat": 2146,
      "ical": 2147,
      "Ġà®Ĩà®Łà®®": 2148,
      "ach": 2149,
      "sh": 2150,
      "Ġà®ħà®ķà®²": 2151,
      "tamil": 2152,
      "à¯ĪâĢ¦": 2153,
      "iews": 2154,
      "à®īà®°": 2155,
      "à¯ģ(": 2156,
      "Ġà®Ĭà®Łà®ķà®µ": 2157,
      "à®ķà®²à®©": 2158,
      "oun": 2159,
      "Ġà®ĥ": 2160,
      "Ġà®ħà®ķà®´": 2161,
      "orld": 2162,
      "à®²à®¤à®©à®®": 2163,
      "Ġà®ıà®±à®¤": 2164,
      "à®Ĭà®°": 2165,
      "Ġà®°à®¹": 2166,
      "Ġ39": 2167,
      "Ġà®ªà®¤à®ķ": 2168,
      "à¯įâĢĻ,": 2169,
      "Ġà®ķà®ľ": 2170,
      "à®¯à®¤à®©": 2171,
      "à¯ĭ...": 2172,
      "ere": 2173,
      "ĠX": 2174,
      "à®ķà®£à®®": 2175,
      "Ġà®ļà®°à®µà®£à®©": 2176,
      "à®°à®ļà®©": 2177,
      "à¯į&": 2178,
      "à¯ĩâĢ¦": 2179,
      "ence": 2180,
      "Ġà®®à®¯à®Ļ": 2181,
      "à®µà®µ": 2182,
      "==": 2183,
      "))": 2184,
      "Ġà®ĵà®ª": 2185,
      "Ġà®ªà®£à®ª": 2186,
      "TC": 2187,
      "Ġà®ªà®°à®¤": 2188,
      "à®İà®ķ": 2189,
      "2017": 2190,
      "âĢĶ": 2191,
      "Ġà®µà®ļà®©à®®": 2192,
      "à®®à®µ": 2193,
      "à®¾à®¾à¯į.": 2194,
      "Ġà®ĩà®°à®ļ": 2195,
      "à®²à®µà®±": 2196,
      "Ġà®ĩà®Łà®ª": 2197,
      "à®¸à®©": 2198,
      "à®İà®¨": 2199,
      "enn": 2200,
      "à®°à®ŀ": 2201,
      "www": 2202,
      "46": 2203,
      "à®Ĩà®¤": 2204,
      "Ġà®ľà®Ł": 2205,
      "85": 2206,
      "Ġà®²à®¤": 2207,
      "à¯ģ....": 2208,
      "Ġ$": 2209,
      "ĠPrevious": 2210,
      "ĠAl": 2211,
      "à®īà®£": 2212,
      "icle": 2213,
      "Ġsh": 2214,
      "Ġà®ħà®¯à®°": 2215,
      "ack": 2216,
      "Ġ!!": 2217,
      "à®°à®µà®®": 2218,
      "à®°à®ªà®²à®Ļ": 2219,
      "ational": 2220,
      "Ġà®ļà®³": 2221,
      "Ġà®µà®±à®Ł": 2222,
      "à®Ĩà®Ł": 2223,
      "à¯ĭ-": 2224,
      "à¯ģ''": 2225,
      "à®¾:": 2226,
      "Ġ42": 2227,
      "à®¯à®®à®©à®®": 2228,
      "à®¤à®²à®©": 2229,
      "Ġ1990": 2230,
      "ĠAr": 2231,
      "95": 2232,
      "Ġà®ªà®²à®µà®±": 2233,
      "à®°à®®à®Ł": 2234,
      "Ġ||": 2235,
      "ace": 2236,
      "Ġà®ķà®¤à®±": 2237,
      "à¯į.)": 2238,
      "à®İà®©à®µ": 2239,
      "Ġà®ħà®±à®¨": 2240,
      "atan": 2241,
      "à®ªà®¤à®®": 2242,
      "77": 2243,
      "Ġà®ıà®ķà®ª": 2244,
      "à®Łà®¯": 2245,
      "Ġ2001": 2246,
      "88": 2247,
      "ink": 2248,
      "à¯į!!": 2249,
      "AT": 2250,
      "à®ªà®µà®±": 2251,
      "uc": 2252,
      "urai": 2253,
      "ĠUpd": 2254,
      "ave": 2255,
      "à¯ĩâĢĿ": 2256,
      "AR": 2257,
      "one": 2258,
      "Ġonline": 2259,
      "Ġ46": 2260,
      "100": 2261,
      "Ġà®²à®µ": 2262,
      "gal": 2263,
      "Ġà®ħà®¯à®²": 2264,
      "Ġ\"\"": 2265,
      "Ġà®¨à®°à®ļ": 2266,
      "ideo": 2267,
      "Ġà®ĩà®°à®ķà®ļ": 2268,
      "à®¤à®®à®²": 2269,
      "ÙĨ": 2270,
      "Ġx": 2271,
      "Ġà®·à®°": 2272,
      "II": 2273,
      "ikatan": 2274,
      "à¯Ģ,": 2275,
      "à®±à®µà®Ļ": 2276,
      "AL": 2277,
      "AE": 2278,
      "Ġà®µà®©à®ª": 2279,
      "à®²à®ľ": 2280,
      "Ġà®īà®·": 2281,
      "à¯Ģ.,": 2282,
      "Ġkam": 2283,
      "Ġà®ĩà®¤à®¯à®®": 2284,
      "Ġà®ĵà®®": 2285,
      "Ġà®¨à®Łà®µ": 2286,
      "Ġà®¤à®µà®®": 2287,
      "IN": 2288,
      "Ġà®ĵà®Ļ": 2289,
      "log": 2290,
      "à®·à®©à®²": 2291,
      "Ġà®İà®²à®ķ": 2292,
      "à¥": 2293,
      "à¯ģ.âĢĿ": 2294,
      "à®ħà®¤à®±": 2295,
      "Ġà®ħà®©à®²": 2296,
      "Ġà®®à®¸": 2297,
      "Ġà®ĩà®¤à®¯": 2298,
      "ĠâĨĳ": 2299,
      "à®µà®¯": 2300,
      "ĠTags": 2301,
      "à®°à®®à®ª": 2302,
      "ple": 2303,
      "à¯į?âĢĿ": 2304,
      "86": 2305,
      "à®ªà®´à®®": 2306,
      "Ġà®¨à®ķà®²": 2307,
      "à®ħà®µà®³": 2308,
      "à®Ĩà®ļ": 2309,
      "à®°à®®à®Ļ": 2310,
      "Ġà®Īà®ķ": 2311,
      "Ġà®Ĩà®µà®°": 2312,
      "Â¯": 2313,
      "Ġà®ĩà®·": 2314,
      "``": 2315,
      "à®Ĩà®ª": 2316,
      "Ġ2003": 2317,
      "Ġà®ĩà®°à®ķ": 2318,
      "Ġà®īà®°à®®": 2319,
      "Ġà®ĩà®£à®ķ": 2320,
      "ĠSh": 2321,
      "2016": 2322,
      "à®Ĵà®µ": 2323,
      "Ġat": 2324,
      "à®İà®Ł": 2325,
      "Ġ47": 2326,
      "à®ķà®²à®¤": 2327,
      "ĠØ": 2328,
      "à®ļà®¯à®Ļ": 2329,
      "Ġà®®à®¤à®Ļ": 2330,
      "à¯į,''": 2331,
      "Ġà®ħà®°à®ķ": 2332,
      "app": 2333,
      "AM": 2334,
      "Ġ600": 2335,
      "à¯ĭ!": 2336,
      "Â¯Â": 2337,
      "Ġ250": 2338,
      "Ġor": 2339,
      "à®ķà®Łà®®": 2340,
      "à®±à®±": 2341,
      "à®ĩà®Ł": 2342,
      "\"),": 2343,
      "Ġà®°à®ª": 2344,
      "89": 2345,
      "Ġan": 2346,
      "port": 2347,
      "Ġà®ıà®ľ": 2348,
      "Ġ....": 2349,
      "67": 2350,
      "kal": 2351,
      "à®ħà®ļ": 2352,
      "tion": 2353,
      "Ġà®¹à®®": 2354,
      "Ġà®ļà®ªà®°": 2355,
      "à®Łà®¤à®©": 2356,
      "Ġà®ĩà®Łà®Ĵà®¤": 2357,
      "à®ļà®¯à®¤": 2358,
      "?âĢĿ": 2359,
      "Ġ44": 2360,
      "ĠNext": 2361,
      "à®¤à®µà®Ļ": 2362,
      "à®®à®³": 2363,
      "ult": 2364,
      "à®Ĵà®©": 2365,
      "Ġà®ªà®ļà®Ļ": 2366,
      "Ġà®¹à®©": 2367,
      "ond": 2368,
      "à®²à®µà®©": 2369,
      "ĠVikatan": 2370,
      "Ġà®ħà®ķà®²à®®": 2371,
      "à®£à®®à®²": 2372,
      "Ġà®ĩà®³à®¨": 2373,
      "Ġ1980": 2374,
      "à®ªà®¯à®£à®®": 2375,
      "Ġà®İà®¤à®©": 2376,
      "à¯ģ),": 2377,
      "à¯į[": 2378,
      "ĠâĢ¢": 2379,
      "Ġà®Łà®®": 2380,
      "Ġà®ıà®ļ": 2381,
      "ib": 2382,
      "Ġà®İà®©à®²": 2383,
      "ens": 2384,
      "à®ªà®©à®°": 2385,
      "Ġà®ļà®°à®¸": 2386,
      "à®ªà®²à®©": 2387,
      "Ġ49": 2388,
      "ame": 2389,
      "Ġà®Ĩà®µà®£à®ª": 2390,
      "Ġ120": 2391,
      "87": 2392,
      "Ġà®µà®ŀ": 2393,
      "Ġà®¤à®²à®®": 2394,
      "sp": 2395,
      "Ġas": 2396,
      "Ġà®İà®ĥà®ª": 2397,
      "âĢ¦âĢ¦": 2398,
      "Ġ2002": 2399,
      "à®®à®°à®©": 2400,
      "à®¿),": 2401,
      "à®Ĳà®¯": 2402,
      "Views": 2403,
      "Ġà®®à®©à®ķ": 2404,
      "Ġà®ħà®¹": 2405,
      "2015": 2406,
      "à®®à®´": 2407,
      "à®±à®³à®µ": 2408,
      "66": 2409,
      "Ġà®®à®Łà®ķ": 2410,
      "43": 2411,
      "erm": 2412,
      "à®ıà®±": 2413,
      "à®Łà®Łà®¤": 2414,
      "Ġà®ħà®ķà®®à®¤": 2415,
      "ase": 2416,
      "Ġà®ıà®±à®ķ": 2417,
      "ĠØ§": 2418,
      "à®¯à®µà®³": 2419,
      "à®®à®£à®©": 2420,
      "ovie": 2421,
      "ĠOne": 2422,
      "à®ĥà®ªà®°": 2423,
      "hy": 2424,
      "à®µà®¸": 2425,
      "42": 2426,
      "Ġad": 2427,
      "ery": 2428,
      "à®Łà®Łà®Ļ": 2429,
      "ree": 2430,
      "Ġà®µà®¤à®ķ": 2431,
      "à®¤à®µà®ķ": 2432,
      "à¯į\",": 2433,
      "ctor": 2434,
      "à®¿âĢĮ": 2435,
      "à®ļà®ķà®©": 2436,
      "à®¤à®©à®©": 2437,
      "à¯ģ).": 2438,
      "à®ķà®®à®±": 2439,
      "Ġà®¨à®ŀ": 2440,
      "à®İà®´": 2441,
      "uy": 2442,
      "Ġà®ļà®°à®£à®Ł": 2443,
      "Ġart": 2444,
      "ick": 2445,
      "olog": 2446,
      "à®µà®ķà®®": 2447,
      "ire": 2448,
      "aran": 2449,
      "ĠEx": 2450,
      "Ġex": 2451,
      "Ġà®īà®ªà®¤": 2452,
      "à¯ĩ'": 2453,
      "Ġà®ªà®ľ": 2454,
      "Ġyou": 2455,
      "à®ķà®²à®ª": 2456,
      "Ġà®ĩà®°à®Ļ": 2457,
      "ci": 2458,
      "Ġà®ıà®Ļ": 2459,
      "eng": 2460,
      "Ġ--": 2461,
      "Ġà®Łà®ķ": 2462,
      "Ùħ": 2463,
      "à®ķà®´à®ķà®Ļ": 2464,
      "à®Łà®Łà®®": 2465,
      "Ġare": 2466,
      "à®¾..?": 2467,
      "ĠTr": 2468,
      "Ġà®¤à®²à®Ļ": 2469,
      "57": 2470,
      "à¯į.''": 2471,
      "à¯ģâĢĮ": 2472,
      "Ġ64": 2473,
      "india": 2474,
      "Ġit": 2475,
      "à®ķà®Łà®¤": 2476,
      "ĠâĢĶ": 2477,
      "ern": 2478,
      "ĠZ": 2479,
      "ha": 2480,
      "Ġà®ħà®µà®®à®¤": 2481,
      "Ġà®ķà®´à®±": 2482,
      "Ġà®¨à®¯à®©": 2483,
      "Ġà®ķà®°à®Ł": 2484,
      "ana": 2485,
      "à¯į!âĢĿ": 2486,
      "à®²à®ŀ": 2487,
      "à®ķà®®à®³": 2488,
      "Ġà®¤à®µà®£": 2489,
      "eal": 2490,
      "Ġà®ķà®£à®ªà®¤": 2491,
      "à®ĩà®ļ": 2492,
      "Ġà®ĩà®³à®µà®°à®ļ": 2493,
      "Ġà®İà®µà®©": 2494,
      "Ġà®Łà®ļ": 2495,
      "à¯į|": 2496,
      "ID": 2497,
      "ĠUn": 2498,
      "Ġà®®à®¤à®ļ": 2499,
      "Ġà®µà®¤à®¨": 2500,
      "view": 2501,
      "2011": 2502,
      "ef": 2503,
      "Ġfrom": 2504,
      "co": 2505,
      "UTC": 2506,
      "à®±à®¨à®ķà®°": 2507,
      "à®Łà®µà®ļà®®": 2508,
      "amb": 2509,
      "Ġà®Īà®´": 2510,
      "IC": 2511,
      "à¯Ĥ,": 2512,
      "Ġà®ļà®®à®©": 2513,
      "Ġ43": 2514,
      "56": 2515,
      "à¯Ī(": 2516,
      "orm": 2517,
      "akk": 2518,
      "anka": 2519,
      "Ġsp": 2520,
      "lish": 2521,
      "Ġà®µà®°à®ļ": 2522,
      "Ġà®Ĩà®¯à®¤": 2523,
      "uv": 2524,
      "Ġà®£": 2525,
      "ari": 2526,
      "Ġà®ķà®©à®®à®´": 2527,
      "Ġà®Ĩà®¤à®²": 2528,
      "Ġà®¯à®®": 2529,
      "Ġà®Ĳà®ļ": 2530,
      "ĠBreaking": 2531,
      "79": 2532,
      "Ġà®ĩà®°à®¯": 2533,
      "Ġà®Īà®°à®®": 2534,
      "à®¯à®£à®®": 2535,
      "ref": 2536,
      "Ġà®®à®¤à®µ": 2537,
      "Ġà®Īà®°à®ª": 2538,
      "Ġ56": 2539,
      "Ġà®ķà®£à®®": 2540,
      "per": 2541,
      "41": 2542,
      "Ġà®ħà®°à®ļà®®": 2543,
      "Ġà®®à®Łà®¤": 2544,
      "Ġà®¹à®¤": 2545,
      "Ġ01": 2546,
      "Ġ41": 2547,
      "à®¯à®²à®ķà®¤": 2548,
      "Ġab": 2549,
      "ile": 2550,
      "ala": 2551,
      "ĠUpdate": 2552,
      "à®¤à®¯à®®": 2553,
      "à®¤à®°à®ķ": 2554,
      "Ġà®ķà®°à®Ļ": 2555,
      "Ġà®®à®°à®£à®®à®Ł": 2556,
      "à®®à®¯à®®": 2557,
      "Ġà®ļà®®à®ķ": 2558,
      "'s": 2559,
      "à®Ĩà®Ļ": 2560,
      "Ġà®ĩà®µà®Ļ": 2561,
      "à®¨à®¤": 2562,
      "à¯į?âĢĻ": 2563,
      "own": 2564,
      "Ùĳ": 2565,
      "Ġle": 2566,
      "ty": 2567,
      "Ġà®īà®´à®µà®°": 2568,
      "à®¤à®ķà®µà®²": 2569,
      "Ġà®µà®´à®®": 2570,
      "à®¾?\"": 2571,
      "Ġmore": 2572,
      "Ġstories": 2573,
      "78": 2574,
      "ok": 2575,
      "adi": 2576,
      "à®īà®Ł": 2577,
      "Ġ52": 2578,
      "à®¤à®²à®¤": 2579,
      "à®ľà®ļ": 2580,
      "az": 2581,
      "à®ħà®´": 2582,
      "à®ªà®µà®³": 2583,
      "à®£à®Ł": 2584,
      "olit": 2585,
      "Ġà®Ĭà®°à®ķ": 2586,
      "à¯ģâĢĻâĢĻ": 2587,
      "ons": 2588,
      "Ġarticle": 2589,
      "76": 2590,
      "ance": 2591,
      "à®ªà®´à®ķ": 2592,
      "Ġ1996": 2593,
      "Ġà®ªà®´à®¤": 2594,
      "Ġà®Łà®°": 2595,
      "ĠWorld": 2596,
      "à®ıà®ķ": 2597,
      "Ġà®Ĳà®¯à®°": 2598,
      "Ġà®ķà®ļà®ª": 2599,
      "à®¨à®©": 2600,
      "Ġà®īà®²à®ķà®³à®µ": 2601,
      "ON": 2602,
      "à®¯à®®à®±": 2603,
      "à®ľà®¤": 2604,
      "ss": 2605,
      "Ġà®ħà®²à®®": 2606,
      "Ġà®ĩà®£à®Ļ": 2607,
      "98": 2608,
      "ayam": 2609,
      "à®¨à®²à®®": 2610,
      "ĠQu": 2611,
      "Ġà®ħà®¯à®©": 2612,
      "Ġà®ħà®Łà®®": 2613,
      "air": 2614,
      "Ġhttp": 2615,
      "à®°à®®à®ļ": 2616,
      "ĠPl": 2617,
      "oll": 2618,
      "Ġà®µà®±à®£": 2619,
      "58": 2620,
      "Ġ72": 2621,
      "Ġà®ħà®±à®®": 2622,
      "ĠTN": 2623,
      "Ġà®ĵà®°à®®": 2624,
      "ĠLive": 2625,
      "à®Ĳà®Ł": 2626,
      "eg": 2627,
      "à®Łà®³à®µ": 2628,
      "à®°à®µà®©": 2629,
      "ĠðŁ": 2630,
      "Ġ1970": 2631,
      "Ġà®ļà®©à®µà®°": 2632,
      "âĢİ": 2633,
      "Ġà¯": 2634,
      "Ġà®ªà®µà®©": 2635,
      "ooks": 2636,
      "Read": 2637,
      "à®¤à®¯à®¤": 2638,
      "à®ħà®´à®ķ": 2639,
      "Ġà®ħà®²à®±": 2640,
      "96": 2641,
      "Ġà®ªà®Łà®µ": 2642,
      "à®ļà®®à®Ł": 2643,
      "à¯ĭ..": 2644,
      "à®¯à®®à®²": 2645,
      "à®īà®¯": 2646,
      "à®ªà®ŀ": 2647,
      "ennai": 2648,
      "Ġà®Łà®¯à®°": 2649,
      "ge": 2650,
      "able": 2651,
      "Ġ1999": 2652,
      "Ġà®Ĩà®´à®¤": 2653,
      "Ġ85": 2654,
      "Ġà®Ĳà®¯à®ª": 2655,
      "Ġà®ıà®²à®®": 2656,
      "ember": 2657,
      "à¯ĩ\"": 2658,
      "Ġà®®à®¤à®ķ": 2659,
      "ĠCont": 2660,
      "Ġà®ķà®ķ": 2661,
      "ich": 2662,
      "à¯ģâĢĭ": 2663,
      "à®¨à®Ļ": 2664,
      "à®µà®ļà®¤": 2665,
      "Ġà®ĩà®³à®µà®°à®ļà®°": 2666,
      "ĠTe": 2667,
      "aw": 2668,
      "à®©à®±": 2669,
      "Ġme": 2670,
      "à®ĩà®ķ": 2671,
      "adh": 2672,
      "Ġà®Ĭà®©": 2673,
      "à®ķà®°à®£": 2674,
      "à®µà®°à®²": 2675,
      "PS": 2676,
      "à®ªà®©à®µ": 2677,
      "à®µà®©à®¨": 2678,
      "à®µà®³à®°": 2679,
      "à®¯à®°à®¤": 2680,
      "à®±à®©à®µ": 2681,
      "Ġà®ªà®Łà®°": 2682,
      "ox": 2683,
      "ĠâĢĮ": 2684,
      "Ġà®®à®³": 2685,
      "à®®à®©à®¤": 2686,
      "Ġtr": 2687,
      "à®ķà®°à®µà®°": 2688,
      "ĠSri": 2689,
      "à®Ĥ": 2690,
      "Ġ51": 2691,
      "à®ķà®²à®Ļ": 2692,
      "Ġ95": 2693,
      "ĠPr": 2694,
      "à®ªà®ķà®Ļ": 2695,
      "Ġà®Ĩà®¤à®Ļ": 2696,
      "Ġ99": 2697,
      "ged": 2698,
      "anth": 2699,
      "à®Łà®©à®¤": 2700,
      "Ġà®¹à®ľ": 2701,
      "à®ľà®¯à®ª": 2702,
      "ani": 2703,
      "Ġwww": 2704,
      "à®´à®°à®ļ": 2705,
      "à¯įâĢĻ.": 2706,
      "Ġhttps": 2707,
      "ĠPuth": 2708,
      "ition": 2709,
      "Ġà®ĥà®ªà®°": 2710,
      "ĠOneindia": 2711,
      "à®µà®³à®µà®©": 2712,
      "Ġà®Ĭà®Łà®ķà®®": 2713,
      "2014": 2714,
      "âĢĶâĢĶ": 2715,
      "Ġpl": 2716,
      "à®ķà®®à®Ł": 2717,
      "à®£à®¯à®Ļ": 2718,
      "Ġà®ªà®¤à®Ł": 2719,
      "oss": 2720,
      "à®²à®¨à®Ł": 2721,
      "Ġ58": 2722,
      "erv": 2723,
      "Ġam": 2724,
      "Ġthis": 2725,
      "à®İà®£": 2726,
      "à®Łà®°à®ª": 2727,
      "ther": 2728,
      "Ġ800": 2729,
      "ĠInter": 2730,
      "Ġà®®à®¤à®©": 2731,
      "Ġà®ħà®²à®ļ": 2732,
      "ĠCinema": 2733,
      "ings": 2734,
      "Ġ1991": 2735,
      "Ġà®®à®£à®¨": 2736,
      "ET": 2737,
      "Ġà®ķà®³à®Ļ": 2738,
      "59": 2739,
      "à®ªà®²à®ª": 2740,
      "à®¯à®¤à®³à®®": 2741,
      "à®ħà®¯": 2742,
      "ound": 2743,
      "Ġà®²à®²": 2744,
      "à®īà®²": 2745,
      "à®ĩà®£": 2746,
      "Ġà®ľà®ķ": 2747,
      "Ġà®ķà®µà®ļà®®": 2748,
      "Ġà®Ĩà®²à®¯": 2749,
      "Ġ04": 2750,
      "alaim": 2751,
      "à®µà®®à®´": 2752,
      "atr": 2753,
      "à¯Ī),": 2754,
      "Ġà®ħà®©à®¨": 2755,
      "à®ľà®¯à®©": 2756,
      "Ġà®Ĩà®°à®ŀ": 2757,
      "Ġà®²à®Ļ": 2758,
      "Tamil": 2759,
      "ĠCl": 2760,
      "Ch": 2761,
      "Â³": 2762,
      "Ġ108": 2763,
      "à®ķà®°à®Ļ": 2764,
      "Ġà®ķà®´à®Ł": 2765,
      "69": 2766,
      "68": 2767,
      "Ġthat": 2768,
      "Ġal": 2769,
      "à¯ĩà®¾à¯į": 2770,
      "ool": 2771,
      "à®¿à¯į": 2772,
      "Ġà®ħà®±à®µ": 2773,
      "Ġà®ĩà®Łà®°": 2774,
      "à®¤à®°à®£": 2775,
      "ĠMar": 2776,
      "IS": 2777,
      "à®ľà®¯à®®": 2778,
      "à®Ĩà®±": 2779,
      "Ġ1998": 2780,
      "Ġnot": 2781,
      "à®®à®°à®®": 2782,
      "à®¯à®£à®ļ": 2783,
      "Ġà®ķà®ļà®ķ": 2784,
      "à®µà®©à®µ": 2785,
      "à¯į.....": 2786,
      "ĠPuthiy": 2787,
      "iss": 2788,
      "72": 2789,
      "Ġà®ķà®°à®®": 2790,
      "Ġà®Ĭà®Łà®ķà®¤": 2791,
      "à®©à®¯": 2792,
      "Ġ1960": 2793,
      "ts": 2794,
      "à¯ĭâĢĻ": 2795,
      "ÙĬ": 2796,
      "Ġà®ľà®¸": 2797,
      "ork": 2798,
      "Ġà®ªà®²à®µà®ķ": 2799,
      "à®´à®Ł": 2800,
      "à®Ĩà®Ĩ": 2801,
      "Ġi": 2802,
      "Ġà®īà®ªà®°": 2803,
      "},": 2804,
      "à®ļà®²à®ª": 2805,
      "lo": 2806,
      "2013": 2807,
      "à®³à®Łà®Ļ": 2808,
      "The": 2809,
      "Ġà®ķà®°à®£": 2810,
      "à®ªà®´à®ķà®©": 2811,
      "Ġun": 2812,
      "Ġà®ķà®²à®µà®°à®®": 2813,
      "Ġà®µà®³à®¤": 2814,
      "Ġà®ļà®¸": 2815,
      "Ġà®ªà®°à®£": 2816,
      "!!!": 2817,
      "Ġà®Ĭà®®": 2818,
      "à®Ĩà®²": 2819,
      "ĠAm": 2820,
      "à¯į,âĢĿ": 2821,
      "gle": 2822,
      "hi": 2823,
      "Ġ06": 2824,
      "à®ľà®²": 2825,
      "ock": 2826,
      "ED": 2827,
      "à¯ĩ-": 2828,
      "Ġ09": 2829,
      "ĠSp": 2830,
      "ĠCO": 2831,
      "à®µà®ķà®¤": 2832,
      "à®Īà®°": 2833,
      "anc": 2834,
      "à®°à®¤à®°": 2835,
      "Ġ:)": 2836,
      "à®©à®¤à®®": 2837,
      "Ġà®Ĳà®¯à®®": 2838,
      "Ġà®ĩà®©à®ķ": 2839,
      "Ġà®Īà®ļ": 2840,
      "à®°à®°à®ļà®°": 2841,
      "84": 2842,
      "64": 2843,
      "Ġà®ļà®®à®ļ": 2844,
      "Ġà®¹à®ķ": 2845,
      "Ġ54": 2846,
      "53": 2847,
      "ax": 2848,
      "Ġus": 2849,
      "Ġà®ķà®³à®µ": 2850,
      "alaimurai": 2851,
      "ays": 2852,
      "Ġà®ķà®²à®µà®°à®¤": 2853,
      "Ġà®µà®©à®µ": 2854,
      "ime": 2855,
      "Ġà®ļà®®à®µ": 2856,
      "Ġà®·à®Ļ": 2857,
      "à¯į]": 2858,
      "Ġà®ħà®ķà®ª": 2859,
      "aily": 2860,
      "à®ķà®µà®ļà®®": 2861,
      "à¯į!\"": 2862,
      "à®©à®µà®±": 2863,
      "81": 2864,
      "ĠAd": 2865,
      "52": 2866,
      "ya": 2867,
      "Ġà®ĵà®°à®Ļ": 2868,
      "à®®à®¤à®¤": 2869,
      "AD": 2870,
      "Ġà®®à®¯à®®": 2871,
      "Ġà®°à®ļà®©": 2872,
      "ages": 2873,
      "oin": 2874,
      "ading": 2875,
      "83": 2876,
      "Ġï": 2877,
      "51": 2878,
      "Ġà¤": 2879,
      "ĠRel": 2880,
      "Ġà®ªà®ķà®µà®¤": 2881,
      "Ġ02": 2882,
      "Ġà®ļà®Łà®²à®®": 2883,
      "Ġ59": 2884,
      "ĠâĨĴ": 2885,
      "akathai": 2886,
      "Ġà®Ĩà®²à®¯à®Ļ": 2887,
      "Ġà®¤à®°à®µà®°": 2888,
      "à®ĩà®¸": 2889,
      "à®īà®±": 2890,
      "à®ĩà®®": 2891,
      "à®²à®µà®°à®ª": 2892,
      "à®ķà®®à®²": 2893,
      "ebs": 2894,
      "Ġà®¶": 2895,
      "athalaimurai": 2896,
      "Ġà®µà®ļà®©à®¤": 2897,
      "Ġà®Ĩà®µà®£à®®": 2898,
      "à¯ĭ'": 2899,
      "71": 2900,
      "à¯ģâĢ¦.": 2901,
      "ĠPuthiyathalaimurai": 2902,
      "à®¾?'": 2903,
      "à®°à®·": 2904,
      "à®®à®°à®¤": 2905,
      "TR": 2906,
      "Ġà®ĩà®¯à®²à®µ": 2907,
      "à®¨à®¨": 2908,
      "62": 2909,
      "ÙĪ": 2910,
      "ating": 2911,
      "à®Łà®µà®Ł": 2912,
      "à®ĩà®°à®µ": 2913,
      "ology": 2914,
      "à¯¦": 2915,
      "ates": 2916,
      "Ġà®ļà®¯": 2917,
      "à®ªà®³à®ª": 2918,
      "Ġ53": 2919,
      "à®¯à®ķà®ķ": 2920,
      "Ġà®µà®°à®¤à®°": 2921,
      "Ġà®Ĩà®¤à®°à®µà®³": 2922,
      "ater": 2923,
      "Ġvideo": 2924,
      "ortal": 2925,
      "à®®à®¹": 2926,
      "Ġ1989": 2927,
      ")\"": 2928,
      ".[": 2929,
      "Ġà®ħà®´à®±": 2930,
      "Ġ360": 2931,
      "ĠPh": 2932,
      "--------": 2933,
      "à¯ģ.\"": 2934,
      "IL": 2935,
      "à®¤à®ķà®ķ": 2936,
      "Ġà®¤à®ķà®ª": 2937,
      "à®±à®ŀ": 2938,
      "ĠNadu": 2939,
      "à®µà®ŀ": 2940,
      "ver": 2941,
      "eed": 2942,
      "à®®à®£à®Ļ": 2943,
      "Ġ03": 2944,
      "Ġà®ļà®¤à®®": 2945,
      "Ġ69": 2946,
      "à®ªà®ķà®µ": 2947,
      "à®¯à®°à®®": 2948,
      "Ġ63": 2949,
      "à¯į.âĢĻ": 2950,
      "arl": 2951,
      "à®īà®Łà®²": 2952,
      "Ġ07": 2953,
      "à®ªà®²à®ķ": 2954,
      "54": 2955,
      "à®®à®ŀ": 2956,
      "à®®à®µà®°": 2957,
      "à®²à®°à®ļ": 2958,
      "act": 2959,
      "à®ĥà®ķ": 2960,
      "Ġà®īà®¤à®¯à®¨": 2961,
      "Ġà®īà®´à®µ": 2962,
      "Ġà®ħà®°à®µà®£": 2963,
      "à®¤à®ķà®Ł": 2964,
      "à®·à®µ": 2965,
      "ket": 2966,
      "à®°à®ļà®Ļ": 2967,
      "ebsite": 2968,
      "ocal": 2969,
      "Ġà®µà®¸": 2970,
      "à¯į.'": 2971,
      "Ġ1950": 2972,
      "AS": 2973,
      "Ġà®īà®°à®¤": 2974,
      "Ġà®ħà®ķà®©": 2975,
      "à®Łà®µà®³": 2976,
      "IT": 2977,
      "à¯į',": 2978,
      "oh": 2979,
      "à®ªà®®à®Ł": 2980,
      "oogle": 2981,
      "Ġ57": 2982,
      "oon": 2983,
      "Ġ>>": 2984,
      "amp": 2985,
      "Ġà®ħà®ªà®ķà®°": 2986,
      "Ġ05": 2987,
      "Ġ08": 2988,
      "à®¤à®®à®±": 2989,
      "300": 2990,
      "à®¾(": 2991,
      "82": 2992,
      "Ġà®®à®ķà®ļ": 2993,
      "Ġ1992": 2994,
      "à®³à®³à®µ": 2995,
      "à®²à®¯à®Ļ": 2996,
      "ake": 2997,
      "of": 2998,
      "anj": 2999,
      "In": 3000,
      "Ø±": 3001,
      "à®±à®µà®³": 3002,
      "Ġar": 3003,
      "à®Łà®µà®±": 3004,
      "à®µà®Łà®ķ": 3005,
      "à®±à®®à®Ł": 3006,
      "rit": 3007,
      "Ġà®ļà®¹": 3008,
      "Ġcl": 3009,
      "Ġpost": 3010,
      "Ġà®ħà®ķà®µ": 3011,
      "Ġà®Łà®¯à®²": 3012,
      "views": 3013,
      "na": 3014,
      "Ġà®Ĩà®¯à®°": 3015,
      "à®¯à®²à®Ł": 3016,
      "à®©à®µà®³": 3017,
      "à¯įâĢĿ.": 3018,
      "ele": 3019,
      "Ġabout": 3020,
      "à®µà®²à®©": 3021,
      "à®°à®³à®¤": 3022,
      "à®ķà®³à®µà®°": 3023,
      "ual": 3024,
      "Ġà®Ĩà®ķà®²": 3025,
      "Ġà®ķà®³à®ª": 3026,
      "Ùĩ": 3027,
      "Ġà®Ĩà®ķà®¤": 3028,
      "AC": 3029,
      "à®ķà®°à®°": 3030,
      "à®İà®©à®¤": 3031,
      "pe": 3032,
      "Ġ<": 3033,
      "Ġ62": 3034,
      "73": 3035,
      "Ġà®¨à®´": 3036,
      "pr": 3037,
      "row": 3038,
      "Ġà®¤à®Łà®®": 3039,
      "à®©à®°à®®": 3040,
      "à¯į..!!": 3041,
      "Ġà®ħà®µà®²": 3042,
      "igh": 3043,
      "à®²à®ķà®Ļ": 3044,
      "ĠIST": 3045,
      "ĠDaily": 3046,
      "Ġ\"(": 3047,
      "Ġà®ĩà®³à®ŀ": 3048,
      "Ġà®ķà®Łà®ª": 3049,
      "ĠEng": 3050,
      "Ġ1995": 3051,
      "Ġà®ªà®´à®¨": 3052,
      "Ġstory": 3053,
      "Ġà®Ĩà®ŀ": 3054,
      "à¯į!âĢĻ": 3055,
      "à®µà®²à®ª": 3056,
      "74": 3057,
      "63": 3058,
      "Ġ:-": 3059,
      "Ġà®īà®±à®ķ": 3060,
      "ull": 3061,
      "2012": 3062,
      "Ġà®¤à®µà®±à®µ": 3063,
      "Ġà®Ĩà®·": 3064,
      "à®¤à®©à®ª": 3065,
      "Th": 3066,
      "Ġà®ķà®³à®ŀ": 3067,
      "Ġag": 3068,
      "cc": 3069,
      "Ġà®īà®©à®¤": 3070,
      "Ġà®īà®®à®°": 3071,
      "à®¸à®®": 3072,
      "Ġà®ıà®²à®¤": 3073,
      "à¶": 3074,
      "à®ķà®®à®£": 3075,
      "Ġà®ĩà®²à®¤": 3076,
      "61": 3077,
      "ĠØ§ÙĦ": 3078,
      "Ġà®ļà®°à®®": 3079,
      "oy": 3080,
      "enc": 3081,
      "EN": 3082,
      "à®Łà®£à®Ļ": 3083,
      "ĠMovie": 3084,
      "Ġ1994": 3085,
      "ike": 3086,
      "ealth": 3087,
      "Ġà®µà®Łà®ª": 3088,
      "Ġà®ªà®¤à®®": 3089,
      "olitics": 3090,
      "à®ķà®°à®ļ": 3091,
      "Ġkathai": 3092,
      "Ġà®ħà®°à®Ł": 3093,
      "ism": 3094,
      "à®¯à®°à®ļà®©": 3095,
      "Ġà®ªà®¯à®©à®Ł": 3096,
      "Ġà®ħà®ªà®¤": 3097,
      "Ġà®¤à®³à®µ": 3098,
      "à®ĵà®Ł": 3099,
      "Ġà®ļà®®à®°à®ļà®®": 3100,
      "à®ļà®°à®£": 3101,
      "atch": 3102,
      "à®ļà®µà®®": 3103,
      "à®¾âĢĮ": 3104,
      "Ġ700": 3105,
      ".)": 3106,
      "Ġà®ªà®°à®¸": 3107,
      "à®ĩà®¯à®±": 3108,
      "Ġà®®à®©à®Ļ": 3109,
      "Ġà®ªà®¤à®ª": 3110,
      "\".": 3111,
      "ett": 3112,
      "Ġà®¤à®©à®®": 3113,
      "Ġà®ĩà®¯à®©": 3114,
      "/-": 3115,
      "****": 3116,
      "92": 3117,
      "ions": 3118,
      "oron": 3119,
      "Ġ110": 3120,
      "ĠFl": 3121,
      "à®³à®ªà®Ł": 3122,
      "à®µà®²à®¤": 3123,
      "Ġà®Īà®ļà®©": 3124,
      "Ġ1987": 3125,
      "ral": 3126,
      "ara": 3127,
      "Ġ1997": 3128,
      "à®¿/": 3129,
      "à®īà®Łà®©": 3130,
      "à®³à®©à®®": 3131,
      "ĠUS": 3132,
      "Ġà®īà®£à®µà®ķà®Ļ": 3133,
      "à¯į\".": 3134,
      "à®¤à®®à®°": 3135,
      "io": 3136,
      "ml": 3137,
      "à®²à®ķà®°": 3138,
      "OR": 3139,
      "à·": 3140,
      "à¯į.âĢĻâĢĻ": 3141,
      "Ġfl": 3142,
      "Ġà®Īà®µ": 3143,
      "Ġà®®à®£à®ª": 3144,
      "esh": 3145,
      "Ġ66": 3146,
      "Ġmar": 3147,
      "Ġà®ĩà®³à®µ": 3148,
      "ins": 3149,
      "ĠNo": 3150,
      "ricket": 3151,
      "Ġà®ªà®£à®µà®°à®µ": 3152,
      "ĠMe": 3153,
      "à®ªà®¤à®µ": 3154,
      "à®·à®£": 3155,
      "à¯ģ!!": 3156,
      "____": 3157,
      "Ġà®¤à®Łà®Ļ": 3158,
      "Ġà®ıà®ŀ": 3159,
      "Ġà®ªà®ķà®¤": 3160,
      "2009": 3161,
      "Ġ68": 3162,
      "à®µà®³à®¤": 3163,
      "à®´à®ļ": 3164,
      "http": 3165,
      "Ġà®ıà®²à®ķ": 3166,
      "ĠÃ": 3167,
      "à®£à®¨": 3168,
      "Ġ67": 3169,
      "à®µà®ķà®°": 3170,
      "Ġà®ħà®²à®°": 3171,
      "Ġman": 3172,
      "à¯įâĢ¦âĢĿ": 3173,
      "à®ªà®¯à®£à®¤": 3174,
      "à®°à®ªà®°": 3175,
      "à¯įâĢĵ": 3176,
      "à®¨à®ķà®°à®¤": 3177,
      "Ġà®ľà®©à®Ļ": 3178,
      "à®ķà®®à®®": 3179,
      "Ġà®Ĳà®¤": 3180,
      "Ġà®¹à®²": 3181,
      "Ġà®®à®¤à®°": 3182,
      "</": 3183,
      "à®µà®ļà®Ļ": 3184,
      "cl": 3185,
      "à®īà®¯à®°": 3186,
      "ium": 3187,
      "à®°à®£à®ª": 3188,
      "ĠChennai": 3189,
      "à®ķà®µà®¤": 3190,
      "ations": 3191,
      "à®¾....": 3192,
      "inue": 3193,
      "Ġ1947": 3194,
      "à¯į?\"": 3195,
      "reat": 3196,
      "Ġ1984": 3197,
      "à®©à®®à®²à®°": 3198,
      "Ġ1983": 3199,
      "Ġyour": 3200,
      "ĠLanka": 3201,
      "Â¯Âį": 3202,
      "Ġ>>>": 3203,
      "à¯ģ.)": 3204,
      "Ġreading": 3205,
      "ents": 3206,
      "ign": 3207,
      "AF": 3208,
      "Ġcon": 3209,
      ",,": 3210,
      "tw": 3211,
      "its": 3212,
      "ise": 3213,
      "ĠDin": 3214,
      "à®®à®°à®ª": 3215,
      "à®©à®ªà®Ł": 3216,
      "Ġà®Ĩà®²à®®": 3217,
      "!âĢĿ": 3218,
      "day": 3219,
      "à®¹à®²": 3220,
      "Ġà®Ĩà®°à®µ": 3221,
      "ĠSam": 3222,
      "Ġcinema": 3223,
      "à®£à®ļà®ª": 3224,
      "Ġà®ªà®£à®µ": 3225,
      "ĠRelated": 3226,
      "pt": 3227,
      "ĠÃł": 3228,
      "94": 3229,
      "à®®à®Łà®Ļ": 3230,
      "à®ħà®µà®°à®¤": 3231,
      "ject": 3232,
      "ĠPortal": 3233,
      "ĠFor": 3234,
      "à®¹à®©": 3235,
      "Ġà®®à®°à®£à®Ļ": 3236,
      "ĠMan": 3237,
      "CO": 3238,
      "Ġà®°à®¸": 3239,
      "à¯ģ:-": 3240,
      "ES": 3241,
      "ĠNew": 3242,
      "Ġà®ĵà®°à®¤": 3243,
      "har": 3244,
      "Ġ\\": 3245,
      "%,": 3246,
      "form": 3247,
      "Ġ1971": 3248,
      "91": 3249,
      "à®¤à®µà®¤": 3250,
      "ĠEd": 3251,
      "ale": 3252,
      "93": 3253,
      "Ġ350": 3254,
      "str": 3255,
      "asi": 3256,
      "Ġkamakathai": 3257,
      "ĠÂ°": 3258,
      "elv": 3259,
      "400": 3260,
      "Â°": 3261,
      ");": 3262,
      "Ġà®ļà®ľ": 3263,
      "¿½": 3264,
      "man": 3265,
      "à®ķà®£à®¤": 3266,
      "aper": 3267,
      "Ġ73": 3268,
      "Ġ1993": 3269,
      "====": 3270,
      "à®¤à®®à®©": 3271,
      "Ġà®ķà®©à®ķà®°": 3272,
      "Ġà®¨à®µà®ķ": 3273,
      "Ġà®¨à®µà®°": 3274,
      "Ġ00": 3275,
      "Ġà®°à®ķà®®": 3276,
      "ĠReview": 3277,
      "à®²à®ķà®²": 3278,
      "à®¤à®©à®ķ": 3279,
      "à¯ģ/": 3280,
      "à®Ĳà®ķ": 3281,
      "Ġ1977": 3282,
      "à®ªà®ķà®°à®®": 3283,
      "à¯į...'": 3284,
      "à¯ĩ)": 3285,
      "se": 3286,
      "Ġ5000": 3287,
      "à®°à®®à®©": 3288,
      "Ġ96": 3289,
      "à®©à®¤à®²": 3290,
      "à®¤à®²à®Ļ": 3291,
      "à®ķà®°à®ª": 3292,
      "Ġà®Ĭà®±à®µ": 3293,
      "hat": 3294,
      "Ġ%": 3295,
      "à®°à®ªà®Ł": 3296,
      "Ġà®ķà®£à®¤": 3297,
      "Â²": 3298,
      "à®ŀà®°à®£": 3299,
      "à®²à®µà®°à®®": 3300,
      "à®¨à®Łà®ª": 3301,
      "à®²à®¤à®©à®¤": 3302,
      "ĠâĢĺâĢĻ": 3303,
      "ural": 3304,
      "Ġà®ħà®³à®ª": 3305,
      "ij": 3306,
      "à®īà®©à®ķ": 3307,
      "2010": 3308,
      "à®ªà®´à®¤": 3309,
      "à®µà®ļà®ª": 3310,
      "à®²à®ķà®£": 3311,
      "à®īà®®": 3312,
      "Ġà®īà®°à®ļ": 3313,
      "Ġwill": 3314,
      "à®¤à®ŀ": 3315,
      "Ġà®īà®®à®¤": 3316,
      "Ġà®ħà®ķà®®": 3317,
      "Ġà®®à®Łà®®": 3318,
      "Ġà®ªà®³à®ªà®³à®ª": 3319,
      "Ġà®¨à®©à®µ": 3320,
      "ube": 3321,
      "book": 3322,
      "Ġà®Ĩà®µà®£à®¤": 3323,
      "ĠIN": 3324,
      "à®²à®ªà®Ł": 3325,
      "Ġ180": 3326,
      "Ġà®Ĩà®ªà®°à®£à®Ļ": 3327,
      "à¯ģ..!": 3328,
      "Ġà®ļà®ķà®ľà®®": 3329,
      "97": 3330,
      "les": 3331,
      "à®¯à®¤à®°": 3332,
      "Ġà®®à®ľ": 3333,
      "Ġà®īà®²à®µ": 3334,
      "à¯į,\"": 3335,
      "à®ľà®¤à®¨": 3336,
      "ĠContinue": 3337,
      "à®¤à®ķà®ª": 3338,
      "ĠYou": 3339,
      "à®ªà®°à®©": 3340,
      "ally": 3341,
      "alk": 3342,
      "à®¨à®ķ": 3343,
      "Ġà®¨à®²à®ķ": 3344,
      "à¯ģ?âĢĿ": 3345,
      "à®¨à®²à®ķ": 3346,
      "eries": 3347,
      "Ġ74": 3348,
      "Ġra": 3349,
      "Ġlatest": 3350,
      "ĠPol": 3351,
      "Ġà®¤à®ķà®Ł": 3352,
      "à®±à®¤à®±": 3353,
      "ĠOr": 3354,
      "Ġà®¤à®®à®©": 3355,
      "Ġind": 3356,
      "cip": 3357,
      "ĠAnd": 3358,
      "Ġpr": 3359,
      "Ġ1948": 3360,
      "à®ªà®±à®®": 3361,
      "à®µà®³à®®": 3362,
      "à®¨à®®à®¤": 3363,
      "à¯į...''": 3364,
      "à®ıà®ª": 3365,
      "à®°à®ļà®µà®¤": 3366,
      "ĠBest": 3367,
      "Ġà®Łà®¤": 3368,
      "Ġà®īà®°à®Ļ": 3369,
      "ement": 3370,
      "à®°à®¤à®ª": 3371,
      "ife": 3372,
      "rist": 3373,
      "Ġà®Ĩà®µà®£": 3374,
      "akaran": 3375,
      "à®¨à®ª": 3376,
      "Ġ71": 3377,
      "à®ļà®ķà®Ļ": 3378,
      "à¯į,'": 3379,
      "à®¹à®¤": 3380,
      "Ġà®ķà®´à®ķà®Ļ": 3381,
      "à¯į!'": 3382,
      "à®ļà®µà®©": 3383,
      "à®Ĩà®°à®®": 3384,
      "Ġ61": 3385,
      "Ġup": 3386,
      "Ġà®Īà®®": 3387,
      "Ġà®īà®®à®ķ": 3388,
      "à®±à®®à®³": 3389,
      "Ġ1967": 3390,
      "à¯ģ!''": 3391,
      "Ġà®µà®°à®£": 3392,
      "à®·à®ķ": 3393,
      "Äģ": 3394,
      "Ġgr": 3395,
      "AI": 3396,
      "Ġà®ľà®°": 3397,
      "ÙĳÙİ": 3398,
      "Ġ>": 3399,
      "à®ĩà®¯à®ķ": 3400,
      "Ġ98": 3401,
      "mer": 3402,
      "à®ĩà®³": 3403,
      "UR": 3404,
      "à®©à®¤à®±": 3405,
      "Ġ1986": 3406,
      "à®ķà®¤à®°": 3407,
      "Ġà®ĩà®²à®£": 3408,
      "600": 3409,
      "Ġà®īà®¤à®±": 3410,
      "2008": 3411,
      "}}": 3412,
      "à®°à®ļà®µ": 3413,
      "af": 3414,
      "Ġim": 3415,
      "EW": 3416,
      "à®ªà®´à®Ļ": 3417,
      "à®ıà®´": 3418,
      "à®¯à®®à®Ļ": 3419,
      "à®©à®ķà®¤": 3420,
      "Ġde": 3421,
      "ĠTagged": 3422,
      "à®ĵà®°": 3423,
      "à´": 3424,
      "à®£à®¯à®¤": 3425,
      "à¯į..?": 3426,
      "à®°à®ľà®©": 3427,
      ".....": 3428,
      "Ġ78": 3429,
      "ĠOff": 3430,
      "Ġ76": 3431,
      "ada": 3432,
      "à®İà®µ": 3433,
      "à®ķà®Łà®Ļ": 3434,
      "Ġà®®à®£à®ķ": 3435,
      "kk": 3436,
      "Ġ125": 3437,
      "Ġà®īà®£à®µà®ķà®¤": 3438,
      "»¿": 3439,
      "ines": 3440,
      "alar": 3441,
      "Ġ130": 3442,
      "yst": 3443,
      "ĠâĢİ": 3444,
      "Ġ77": 3445,
      "Ġà®Ĵà®ļ": 3446,
      "ĠDr": 3447,
      "cience": 3448,
      "ild": 3449,
      "à®µà®£à®ķ": 3450,
      "Ġà®ĩà®Łà®®à®³": 3451,
      "à®³à®µà®©": 3452,
      "Ġà®¨à®¯": 3453,
      "Ġà®µà®°à®Ł": 3454,
      "à®Ĩà®¸": 3455,
      "à®¿à®¾à¯į": 3456,
      "à®¯à®©à®µ": 3457,
      "inist": 3458,
      "ctress": 3459,
      "à®¤à®°à®ļ": 3460,
      "à®ªà®£à®¤": 3461,
      "Ġà®Īà®´à®®": 3462,
      "ose": 3463,
      "olle": 3464,
      "à®©à®Łà®®": 3465,
      "ĠThir": 3466,
      "umb": 3467,
      "ĠTV": 3468,
      "Ġà®®à®©à®¨à®²": 3469,
      "à¯ģ_": 3470,
      "à®µà®©à®ª": 3471,
      "à®°à®ļà®µà®®": 3472,
      "Ġmod": 3473,
      "An": 3474,
      "Ġ@": 3475,
      "Ġà®¤à®²à®¤": 3476,
      "à¯Ī/": 3477,
      "à®¯à®°à®ļà®°": 3478,
      "Ġà®ķà®°à®©": 3479,
      "Ġà®Ĩà®¹": 3480,
      "Ġà®ªà®ķà®Ł": 3481,
      "oday": 3482,
      "Ġà®ħà®µà®²à®®": 3483,
      "à®Ĳà®ª": 3484,
      "yl": 3485,
      "Ġall": 3486,
      "Ġcricket": 3487,
      "Ġà®ļà®Łà®²à®¤": 3488,
      "ĠRes": 3489,
      "à®¿_": 3490,
      "Ġ1956": 3491,
      "à®¯à®®à®©": 3492,
      "blog": 3493,
      "ali": 3494,
      "Ġà®¨à®ķà®Ļ": 3495,
      "à®©à®ļà®®": 3496,
      "ĠWebsite": 3497,
      "AAAA": 3498,
      "à®¾à®¿": 3499,
      "xx": 3500,
      "els": 3501,
      "à®ĩà®²à®ķ": 3502,
      "ĠBl": 3503,
      "Ġ1972": 3504,
      "chn": 3505,
      "à®¿&": 3506,
      "à¯Ĥà®¾à¯į": 3507,
      "ade": 3508,
      "Ġ1988": 3509,
      "Ġà®¹à®ļ": 3510,
      "Ġà®®à®©à®µ": 3511,
      "St": 3512,
      "à®¾),": 3513,
      "Ġ1985": 3514,
      "Ġà®µà®ļà®ª": 3515,
      "Ġbuy": 3516,
      "à®£à®±à®²": 3517,
      "à¯įâĢĿ,": 3518,
      "ips": 3519,
      "Ġà®Īà®´à®ª": 3520,
      "Ġpolitics": 3521,
      "ilm": 3522,
      "à¯Ģ-": 3523,
      "Ġwas": 3524,
      "à®ıà®¤": 3525,
      "load": 3526,
      "à¯Ī''": 3527,
      "angu": 3528,
      "Ġà®īà®°à®ķ": 3529,
      "à¯ĭ\"": 3530,
      "):": 3531,
      "à®ªà®ķà®ª": 3532,
      "ution": 3533,
      "oor": 3534,
      "Ġen": 3535,
      "ove": 3536,
      "Ġà®ķà®©à®°": 3537,
      "ower": 3538,
      "à®¨à®ķà®°à®Ļ": 3539,
      "Ġà®ħà®µà®ļà®°à®ķ": 3540,
      "à®¯à®¤à®³": 3541,
      "Ġà®īà®£à®°à®µ": 3542,
      "à®ĥà®¤": 3543,
      "irst": 3544,
      "à®¾?''": 3545,
      "Ġ1930": 3546,
      "Ġà®ıà®£": 3547,
      "Ġà®¸à®²": 3548,
      "à¯įâĢį": 3549,
      "eop": 3550,
      "ateg": 3551,
      "à®¯à®²à®ķ": 3552,
      "PL": 3553,
      "?âĢĻ": 3554,
      "ific": 3555,
      "Ġà®®à®£à®µ": 3556,
      "ivers": 3557,
      "à°": 3558,
      "à®İà®°": 3559,
      "ikai": 3560,
      "Ġà®īà®¸": 3561,
      "ix": 3562,
      "ĠFeb": 3563,
      "Ġà®´": 3564,
      "Ġ88": 3565,
      "Ġ83": 3566,
      "ĠIndian": 3567,
      "Ġà®ĩà®³à®µà®°à®ļà®©": 3568,
      "Ġhe": 3569,
      "à®Ĩà®©à®¨": 3570,
      "à®°à®¤à®Ļ": 3571,
      "Ġro": 3572,
      "cr": 3573,
      "à¯į.//": 3574,
      "à®©à®Łà®¤": 3575,
      "Ġà®ħà®ļà®®": 3576,
      "à¯ģ[": 3577,
      "Ġqu": 3578,
      "Ġper": 3579,
      "Ġà®īà®µà®®": 3580,
      "à®µà®°à®ļ": 3581,
      "SN": 3582,
      "Ġà®īà®¤à®¯à®ķ": 3583,
      "fer": 3584,
      "Ġà®ļà®µà®°à®©": 3585,
      "emple": 3586,
      "à®¯à®£à®¤": 3587,
      "Ġà®ıà®²": 3588,
      "du": 3589,
      "VID": 3590,
      "à®ļà®µà®°": 3591,
      "ĠPatr": 3592,
      "Ġ97": 3593,
      "à®ľà®¯à®¤": 3594,
      "Ġà®®à®ķà®ª": 3595,
      "Ġà®Ĩà®ķà®ķ": 3596,
      "à¯į?'": 3597,
      "à®·à®¯": 3598,
      "Ġà®īà®¤à®¯": 3599,
      "à¯ģ?âĢĻ": 3600,
      "Ġà®ıà®¯": 3601,
      "Ġà®Ĭà®Łà®ķà®ª": 3602,
      "Ġlocal": 3603,
      "DF": 3604,
      "à®ªà®±à®µ": 3605,
      "à®īà®£à®µ": 3606,
      "à®®à®°à®ķ": 3607,
      "à®°à®¯à®®": 3608,
      "800": 3609,
      "Ġà®¨à®Ļ": 3610,
      "=\"": 3611,
      "Ġ}": 3612,
      "Ġà®ªà®¯à®©à®±": 3613,
      "aiy": 3614,
      "Ġà®¨à®Łà®©à®¤": 3615,
      "ata": 3616,
      "à®¯à®¯": 3617,
      "Ġ3000": 3618,
      "overn": 3619,
      "à¯ĭâĢ¦": 3620,
      "DI": 3621,
      "à®ĩà®¯": 3622,
      "Ġ84": 3623,
      "Ġ92": 3624,
      "?\"": 3625,
      "à¯ĪâĢĭ": 3626,
      "orn": 3627,
      ".âĢĿ": 3628,
      "eek": 3629,
      "Ġà®ªà®·": 3630,
      "Ġà®®à®²à®ļ": 3631,
      "Ġà®ĩà®¤à®®": 3632,
      "ott": 3633,
      "ĠQuest": 3634,
      "999": 3635,
      "earch": 3636,
      "à®¯à®ķà®°à®®": 3637,
      "lic": 3638,
      "ane": 3639,
      "CH": 3640,
      "à®īà®ļ": 3641,
      "url": 3642,
      "%)": 3643,
      "national": 3644,
      "à¯į.!": 3645,
      "à®Łà®°à®²": 3646,
      "Ġ82": 3647,
      "istric": 3648,
      "te": 3649,
      "à®°à®ªà®¤": 3650,
      "Ġà®ĵà®ªà®©": 3651,
      "Ġ]": 3652,
      "Ġname": 3653,
      "Ġà®°à®ķà®Ļ": 3654,
      "iya": 3655,
      "ĠPosted": 3656,
      "Ġ160": 3657,
      "ikk": 3658,
      "à®ªà®©à®®": 3659,
      "à®īà®¤à®µ": 3660,
      "Ġ1500": 3661,
      "arn": 3662,
      "à®ľà®©à®®": 3663,
      "2007": 3664,
      "OS": 3665,
      "à®¾à¯į,": 3666,
      "Ġà®¤à®°à®²": 3667,
      "Ġà®ħà®®à®°à®°": 3668,
      "arth": 3669,
      "ĠRaj": 3670,
      "à®¤à®µà®®": 3671,
      "Ġbook": 3672,
      "tain": 3673,
      "ount": 3674,
      "à®ªà®´à®©": 3675,
      "Ġà®İà®ĥà®ķ": 3676,
      "Ġà®ļà®°à®µ": 3677,
      "à®¤à®£à®°": 3678,
      "Ġ1978": 3679,
      "à®¾;": 3680,
      "à®¨à®£": 3681,
      "Ġpre": 3682,
      "Ġ1975": 3683,
      "Ġ140": 3684,
      "Ġreviews": 3685,
      "à®¤à®®à®®": 3686,
      "Øª": 3687,
      "Ġà®µà®°à®©": 3688,
      "ĠNov": 3689,
      "MS": 3690,
      "ini": 3691,
      "Ù°": 3692,
      "Ġà®ªà®´à®ļ": 3693,
      "Ġà®®à®Łà®²": 3694,
      "ute": 3695,
      "à¯ĩ;": 3696,
      "à®Ĵà®Ł": 3697,
      "à®ľà®©à®¤": 3698,
      "ĠLe": 3699,
      "Ġent": 3700,
      "ĠGr": 3701,
      "mail": 3702,
      "Ġapp": 3703,
      "à®ķà®³à®©": 3704,
      "à¯Ī....": 3705,
      "à®Ĵà®³": 3706,
      "à®¤à®©à®µ": 3707,
      "Ġà®ħà®µà®ļà®°à®¤": 3708,
      "Ġcart": 3709,
      "à®±à®¤à®©": 3710,
      "Ġ~": 3711,
      "à®Łà®ķà®ķ": 3712,
      "ps": 3713,
      "ĠToday": 3714,
      "à®¯à®´": 3715,
      "à®ªà®¤à®¤": 3716,
      "Ġà®Ĩà®ķà®®": 3717,
      "ym": 3718,
      "Ġà®ļà®©à®¤": 3719,
      "alan": 3720,
      "Ġ94": 3721,
      "yn": 3722,
      "à®ıà®°": 3723,
      "Ġ1962": 3724,
      "Ġà®®à®²à®®": 3725,
      "ĠIm": 3726,
      "acebook": 3727,
      "ĠPatrikai": 3728,
      "Ġà®ļà®²à®µ": 3729,
      "edit": 3730,
      "Ġà®µà®¯à®°": 3731,
      "à®Ĳà®¨": 3732,
      "ina": 3733,
      "urn": 3734,
      "à®ľà®µ": 3735,
      "à¯įâĢ¦..": 3736,
      "ors": 3737,
      "Ġà®ķà®©à®ķ": 3738,
      "Ġà®ļà®©à®¨": 3739,
      "à®ķà®ŀ": 3740,
      "oice": 3741,
      "ĪĴ": 3742,
      "à¯į..âĢĿ": 3743,
      "Ġà®ħà®ķà®¨": 3744,
      "br": 3745,
      "rics": 3746,
      "ung": 3747,
      "Ġà®ªà®²à®¤à®°à®ª": 3748,
      "ruary": 3749,
      "Ġà®ªà®°à®Ļ": 3750,
      "ĠReviewed": 3751,
      "Ġà®ħà®¤à®°": 3752,
      "Ġà®ħà®ļà®°": 3753,
      "Ġà®ħà®©à®°": 3754,
      "Ġnew": 3755,
      "à®ļà®ªà®ķ": 3756,
      "||": 3757,
      "à¯į},": 3758,
      "aram": 3759,
      "Ġbreaking": 3760,
      "à®Łà®±à®¤": 3761,
      "Ġhave": 3762,
      "à®Ĩà®³": 3763,
      "ital": 3764,
      "oug": 3765,
      "à®ļà®©à®²": 3766,
      "Ġ1965": 3767,
      "à®īà®²à®ķà®®": 3768,
      "ĠAss": 3769,
      "ĠDinakaran": 3770,
      "Ġà®Ĩà®¤à®°à®µà®±": 3771,
      "à®®à®©à®®": 3772,
      "Ġà®Ĭà®©à®®": 3773,
      "Ġà®īà®¤à®¯à®®": 3774,
      "à®ªà®²à®¤": 3775,
      "Ġà®ķà®®à®°": 3776,
      "Ġà®Łà®¯": 3777,
      "Ġà®¸à®®": 3778,
      "Ġà®¤à®µà®³": 3779,
      "ĠMP": 3780,
      "eople": 3781,
      "oth": 3782,
      "Ġà®ķà®©à®¤": 3783,
      "à®²à®Łà®®": 3784,
      "Ġ1940": 3785,
      "à®Łà®©à®ª": 3786,
      "Ġà®īà®£à®µà®ķà®®": 3787,
      "ï¿½": 3788,
      "Ġà®®à®¤à®ª": 3789,
      "ukk": 3790,
      "Ġà®īà®£à®°à®ª": 3791,
      "Ġ......": 3792,
      "Ġà®İà®ľà®®": 3793,
      "ĠJun": 3794,
      "à®¤à®®à®¤": 3795,
      "ION": 3796,
      "Ġà®°à®®à®£": 3797,
      "ĠTo": 3798,
      "han": 3799,
      "ayan": 3800,
      "EL": 3801,
      "à¯ĭ)": 3802,
      "Ġ900": 3803,
      "Ġher": 3804,
      "Ġ89": 3805,
      "Ġ86": 3806,
      "à®¯à®µà®´": 3807,
      "Ġà®¹à®ª": 3808,
      "Ġeng": 3809,
      "à®ļà®ķà®Ł": 3810,
      "Ġà®ļà®Łà®²à®Ļ": 3811,
      "Ġà®ĩà®®à®¯à®®à®²": 3812,
      "we": 3813,
      "à®ªà®°à®µ": 3814,
      "ets": 3815,
      "Ġwho": 3816,
      "press": 3817,
      "Ġà®ħà®³à®¨": 3818,
      "Ġ87": 3819,
      "Ġà®ħà®ľà®¯": 3820,
      "Ġà®Ĳà®µà®°": 3821,
      "Ġ1979": 3822,
      "Ġà®ħà®µà®¸": 3823,
      "à®®à®°à®Ļ": 3824,
      "ĠCan": 3825,
      "ĠAg": 3826,
      "Ġcartoon": 3827,
      "Ġà®ħà®µà®¤à®°": 3828,
      "Ġà®ħà®µà®ļà®°à®ª": 3829,
      "ownload": 3830,
      "Ġà®ªà®¤à®¤": 3831,
      "ira": 3832,
      "Ġà®Ĩà®°à®£": 3833,
      "wood": 3834,
      "à¦": 3835,
      "arm": 3836,
      "à®©à®®à®£": 3837,
      "ĠPM": 3838,
      "Ġres": 3839,
      "à®¯à®±à®¤": 3840,
      "à®¯à®©à®®": 3841,
      "Ġ1920": 3842,
      "à®īà®£à®°": 3843,
      "Ġ81": 3844,
      "Ġse": 3845,
      "itt": 3846,
      "Ġgold": 3847,
      "reen": 3848,
      "ports": 3849,
      "Ġà®ħà®±à®¤": 3850,
      "Ġà®ļà®·": 3851,
      "ener": 3852,
      "ĠRating": 3853,
      "2006": 3854,
      "rol": 3855,
      "ĠDec": 3856,
      "Ġà®µà®Łà®ļ": 3857,
      "Ġbl": 3858,
      "à®´à®µà®©": 3859,
      "à¯į:-": 3860,
      "à®°à®®à®²": 3861,
      "à¯į'.": 3862,
      "à®¾.,": 3863,
      "Ġ1974": 3864,
      "Ġà®ļà®²à®ļà®²à®ª": 3865,
      "ble": 3866,
      "à®ħà®¸": 3867,
      "à®°à®ķà®©": 3868,
      "Ġ93": 3869,
      "to": 3870,
      "net": 3871,
      "2000": 3872,
      "ĠÙĪ": 3873,
      "Ġà®ļà®®à®£": 3874,
      "Ġkn": 3875,
      "Ġ720": 3876,
      "Ġà®ļà®ªà®¤à®®": 3877,
      "Ġ91": 3878,
      "anu": 3879,
      "Ġcan": 3880,
      "Ġ1982": 3881,
      "Ġà®ħà®±à®Ļ": 3882,
      "à¯į;.": 3883,
      "Ġbooks": 3884,
      "Ġdo": 3885,
      "à®®à®²à®¤": 3886,
      "uram": 3887,
      "Ġ1976": 3888,
      "anni": 3889,
      "à¯Ģà®¾à¯į": 3890,
      "à¯į!!!": 3891,
      "Ġ\"@": 3892,
      "athi": 3893,
      "yrics": 3894,
      "ijay": 3895,
      "âģ": 3896,
      "à¯Ģ)": 3897,
      "Ġà®īà®ªà®¨": 3898,
      "à®ķà®²à®µ": 3899,
      "ĠâĢľâĢĿ": 3900,
      "Ġ1969": 3901,
      "Ġà®ħà®´à®ķà®°": 3902,
      "ream": 3903,
      "utt": 3904,
      "ĠFebruary": 3905,
      "à¤¾": 3906,
      "à®°à®ķà®Łà®©à®®": 3907,
      "ĠSub": 3908,
      "Ġ1981": 3909,
      "à®°à®ªà®°à®£": 3910,
      "à®¤à®°à®ķà®¤": 3911,
      "à®ħà®³à®µ": 3912,
      "Ġtrans": 3913,
      "à®³à®¯": 3914,
      "Ġà®¤à®°à®¨": 3915,
      "à®ķà®©à®Ł": 3916,
      "à®¿....": 3917,
      "Ġ144": 3918,
      "Ġà®¤à®ķà®µà®²à®±": 3919,
      "Ġph": 3920,
      "Ġà®Ļ": 3921,
      "RI": 3922,
      "ĠScience": 3923,
      "ĠAM": 3924,
      "eer": 3925,
      "gy": 3926,
      "à®¯à®¨à®²à®®": 3927,
      "umar": 3928,
      "à¯į...\"": 3929,
      "Ġà®īà®²à®ķà®®à®¯à®®": 3930,
      "à®Ĳà®°": 3931,
      "Ø¨": 3932,
      "Ġ1952": 3933,
      "à®ķà®ļà®ª": 3934,
      "à®°à®®à®±": 3935,
      "ĠII": 3936,
      "EC": 3937,
      "Ġà®Ĩà®ķà®ª": 3938,
      "Ġà®¨à®ķà®°à®ª": 3939,
      "à®ĩà®µà®©": 3940,
      "angal": 3941,
      "Ġ1945": 3942,
      "à®¯à®²à®ķà®®": 3943,
      "à®ªà®¯à®£": 3944,
      "à¯ĩ....": 3945,
      "ystem": 3946,
      "ng": 3947,
      "olly": 3948,
      "Ġtop": 3949,
      "Ġ1957": 3950,
      "ode": 3951,
      "Ġà®®à®£à®®à®ķà®©": 3952,
      "à®¯à®ķà®Ļ": 3953,
      "à®Ĩà®µ": 3954,
      "rib": 3955,
      "Ġà®®à®´à®²": 3956,
      "à®ķà®µà®´à®ķ": 3957,
      "à®¯à®ļà®ª": 3958,
      "Ġà®µà®²à®ª": 3959,
      "Ġà®ªà®¯à®²": 3960,
      "à®ķà®ľ": 3961,
      "ĠGoogle": 3962,
      "itter": 3963,
      "ĠSe": 3964,
      "istrict": 3965,
      "Ġmovie": 3966,
      "atti": 3967,
      "Ġà®ķà®ªà®Ł": 3968,
      "GB": 3969,
      "RO": 3970,
      "Ġà®¤à®µà®¤": 3971,
      "tha": 3972,
      "rice": 3973,
      "riend": 3974,
      "Ġele": 3975,
      "Ġà®¤à®¸": 3976,
      "Ġ79": 3977,
      "à®ķà®³à®ķ": 3978,
      "avu": 3979,
      "à¯ĩà®¾,": 3980,
      "à®¯à®¤à®³à®Ļ": 3981,
      "Ġà®¤à®°à®Ļ": 3982,
      "avan": 3983,
      "..!": 3984,
      "à®®à®¤à®ª": 3985,
      "AP": 3986,
      "à®°à®ļà®®": 3987,
      "à®īà®ª": 3988,
      "à¯įâĢĮ.": 3989,
      "æĤ": 3990,
      "à®²à®¤à®©": 3991,
      "à®¾âĢĭ": 3992,
      "ĠCTR": 3993,
      "à®ķà®³à®±": 3994,
      "land": 3995,
      "ĠCo": 3996,
      "Ġà®Īà®©": 3997,
      "ĠPer": 3998,
      "à¯Ī.âĢĿ": 3999,
      "orona": 4000,
      "à¯Ī).": 4001,
      "min": 4002,
      "Ġà®ħà®ļà®Ł": 4003,
      "ĠCOVID": 4004,
      "adan": 4005,
      "æĤł": 4006,
      "à®ªà®©à®¤": 4007,
      "Ġà®¨à®µà®¨": 4008,
      "Sp": 4009,
      "ending": 4010,
      "æĤłæĤł": 4011,
      "Ġmy": 4012,
      "html": 4013,
      "à®®à®£à®ª": 4014,
      "Ġà®ªà®¹": 4015,
      "Ġà®°à®ļà®®": 4016,
      "Ġà®·à®®": 4017,
      "à®¨à®®à®ķ": 4018,
      "à®¾?.": 4019,
      "Ġwe": 4020,
      "overnment": 4021,
      "à¯į!âĢĻâĢĻ": 4022,
      "spot": 4023,
      "ĠPlus": 4024,
      "ck": 4025,
      "à¯į...!": 4026,
      "Ġà®Īà®ª": 4027,
      "ĠGold": 4028,
      "à®ķà®¹": 4029,
      "Ġà®Ķ": 4030,
      "à®¤à®Łà®Ļ": 4031,
      "Ġà®¨à®°à®ķà®¤": 4032,
      "à®¯à®¤à®²": 4033,
      "ĠBuy": 4034,
      "Ġà®ķà®²à®µà®°à®Ļ": 4035,
      "ober": 4036,
      "ĠThis": 4037,
      "udi": 4038,
      "iew": 4039,
      "Ar": 4040,
      "à®¸à®¸": 4041,
      "à®ķà®¤à®µ": 4042,
      "ives": 4043,
      "ĠMed": 4044,
      "yle": 4045,
      "Ġà®Ĳà®©": 4046,
      "IG": 4047,
      "ĠCon": 4048,
      "Ġà®¹à®¸": 4049,
      "ĠEnglish": 4050,
      "ipp": 4051,
      "Ġà®Īà®±": 4052,
      "Ġà®¤à®µà®´": 4053,
      "à®±à®¯": 4054,
      "Ġword": 4055,
      "à®¤à®Łà®¤": 4056,
      "gan": 4057,
      "2004": 4058,
      "uch": 4059,
      "à®£à®£": 4060,
      "ĠTra": 4061,
      "me": 4062,
      "Ġà®ļà®®à®°à®ļ": 4063,
      "âģ´": 4064,
      "Ġà®ħà®¤à®©à®Ł": 4065,
      "Ġhind": 4066,
      "Ġà®Ĩà®²à®Ļ": 4067,
      "à®ļà®©à®ª": 4068,
      "!)": 4069,
      "ollywood": 4070,
      "Ġà®ħà®³à®ķ": 4071,
      "bh": 4072,
      "Ġà®²à®¯": 4073,
      "sex": 4074,
      "zh": 4075,
      "ĠTir": 4076,
      "Ġlike": 4077,
      "IR": 4078,
      "tr": 4079,
      "à®±à®£": 4080,
      "ĠComm": 4081,
      "Ġà®ªà®²à®¨": 4082,
      "2005": 4083,
      "pro": 4084,
      "à¯Ĥ-": 4085,
      "Ġà®ªà®²à®°à®¤": 4086,
      "aut": 4087,
      "lim": 4088,
      "Ġà®ªà®±à®ª": 4089,
      "Ġà®Ĩà®ļà®©à®Ļ": 4090,
      "ideos": 4091,
      "so": 4092,
      "à®¤à®¤à®¤": 4093,
      "à®¹à®µ": 4094,
      "ĠNot": 4095,
      "Ġà®ªà®¯à®±": 4096,
      "à®ļà®®à®¯à®¤": 4097,
      "Ġ1964": 4098,
      "News": 4099,
      "ĠHD": 4100,
      "à®Ĵà®´": 4101,
      "con": 4102,
      "||\"": 4103,
      "US": 4104,
      "Ġ\"||\"": 4105,
      "Ġone": 4106,
      "Ġà®ªà®°à®®à®ļ": 4107,
      "???": 4108,
      "ĠApp": 4109,
      "Ġà®¤à®©à®ª": 4110,
      "irus": 4111,
      "Ġev": 4112,
      "Home": 4113,
      "Ġà®®à®²à®ª": 4114,
      "Ġà®īà®£à®µà®³": 4115,
      "Ġ1949": 4116,
      "iction": 4117,
      "aan": 4118,
      "à®ıà®µ": 4119,
      "Ġmon": 4120,
      "à®©à®´": 4121,
      "à®¤à®Łà®®": 4122,
      "ublic": 4123,
      "Ġà®ªà®¯à®ķ": 4124,
      "Ġà®ķà®²à®ķà®²à®ª": 4125,
      "action": 4126,
      "cess": 4127,
      "Ġà®ķà®©à®°à®ķ": 4128,
      "à®Ĩà®ķà®µ": 4129,
      "700": 4130,
      "Ġà®ļà®¯à®©": 4131,
      "ĠKal": 4132,
      "à¥į": 4133,
      "à¯įâĢľ": 4134,
      "à®ķà®³à®Ļ": 4135,
      "oci": 4136,
      "Ġhas": 4137,
      "Ġà®ªà®¯à®©à®³": 4138,
      "à®ļà®ªà®Ł": 4139,
      "à®°à®ķà®Łà®©à®ª": 4140,
      "BC": 4141,
      "TN": 4142,
      "à®Łà®µà®®": 4143,
      "Ġà®Ĩà®°à®¤": 4144,
      "ĠTop": 4145,
      "Ġcomp": 4146,
      "anjil": 4147,
      "à®¯à®®à®©à®¤": 4148,
      "Ġà®¨à®®à®¸": 4149,
      "stit": 4150,
      "ka": 4151,
      "à®ļà®µà®Ļ": 4152,
      "Ind": 4153,
      "Al": 4154,
      "à®Ĵà®ª": 4155,
      "izh": 4156,
      "à®ķà®°à®ļà®°": 4157,
      "TE": 4158,
      "iness": 4159,
      "ret": 4160,
      "Ġ1973": 4161,
      "UN": 4162,
      "à®¤à®³à®ªà®¤": 4163,
      "à®¤à®ķà®©": 4164,
      "oot": 4165,
      "à®¯à®¨à®²": 4166,
      "OL": 4167,
      "der": 4168,
      "ĠLyrics": 4169,
      "rap": 4170,
      "Ġte": 4171,
      "Ġcont": 4172,
      "istory": 4173,
      "à®¾??": 4174,
      "ĠVideo": 4175,
      "âĢĶâĢĶâĢĶâĢĶ": 4176,
      "Ġ450": 4177,
      "à®Ĳà®ļ": 4178,
      "à¯ĭâĢĿ": 4179,
      "ne": 4180,
      "arb": 4181,
      "à®ĵà®¯": 4182,
      "ĠCent": 4183,
      "à¯ĩ?âĢĿ": 4184,
      "ron": 4185,
      "Ġà®µà®°à®¤à®Ł": 4186,
      "Ġà®īà®ªà®ļà®°": 4187,
      "Ġà®ĵà®©": 4188,
      "à®ĩà®µà®±": 4189,
      "à®°à®³à®®": 4190,
      "Ġà®¤à®ķà®©à®®": 4191,
      "ĠSamayam": 4192,
      "à®ħà®ŀ": 4193,
      "ĠâĢ¦.": 4194,
      "Ġà®¨à®¸": 4195,
      "Ġà®¨à®Łà®©à®ķ": 4196,
      "ĠÎ": 4197,
      "Ġ),": 4198,
      "outh": 4199,
      "blogspot": 4200,
      "Ġ2022": 4201,
      "à®ªà®¹": 4202,
      "à¯ĩ:": 4203,
      "utamil": 4204,
      "lease": 4205,
      "Ġà®®à®±à®¤": 4206,
      "Ġà®ĵà®Łà®µ": 4207,
      "IP": 4208,
      "à¯ĭà®¾à¯į": 4209,
      "ĠÂ«": 4210,
      "à²": 4211,
      "Ġkamakathaikal": 4212,
      "ama": 4213,
      "type": 4214,
      "à¯ĪâĢĻâĢĻ": 4215,
      "Ġà®ķà®£à®Ļ": 4216,
      "ĠAs": 4217,
      "ĠChrist": 4218,
      "Ġà®ļà®ķà®¤": 4219,
      "à¯įâĢĺ": 4220,
      "imes": 4221,
      "à®®à®£à®²": 4222,
      "MP": 4223,
      "EWS": 4224,
      "Ġà®Łà®µà®°": 4225,
      "Ġour": 4226,
      "Ġà®īà®²à®®": 4227,
      "Ġà®Ĵà®®": 4228,
      "Ġà®ħà®±à®ª": 4229,
      "à®±à®®à®±": 4230,
      "ative": 4231,
      "à®µà®©à®ķ": 4232,
      "759": 4233,
      "?)": 4234,
      "ĠIs": 4235,
      "Ġmodel": 4236,
      "à®µà®®à®±": 4237,
      "Ġà®¹à®Ł": 4238,
      "ĠBe": 4239,
      "ited": 4240,
      "ĠAll": 4241,
      "à¯ģ,''": 4242,
      "Ġà®®à®©à®¤à®³à®µ": 4243,
      "ae": 4244,
      "news": 4245,
      "ooth": 4246,
      "Ġà®ľà®µà®¹à®°": 4247,
      "gov": 4248,
      "ï»¿": 4249,
      "Ġcomment": 4250,
      "amy": 4251,
      "ĠNational": 4252,
      "Ùĥ": 4253,
      "CC": 4254,
      "Ġwhich": 4255,
      "ĠIS": 4256,
      "Ġà®ıà®µà®ª": 4257,
      "Ġser": 4258,
      "Ġà®®à®£à®®à®ķà®³": 4259,
      "Ġà®¯à®ļ": 4260,
      "Ġà®ªà®¯à®£à®ª": 4261,
      "à®®à®ľ": 4262,
      "Ġà®¤à®³à®ª": 4263,
      "à¯į*": 4264,
      "à®Ĩà®¨": 4265,
      "à®©à®µà®Ļ": 4266,
      "à®ªà®¯à®Ļ": 4267,
      "chool": 4268,
      "à®¨à®²à®¤": 4269,
      "à®Łà®°à®µ": 4270,
      "Ġà®ªà®°à®²": 4271,
      "Ġà®ªà®Łà®²à®®": 4272,
      "à¯į...âĢĻ": 4273,
      ".(": 4274,
      "Ġ1968": 4275,
      "iversity": 4276,
      "ĠTechn": 4277,
      "Ġà®Ĳà®¤à®°à®ļà®©": 4278,
      "Ġà®ħà®ķà®¸": 4279,
      "ĠMod": 4280,
      "ĠFr": 4281,
      "2001": 4282,
      "Ġyear": 4283,
      "à®Łà®ķà®ª": 4284,
      "!!!!": 4285,
      "Ġà®¸à®°": 4286,
      "à®¾âĢ¦.": 4287,
      "à®ļà®²à®¤": 4288,
      "à®Łà®©à®Ļ": 4289,
      "Ġà®²à®¯à®©": 4290,
      "Ġop": 4291,
      "Ã¤": 4292,
      "ert": 4293,
      "ĠâĤ": 4294,
      "Ġhindutamil": 4295,
      "aigal": 4296,
      "ular": 4297,
      "à®ķà®²à®ķ": 4298,
      "?'": 4299,
      "Ġà®Ĩà®µà®Ł": 4300,
      "ission": 4301,
      "anuary": 4302,
      "Ã©": 4303,
      "à®¯à®ļà®°": 4304,
      "Ġ128": 4305,
      "Ġ1954": 4306,
      "PSC": 4307,
      "bp": 4308,
      "ward": 4309,
      "Ġà®µà®©à®®": 4310,
      "eli": 4311,
      "Ġ1961": 4312,
      "à®ķà®³à®°": 4313,
      "à¯ģ.,": 4314,
      "fl": 4315,
      "âĢ¢": 4316,
      "ush": 4317,
      "à¯ģ.'": 4318,
      "Im": 4319,
      "Ġà®ªà®ľà®©": 4320,
      "ality": 4321,
      "ency": 4322,
      "à®Łà®Łà®ķ": 4323,
      "ĠIt": 4324,
      "à®µà®©à®Ł": 4325,
      "à®ķà®³à®ŀ": 4326,
      "Ġà®ļà®®à®¯à®ª": 4327,
      "inister": 4328,
      "Ġà®ħà®µà®²à®Ļ": 4329,
      "Ġà®²à®·": 4330,
      "à®µà®ļà®ķ": 4331,
      "à®Łà®¨à®®": 4332,
      "à®Īà®Ł": 4333,
      "int": 4334,
      "ars": 4335,
      "à®¿âĢĻ,": 4336,
      "à®ªà®¤à®ķ": 4337,
      "à®ķà®²à®¨": 4338,
      "à®ªà®¯à®°": 4339,
      "SNL": 4340,
      "à®³à®©à®µ": 4341,
      "Ġà®ħà®®à®®": 4342,
      "Ġ4000": 4343,
      "emb": 4344,
      "à®ļà®°à®ķ": 4345,
      "Ġoff": 4346,
      "à®Ĭà®Ł": 4347,
      "à®ªà®ªà®Ł": 4348,
      "ĠLink": 4349,
      "ĠFlash": 4350,
      "{{": 4351,
      "TH": 4352,
      "à®ļà®Łà®Ļ": 4353,
      "à®°à®ªà®¨": 4354,
      "ĠCanada": 4355,
      "ĠVir": 4356,
      "ĠBook": 4357,
      "Ġ1958": 4358,
      "ior": 4359,
      "Ġinter": 4360,
      "inal": 4361,
      "imer": 4362,
      "à®ªà®¤à®²": 4363,
      "IV": 4364,
      "Ġà®ħà®ķà®²à®¤": 4365,
      "wiki": 4366,
      "à®ľà®©à®µà®°": 4367,
      "ĠTam": 4368,
      "à®ļà®£à®®": 4369,
      "ĠSex": 4370,
      "à®©à®¤à®©": 4371,
      "Cl": 4372,
      "Ġà®ļà®®à®£à®°": 4373,
      "à®ıà®¯": 4374,
      "à®¿]]": 4375,
      "Ġà®Ĩà®Łà®²": 4376,
      "Ġpeople": 4377,
      "à¯ĪâĢĮ": 4378,
      "0000": 4379,
      "à¯ģ.(": 4380,
      "ict": 4381,
      "],": 4382,
      "ĠOct": 4383,
      "à®°à®¤à®©": 4384,
      "à®µà®´à®Ļ": 4385,
      "Ġà®īà®Łà®¨": 4386,
      "ier": 4387,
      "ĠMag": 4388,
      "Â®Âķ": 4389,
      "à®ľà®¯à®²à®Ł": 4390,
      "à®©à®ķà®°": 4391,
      "crip": 4392,
      "à¯ģ!âĢĿ": 4393,
      "Com": 4394,
      "à®¨à®Łà®°": 4395,
      "agar": 4396,
      "Ġà®¤à®°à®ķà®°": 4397,
      "à®ļà®°à®®": 4398,
      "otos": 4399,
      "PA": 4400,
      "ĠSong": 4401,
      "Ġpart": 4402,
      "aid": 4403,
      "Ġac": 4404,
      "à®ĩà®³à®®": 4405,
      "oup": 4406,
      "ĠDev": 4407,
      "ING": 4408,
      "Ġà®ļà®°à®³à®®": 4409,
      "ĠComp": 4410,
      "à®Łà®®à®°": 4411,
      "Ø¯": 4412,
      "Ġà®¨à®®à®ļ": 4413,
      "ature": 4414,
      "Ġà®ıà®´à®°": 4415,
      "Ġà®Ĭà®ŀ": 4416,
      "à®ļà®°à®¸": 4417,
      "ody": 4418,
      "à®ķà®¨à®²": 4419,
      "Ġà®Ĵà®Ļ": 4420,
      "Ġà®ľà®Ļ": 4421,
      "Ġdis": 4422,
      "Ø³": 4423,
      "à®¨à®µà®®": 4424,
      "Ġà®İà®´à®µ": 4425,
      "inews": 4426,
      "upp": 4427,
      "Ġà®ĵà®¨": 4428,
      "olution": 4429,
      "ument": 4430,
      "Ġ1966": 4431,
      "à®ĵà®®": 4432,
      "à®ªà®ķà®±": 4433,
      "Ġ1946": 4434,
      "à®ªà®Łà®ļ": 4435,
      "uper": 4436,
      "inn": 4437,
      "ĠAb": 4438,
      "à®ļà®ŀ": 4439,
      "Ġà®Ĩà®³à®ª": 4440,
      "med": 4441,
      "à®®à®ķà®°": 4442,
      "Ġ1963": 4443,
      "Ġà®ªà®©à®Ļ": 4444,
      "Ġpm": 4445,
      "Ġà®Ĳà®¯à®©": 4446,
      "\",\"": 4447,
      "urr": 4448,
      "à¯ģ..!!": 4449,
      "sc": 4450,
      "akam": 4451,
      "Ġav": 4452,
      "ouse": 4453,
      "Ġà®ªà®°à®ļ": 4454,
      "ize": 4455,
      "Ġstr": 4456,
      "Ġ1951": 4457,
      "Ġà®īà®³à®±": 4458,
      "à¯į?''": 4459,
      "Sh": 4460,
      "Â¢": 4461,
      "Ġà®®à®£à®¤": 4462,
      "à®Ĵà®²": 4463,
      "à®²à®Łà®ķ": 4464,
      "250": 4465,
      "use": 4466,
      "more": 4467,
      "âĢ¦..": 4468,
      "Ġà®·à®ķ": 4469,
      "ĠFacebook": 4470,
      "Ġday": 4471,
      "à®ķà®©à®ª": 4472,
      "ĠTrending": 4473,
      "à®ªà®°à®ļ": 4474,
      "Ġà®ļà®©à®®": 4475,
      "formation": 4476,
      "à®¤à®°à®ķà®®": 4477,
      "à®°à®¯à®¤": 4478,
      "Ġà®ĩà®µà®©à®¤": 4479,
      "ĠRev": 4480,
      "à¯ģ]]": 4481,
      "âĢĭâĢĭ": 4482,
      "CL": 4483,
      "ĠSports": 4484,
      "tn": 4485,
      "ief": 4486,
      "ould": 4487,
      "à¯į.*": 4488,
      "ection": 4489,
      "AY": 4490,
      "ĠEle": 4491,
      "Ġà®¤à®°à®£": 4492,
      "eck": 4493,
      "................": 4494,
      "à®¤à®Łà®µ": 4495,
      "Ġà®¨à®²à®ļ": 4496,
      "ident": 4497,
      "irector": 4498,
      "ĠÙħ": 4499,
      "Ġed": 4500,
      "Ġ1955": 4501,
      "eep": 4502,
      "aff": 4503,
      "eld": 4504,
      "MK": 4505,
      "à®ħà®µà®±": 4506,
      "ĠJanuary": 4507,
      "ĠTR": 4508,
      "ĠMay": 4509,
      "ept": 4510,
      "à®¸à®ª": 4511,
      "ĠRam": 4512,
      "ours": 4513,
      "ĠTest": 4514,
      "ĠInternational": 4515,
      "Ġà®ħà®°à®ļà®µ": 4516,
      "ĠKollywood": 4517,
      "BI": 4518,
      "ange": 4519,
      "igal": 4520,
      "erson": 4521,
      "As": 4522,
      "than": 4523,
      "à®¿).": 4524,
      "Ġà®ĵà®´": 4525,
      "enef": 4526,
      "Ġ750": 4527,
      "Ġà®ªà®²à®©à®³": 4528,
      "á¹": 4529,
      "undh": 4530,
      "ĠIT": 4531,
      "Ġà®ĩà®¤à®¯à®Ļ": 4532,
      "Ġcr": 4533,
      "BS": 4534,
      "Ġ1959": 4535,
      "outube": 4536,
      "eri": 4537,
      "Ġà®ķà®°à®¤": 4538,
      "à®ĩà®µà®°à®¤": 4539,
      "ublish": 4540,
      "plet": 4541,
      "any": 4542,
      "EE": 4543,
      "richy": 4544,
      "Ġà®¨à®°à®ķ": 4545,
      "date": 4546,
      "ĠHigh": 4547,
      "Ġ1939": 4548,
      "ator": 4549,
      "SS": 4550,
      "à®¤à®°à®ķà®°": 4551,
      "à®ľà®¯à®¨à®ķà®°": 4552,
      "1000": 4553,
      "aa": 4554,
      "aik": 4555,
      "Ġhis": 4556,
      "IM": 4557,
      "gmail": 4558,
      "à¯į?.": 4559,
      "ocial": 4560,
      "à¯Ī_": 4561,
      "à®µà®ķà®ª": 4562,
      "anguage": 4563,
      "à®ªà®ķà®°": 4564,
      "ision": 4565,
      "à¯ģâĢĻ,": 4566,
      "150": 4567,
      "oph": 4568,
      "à®¿à¯ĩ": 4569,
      ".\"": 4570,
      "Ġà®ħà®ļà®¨": 4571,
      "Ġà®İà®®à®©": 4572,
      "Ġà®Łà®Ł": 4573,
      "Ġ105": 4574,
      "à®ķà®°à®Ł": 4575,
      "\">": 4576,
      "AG": 4577,
      "Ġ1942": 4578,
      "play": 4579,
      "ati": 4580,
      "à¯į!)": 4581,
      "ve": 4582,
      "à®Ļà®©à®®": 4583,
      "Ġcomm": 4584,
      "Ġà®Ĳà®İà®¸": 4585,
      "Ġà®¨à®ľ": 4586,
      "Ġentry": 4587,
      "Ġà®Ĳà®¯à®Ļ": 4588,
      "Ġ1944": 4589,
      "à®¤à®µà®£": 4590,
      "lex": 4591,
      "à®ľà®¨": 4592,
      "à®Łà®°à®Ļ": 4593,
      "à¯į..\"": 4594,
      "à®¯à®°à®³à®µ": 4595,
      "Ġà®ķà®°à®ķ": 4596,
      "à¯ģ.....": 4597,
      "Ex": 4598,
      "à®²à®®à®±": 4599,
      "ely": 4600,
      "atha": 4601,
      "Ġtoday": 4602,
      "ĠTH": 4603,
      "ĠNe": 4604,
      "usiness": 4605,
      "Ġà®ªà®°à®®à®ķ": 4606,
      "à®ķà®ķà®³": 4607,
      "Ġbr": 4608,
      "à®¶": 4609,
      "Ġà®®à®°à®ļ": 4610,
      "à¯įâĢĮ,": 4611,
      "ruit": 4612,
      "à®¤à®µà®²": 4613,
      "à®°à®µà®ª": 4614,
      "à®µà®¯à®²": 4615,
      "à®ķà®´à®ª": 4616,
      "ho": 4617,
      "à®Łà®²à®Ł": 4618,
      "à®ļà®¯à®©": 4619,
      "Ġà®¯à®ª": 4620,
      "Ġà®ĩà®¯à®°": 4621,
      "Ġà®ķà®µà®©à®ķ": 4622,
      "ys": 4623,
      "à®²à®¤à®²": 4624,
      "à®ķà®´à®µ": 4625,
      "Ġà®ªà®°à®µà®ļà®®": 4626,
      "à®®à®ķà®¤": 4627,
      "paper": 4628,
      "Ġà®Łà®¯à®Ł": 4629,
      "à®°à®ķà®°": 4630,
      "à¯į.-": 4631,
      "...\"": 4632,
      "elf": 4633,
      "Ġà®¤à®Łà®¤": 4634,
      "ures": 4635,
      "iyam": 4636,
      "Ġà®µà®ļà®©": 4637,
      "à®ļà®°à®¤": 4638,
      "Ġà®Ĩà®ķà®£": 4639,
      "Ġà®¨à®°à®ķà®®": 4640,
      "à®¨à®²à®©": 4641,
      "à®°à®ªà®²à®®à®Ł": 4642,
      "aning": 4643,
      "Ġ1953": 4644,
      "900": 4645,
      "à¯ģ,âĢĿ": 4646,
      "âĢ¦)": 4647,
      "ĠSec": 4648,
      "à®£à®®à®¯à®®": 4649,
      "ĠWhat": 4650,
      "[[": 4651,
      "Ġà®ķà®©à®ħà®Ł": 4652,
      "ula": 4653,
      "Ġà®®à®£à®®à®ķ": 4654,
      "arg": 4655,
      "way": 4656,
      "Ġà®ľà®©à®©": 4657,
      "à®²à®®à®©": 4658,
      "Ġtemple": 4659,
      "lation": 4660,
      "etail": 4661,
      "Ġà®ħà®¤à®Ł": 4662,
      "à¯į//": 4663,
      "Ø¹": 4664,
      "Ġ220": 4665,
      "ied": 4666,
      "ms": 4667,
      "à®µà®ļà®¨": 4668,
      "à®²à®ļà®¨": 4669,
      "Ġà®īà®²à®ķà®Ļ": 4670,
      "Ġposted": 4671,
      "..?": 4672,
      "ization": 4673,
      "à¯ģ.''": 4674,
      "à®Łà®ªà®Ļ": 4675,
      "Ġsl": 4676,
      "Ġà®ķà®£à®µ": 4677,
      "igg": 4678,
      "à¯ģ..?": 4679,
      "ica": 4680,
      "akka": 4681,
      "Ġà®¹à®ļà®©": 4682,
      "à¯į......": 4683,
      "à®®à®¤à®©": 4684,
      "rish": 4685,
      "omen": 4686,
      "CE": 4687,
      "kin": 4688,
      "à®ķà®¤à®®": 4689,
      "ĠâĤ¹": 4690,
      "Ġà®µà®ľ": 4691,
      "Ġà®īà®£à®°à®²": 4692,
      "aya": 4693,
      "à®°à®³à®µ": 4694,
      "Ġout": 4695,
      "Ġà®ħà®®à®°à®µ": 4696,
      "ĠAir": 4697,
      "Ġà®ıà®ķà®¤": 4698,
      "âĢĻ,": 4699,
      "Ġà®®à®²à®Ł": 4700,
      "Ġvs": 4701,
      "por": 4702,
      "Ġà®®à®©à®¨à®²à®®": 4703,
      "Ġà®ħà®³à®µà®±": 4704,
      "Ġà®ĩà®Łà®µà®ļà®¤": 4705,
      "????": 4706,
      "Ġà®µà®¸à®²": 4707,
      "Ġhealth": 4708,
      "à¯ģ|": 4709,
      "à®µà®¤à®®": 4710,
      "Ġà®®à®ķà®°à®¨": 4711,
      "ness": 4712,
      "Â·": 4713,
      "Ġà®īà®£à®°à®®": 4714,
      "Ġmag": 4715,
      "ĠPolimer": 4716,
      "à®µà®ķà®ļ": 4717,
      "Ġà®°à®ĥà®ª": 4718,
      "à®ķà®³à®²": 4719,
      "ough": 4720,
      "als": 4721,
      "ton": 4722,
      "à®¯à®®à®©à®Ļ": 4723,
      "ĠAct": 4724,
      "à®´à®µà®°": 4725,
      "ĠRec": 4726,
      "ounc": 4727,
      "Ġà®ķà®²à®ķà®®": 4728,
      "Ġà®¤à®Łà®ķà®³": 4729,
      "Ġà®µà®Łà®¨": 4730,
      "ĠSing": 4731,
      "ows": 4732,
      "ffect": 4733,
      "Ġactress": 4734,
      "athu": 4735,
      "TM": 4736,
      "Ġà®¯à®ķ": 4737,
      "omb": 4738,
      "Ġsc": 4739,
      "TV": 4740,
      "araj": 4741,
      "Ġ170": 4742,
      "à¯ĩ!)": 4743,
      "ility": 4744,
      "Ġ:-)": 4745,
      "Ġà®Ĳà®Ĳà®Ł": 4746,
      "Ġà®ĵà®©à®°": 4747,
      "Ġprot": 4748,
      "à¯Įà®¿": 4749,
      "Ġ2500": 4750,
      "à®¤à®¤à®²": 4751,
      "Ġ1937": 4752,
      "Ġ104": 4753,
      "ĠLank": 4754,
      "roid": 4755,
      "rite": 4756,
      "à®°à®µà®Ļ": 4757,
      "ask": 4758,
      "à®¹à®¸": 4759,
      "à®Łà®¤à®Ł": 4760,
      "ene": 4761,
      "Ġà®µà®³à®°à®µ": 4762,
      "Ġà®ħà®µà®²à®¤": 4763,
      "ocument": 4764,
      "à®¯à®©à®Ļ": 4765,
      "Ġà®ķà®¤à®°": 4766,
      "à®ļà®ķà®µ": 4767,
      "ĠBr": 4768,
      "à®³à®©à®¤": 4769,
      "ĠRE": 4770,
      "Ġpol": 4771,
      "à¤°": 4772,
      ")-": 4773,
      "Ġz": 4774,
      "à®¯à®©à®°": 4775,
      "à®ļà®µà®¤": 4776,
      "à®ªà®°à®¸": 4777,
      "ety": 4778,
      "Â¯Âģ": 4779,
      "à®¨à®±": 4780,
      "Ġkw": 4781,
      "à®ĩà®³à®Ļ": 4782,
      "ĠNEWS": 4783,
      "Ġ101": 4784,
      "Ġmed": 4785,
      "à®°à®£à®ķ": 4786,
      "Ġjew": 4787,
      "cle": 4788,
      "à¯Ĩ.,": 4789,
      "......": 4790,
      "à®Ĵà®¯": 4791,
      "à®¨à®¯": 4792,
      "elop": 4793,
      "gn": 4794,
      "arch": 4795,
      "ava": 4796,
      "ags": 4797,
      "ĠBSNL": 4798,
      "Ġfirst": 4799,
      "rug": 4800,
      "Ġover": 4801,
      "////": 4802,
      "uman": 4803,
      "à®ħà®µà®Ļ": 4804,
      "à®Ĭà®°à®Łà®Ļ": 4805,
      "SP": 4806,
      "à®¤à®±à®²": 4807,
      "à®İà®³": 4808,
      "à®ªà®©à®µà®±": 4809,
      "ĠOctober": 4810,
      "ĠNovember": 4811,
      "SC": 4812,
      "à®ªà®®à®£": 4813,
      "ĠQuestions": 4814,
      "ĠTw": 4815,
      "ĠBooks": 4816,
      "ĠKam": 4817,
      "à®¾.''": 4818,
      "oint": 4819,
      "========": 4820,
      "Ġà®Īà®°à®¤": 4821,
      "Ġà®ªà®¯à®£à®ķ": 4822,
      "HO": 4823,
      "Ġà®¨à®ķà®°à®ļà®ª": 4824,
      "Ġwork": 4825,
      "ATION": 4826,
      "AV": 4827,
      "à®īà®²à®ķà®¤": 4828,
      "Ġdes": 4829,
      "Ġacc": 4830,
      "ĠMarch": 4831,
      "à®Ĩà®ķà®¸": 4832,
      "ĠPDF": 4833,
      "ĠTNPSC": 4834,
      "Ġ1938": 4835,
      "ĠChristian": 4836,
      "oto": 4837,
      "Ġà®ķà®²à®®": 4838,
      "Ġà®Ĩà®µà®¤à®±": 4839,
      "Ġfr": 4840,
      "à¯ģ\",": 4841,
      "ĠArt": 4842,
      "à¯ĭà¯į": 4843,
      "alam": 4844,
      "à®°à®ķà®£à®®": 4845,
      "ĠCol": 4846,
      "de": 4847,
      "à®ķà®µà®®": 4848,
      "Ġà®µà®²à®¯à®¤": 4849,
      "ĠArch": 4850,
      "à®ľà®©à®¨": 4851,
      "ope": 4852,
      "li": 4853,
      "res": 4854,
      "à®ķà®¨à®ªà®°": 4855,
      "Ġà®ħà®ķà®°à®®": 4856,
      "ĠHealth": 4857,
      "aksh": 4858,
      "à¯ĩ!âĢĿ": 4859,
      "rc": 4860,
      "à®ľà®ķà®®": 4861,
      "à®¿..!": 4862,
      "Ġ1200": 4863,
      "ft": 4864,
      "ĠHow": 4865,
      "iver": 4866,
      "Â®Â¿": 4867,
      "attu": 4868,
      "à®°à®µà®£à®ķ": 4869,
      "ika": 4870,
      "ĠDay": 4871,
      "à®ĵà®ļ": 4872,
      "----------------": 4873,
      "EO": 4874,
      "Ġà®µà®³à®ª": 4875,
      "ami": 4876,
      "à®Łà®®à®³": 4877,
      "Â§": 4878,
      "Ġà®ªà®Łà®ªà®Łà®ª": 4879,
      "à®®à®Łà®®": 4880,
      "ants": 4881,
      "Ġà®¤à®Łà®¯à®Ļ": 4882,
      "Ġà®ĩà®ķà®´": 4883,
      "rain": 4884,
      "Pro": 4885,
      "UM": 4886,
      "Ġà®ıà®³à®©à®®": 4887,
      "Ġà®ľà®ķà®¤": 4888,
      "Ġform": 4889,
      "Ġ).": 4890,
      "à®®à®Łà®¤": 4891,
      "icial": 4892,
      "Ġwater": 4893,
      "Ġà®¤à®ļà®°": 4894,
      "over": 4895,
      "enefits": 4896,
      "à®ķà®£à®Ļ": 4897,
      "Ġà®·à®Ł": 4898,
      "nal": 4899,
      "ecial": 4900,
      "kkai": 4901,
      "bs": 4902,
      "Ġà®¨à®²à®µ": 4903,
      "Ġhere": 4904,
      "ote": 4905,
      "âĢ¦âĢĿ": 4906,
      "CR": 4907,
      "aun": 4908,
      "unelv": 4909,
      "Ġà®²à®®": 4910,
      "à®¤à®±à®Ł": 4911,
      "Ġ1800": 4912,
      "unelveli": 4913,
      "Ġà®°à®Ł": 4914,
      "à®¾..!": 4915,
      "thi": 4916,
      "Ph": 4917,
      "Ġà®ľà®¯à®ļ": 4918,
      "logo": 4919,
      "à®¤à®®à®Ļ": 4920,
      "Ġcc": 4921,
      "à®©à®ķà®²": 4922,
      "Â®Â¤": 4923,
      "uj": 4924,
      "Ġgo": 4925,
      "Ġà®Ĩà®£à®µà®®": 4926,
      "ĠFre": 4927,
      "IA": 4928,
      "à®ĩà®Łà®¤": 4929,
      "era": 4930,
      "Ġ6000": 4931,
      "Ġà®Ĩà®²à®©": 4932,
      "Ġ1941": 4933,
      "annel": 4934,
      "ĠST": 4935,
      "à®ķà®µà®¤à®°": 4936,
      "ats": 4937,
      "under": 4938,
      "Ġà®µà®³à®°à®ķ": 4939,
      "ĠMad": 4940,
      "2003": 4941,
      "à¯į]],": 4942,
      "Ġ370": 4943,
      "Ġà®ļà®²à®©à®®": 4944,
      "dis": 4945,
      "oard": 4946,
      "win": 4947,
      "à®ªà®°à®ļà®©": 4948,
      "go": 4949,
      "Ġ1931": 4950,
      "ĠHind": 4951,
      "âĢ¦âĢ¦âĢ¦âĢ¦": 4952,
      "Ġ_": 4953,
      "++": 4954,
      "à¯ģâĢį": 4955,
      "Ġà®Łà®²": 4956,
      "à¯Ī..!": 4957,
      "PP": 4958,
      "fter": 4959,
      "ĠInteraction": 4960,
      "ti": 4961,
      "Ùī": 4962,
      "gr": 4963,
      "à¯ģà¯į": 4964,
      "Ġtime": 4965,
      "à¯Ĥ.,": 4966,
      "Ġà®īà®²à®ķà®ļ": 4967,
      "à®Łà®©à®µ": 4968,
      "Ġà®µà®©à®ļ": 4969,
      "obile": 4970,
      "à¯Ī!!": 4971,
      "à®±à®¤à®²": 4972,
      "Ġà®īà®¤à®¯à®ļ": 4973,
      "Ġvar": 4974,
      "à®ıà®ļ": 4975,
      "wikinews": 4976,
      "Ġ},": 4977,
      "Ġ119": 4978,
      "thu": 4979,
      "ĠDecember": 4980,
      "iam": 4981,
      "Ġ234": 4982,
      "à®ķà®©à®©": 4983,
      "NA": 4984,
      "RE": 4985,
      "UD": 4986,
      "ek": 4987,
      "à®ľà®Ļ": 4988,
      "à®³à®µà®±": 4989,
      "ĠDel": 4990,
      "à®µà®°à®¤à®°": 4991,
      "Ġà®ľà®¹": 4992,
      "agam": 4993,
      "à®ªà®²à®°": 4994,
      "Ġà®ĩà®³à®ķ": 4995,
      "Ġadd": 4996,
      "à¯į...âĢĿ": 4997,
      "Ġà®ķà®ĥà®ª": 4998,
      "à®¨à®Łà®¨": 4999,
      "Ġà®ªà®°à®¤à®©": 5000,
      "ĠCateg": 5001,
      "Ġserkkai": 5002,
      "ÃĹ": 5003,
      "...''": 5004,
      "ĠBy": 5005,
      "Le": 5006,
      "à¯Ī]": 5007,
      "Ġà®īà®¤à®µà®ķ": 5008,
      "unn": 5009,
      "uly": 5010,
      "Ġà®ħà®µà®¨à®®": 5011,
      "Ġ1936": 5012,
      "ĠSur": 5013,
      "amm": 5014,
      "DP": 5015,
      "Ġà®¤à®°à®®à®±": 5016,
      "Un": 5017,
      "à®¸à®¤": 5018,
      "à®ļà®®à®®": 5019,
      "uthor": 5020,
      "ĠÐ": 5021,
      "Ġà®µà®¹": 5022,
      "ĠAL": 5023,
      "ourt": 5024,
      "andard": 5025,
      "Ġdr": 5026,
      "********": 5027,
      "work": 5028,
      "!''": 5029,
      "à®Łà®®à®Ł": 5030,
      "à®¯à®¨à®²à®¤": 5031,
      "Ġmarundh": 5032,
      "à®ªà®ľà®©": 5033,
      "Ġà®ľà®¨": 5034,
      "1990": 5035,
      "Ġà®ħà®¹à®®à®¤": 5036,
      "à®¹à®ª": 5037,
      "Ġtheir": 5038,
      "En": 5039,
      "ĠOf": 5040,
      "à®Īà®´à®¤": 5041,
      "yr": 5042,
      "Ġà®ħà®²à®±à®²": 5043,
      "Ġmin": 5044,
      "________": 5045,
      "ĠDistrict": 5046,
      "Ġà®µà®³à®µ": 5047,
      "ky": 5048,
      "Ġà®Ĵà®³à®µ": 5049,
      "ĠPart": 5050,
      "à¯ģâĢ¦âĢĿ": 5051,
      "à®Īà®¸": 5052,
      "Ġà®ħà®ĥà®¤": 5053,
      "à®¾?âĢĻâĢĻ": 5054,
      "Ġalso": 5055,
      "Ġà®İà®©à®°": 5056,
      "Ġà®ħà®°à®µà®ķ": 5057,
      "Ġna": 5058,
      "à®°à®¤à®ļ": 5059,
      "à®©à®®à®Ł": 5060,
      "other": 5061,
      "Ġà®¤à®°à®ļ": 5062,
      "à®ķà®Łà®±": 5063,
      "Ġcol": 5064,
      "à®°à®·à®°": 5065,
      "à®īà®±à®µ": 5066,
      "imb": 5067,
      "à®Łà®®à®®": 5068,
      "Ġsec": 5069,
      "Ġkama": 5070,
      "eat": 5071,
      "ĠDis": 5072,
      "ider": 5073,
      "à¯ģ&": 5074,
      "No": 5075,
      "eel": 5076,
      "à®Ĭà®¤": 5077,
      "2002": 5078,
      "Ġ1943": 5079,
      "Ġà®¯à®Ł": 5080,
      "Ġà®īà®£à®µà®°": 5081,
      "anam": 5082,
      "Ġ1935": 5083,
      "à®®à®£à®ķ": 5084,
      "Ġsm": 5085,
      "come": 5086,
      "Ġexplet": 5087,
      "OT": 5088,
      "ror": 5089,
      "à§": 5090,
      "à®¨à®³": 5091,
      "ĠTrans": 5092,
      "On": 5093,
      "à®ĩà®Łà®®": 5094,
      "ĠMark": 5095,
      "Ġfood": 5096,
      "ĠEm": 5097,
      "ictionary": 5098,
      "à®´à®ķà®°": 5099,
      "à®¨à®Łà®µà®Ł": 5100,
      "à®¯à®Łà®ķ": 5101,
      "irl": 5102,
      "à¯ĩÂŃ": 5103,
      "à¯ĨâĢĮ": 5104,
      "Ġà®Ĭà®ļà®²": 5105,
      "ĠTamizh": 5106,
      "à®®à®ķà®µ": 5107,
      "Ġà®Ĩà®©à®µà®°": 5108,
      "à®®à®©à®ļ": 5109,
      "ĠYarl": 5110,
      "..âĢĿ": 5111,
      "Ġà®Ĩà®Łà®µà®°": 5112,
      "vent": 5113,
      "Ġu": 5114,
      "à®¨à®²à®µ": 5115,
      "ames": 5116,
      "Ġà®®à®±à®ª": 5117,
      "à¯¦à¯¦": 5118,
      "ather": 5119,
      "Ġrecip": 5120,
      "à®¤à®ķà®µ": 5121,
      "ĠUpdates": 5122,
      "ĠMah": 5123,
      "ĠUniversity": 5124,
      "Ġà®ħà®ķà®Ļ": 5125,
      "à®³à®±à®µ": 5126,
      "à®ĵà®µ": 5127,
      "à®ķà®ªà®²à®®": 5128,
      "à®ľà®¯à®°": 5129,
      "à®ĵà®ķ": 5130,
      "à®¾...?": 5131,
      "à®İà®®à®¤": 5132,
      "apuram": 5133,
      "à®ķà®ļà®Ļ": 5134,
      "Ġworld": 5135,
      "à®©à®³à®µ": 5136,
      "ĠHead": 5137,
      "Ġà®®à®£à®±": 5138,
      "ĠMus": 5139,
      "à®ıà®®": 5140,
      "Ġà®ķà®¯à®²": 5141,
      "ĠFilm": 5142,
      "ĠSc": 5143,
      "à¯ĭ:": 5144,
      "à®Ĩà®´": 5145,
      "ĠAc": 5146,
      "oman": 5147,
      "à®¯à®µà®Ļ": 5148,
      "à®¿âĢĻ.": 5149,
      "à®ķà®°à®ķ": 5150,
      "âĢĮ.": 5151,
      "Ġ102": 5152,
      "obs": 5153,
      "ossip": 5154,
      "à®Łà®®à®£": 5155,
      "à®ļà®©à®ķ": 5156,
      "Ġdel": 5157,
      "Ġno": 5158,
      "rest": 5159,
      "Ġà®¨à®²à®ª": 5160,
      "Ġà®ķà®µà®©à®¯": 5161,
      "ðŁĺ": 5162,
      "ĠTirunelveli": 5163,
      "Ġà®®à®°à®£à®¤à®£": 5164,
      "ĠEM": 5165,
      "à®Łà®¤à®²": 5166,
      "Ġà®īà®³à®®": 5167,
      "à¯ģ?\"": 5168,
      "à¯ģ!âĢĻ": 5169,
      "Ġfriend": 5170,
      "ERS": 5171,
      "yes": 5172,
      "à®¿''": 5173,
      "Ġexpletive": 5174,
      "à®¤à®µà®°à®®": 5175,
      "à¯ģ?'": 5176,
      "à¯Ī]]": 5177,
      "Ġà®īà®²à®ķà®¨": 5178,
      "Ġ103": 5179,
      "Ġà®ªà®¯à®£à®ļ": 5180,
      "à®ıà®İà®¸": 5181,
      "Ø©": 5182,
      "à®¯à®ļà®®": 5183,
      "Ġ1929": 5184,
      "Ġ240": 5185,
      "ugust": 5186,
      "à®µà®Łà®®": 5187,
      "Ġà®ķà®²à®©": 5188,
      "à®¯à®ľ": 5189,
      "à®·à®ªà®®": 5190,
      "Ġà®ªà®Łà®²": 5191,
      "à®ķà®®à®Ļ": 5192,
      "à®Łà®¯à®ª": 5193,
      "Ġem": 5194,
      "Ġà®ĩà®Łà®ķ": 5195,
      "à®µà®£à®Ļ": 5196,
      "uss": 5197,
      "ible": 5198,
      "Ġ1917": 5199,
      "Ġà®®à®¹à®°": 5200,
      "à®ķà®²à®Ł": 5201,
      "Ġxxx": 5202,
      "Ġà¯Ĩ": 5203,
      "Ġà®īà®ªà®ķ": 5204,
      "ones": 5205,
      "ĠSeries": 5206,
      ",''": 5207,
      "Ġà®Ĵà®¸": 5208,
      "ices": 5209,
      "ĠLED": 5210,
      "Ġà®®à®²à®ķ": 5211,
      "ĠLab": 5212,
      "ĠVig": 5213,
      "Ġkar": 5214,
      "Ġà®İà®®à®°": 5215,
      "fo": 5216,
      "ĠRed": 5217,
      "à¯į\")": 5218,
      "acc": 5219,
      "Ġà®ĩà®³à®µà®¯à®¤": 5220,
      "vest": 5221,
      "à®µà®²à®Ļ": 5222,
      "asam": 5223,
      "ulam": 5224,
      "Ġ1921": 5225,
      "ĠActress": 5226,
      "ĠHot": 5227,
      "yd": 5228,
      "iter": 5229,
      "))))": 5230,
      "document": 5231,
      "à®³à®°à®Ļ": 5232,
      "à®¾''": 5233,
      "Ġà®ªà®°à®µà®¤": 5234,
      "ently": 5235,
      "uter": 5236,
      "LA": 5237,
      "write": 5238,
      "iyar": 5239,
      "stitute": 5240,
      "à¤¿": 5241,
      "JP": 5242,
      "ots": 5243,
      "Ġà®ªà®£à®¯à®®": 5244,
      "anda": 5245,
      "Ġagain": 5246,
      "icro": 5247,
      "Ġà®ķà®®à®²à®¹": 5248,
      "à¯ĪâĢĻ,": 5249,
      "ude": 5250,
      "Ġnear": 5251,
      "ival": 5252,
      "agged": 5253,
      "ĠFood": 5254,
      "Ġvir": 5255,
      "ĠWh": 5256,
      "à®¤à®¯à®Ļ": 5257,
      "the": 5258,
      "ĠEduc": 5259,
      "Ġknow": 5260,
      "Ġ650": 5261,
      "ĠInt": 5262,
      "à¯ģ!\"": 5263,
      "ager": 5264,
      "à®ªà®°à®ķ": 5265,
      "atri": 5266,
      "à¯ģ\".": 5267,
      "---": 5268,
      "à®ħà®³": 5269,
      "ased": 5270,
      "ump": 5271,
      "ĠTamizhakam": 5272,
      "à®ªà®²à®µ": 5273,
      "à®µà®¤à®°": 5274,
      "Ġà®ªà®²à®µà®¨": 5275,
      "ering": 5276,
      "ĠMinister": 5277,
      "à®°à®ķà®²": 5278,
      "à®©à®ķà®®": 5279,
      "ĠBlog": 5280,
      "Ġ112": 5281,
      "ohn": 5282,
      "Ġir": 5283,
      "ĠWe": 5284,
      "OC": 5285,
      "wn": 5286,
      "ĠGl": 5287,
      "azh": 5288,
      "Ġà®Łà®¸": 5289,
      "ĠMedia": 5290,
      "be": 5291,
      "Ġrel": 5292,
      "ights": 5293,
      "Ġengine": 5294,
      "à®¯à®²à®£": 5295,
      "umber": 5296,
      "à¯ģ.âĢĻâĢĻ": 5297,
      "ille": 5298,
      "Ġà®©à®°": 5299,
      "âĪĴ": 5300,
      "à®ļà®µà®°à®®": 5301,
      "ĠMy": 5302,
      "à®ĥà®®": 5303,
      "Ġ.....": 5304,
      "AMIL": 5305,
      "à®ªà®µà®°à®¤": 5306,
      "ĠPa": 5307,
      "Ġweb": 5308,
      "ĠJune": 5309,
      "Ġ1924": 5310,
      "aster": 5311,
      "à¯į'...": 5312,
      "à¯ĩ?âĢĻ": 5313,
      "ĠâĪĴ": 5314,
      "à®°à®ķà®Łà®©à®¤": 5315,
      "Ġà®¨à®¯à®®": 5316,
      "ional": 5317,
      "%),": 5318,
      "à®²à®µà®°à®¤": 5319,
      "ĠDo": 5320,
      "\"\"": 5321,
      "Ġà®Īà®°à®²": 5322,
      "à¯į...âĢĻâĢĻ": 5323,
      "asan": 5324,
      "my": 5325,
      "Ġà®ķà®°à®ª": 5326,
      "Tr": 5327,
      "à®ħà®®à®°": 5328,
      "BG": 5329,
      "gram": 5330,
      "à®Łà®ķà®©": 5331,
      "Ġlink": 5332,
      "ÙĤ": 5333,
      "Ġà¯ĩ": 5334,
      "ĠAv": 5335,
      "III": 5336,
      "Ġsays": 5337,
      "eptember": 5338,
      "ship": 5339,
      "à®¯à®©à®¤": 5340,
      "Ġ1928": 5341,
      "que": 5342,
      "bject": 5343,
      "à®¤à®±à®¤": 5344,
      "Ġà®Ĩà®´à®ª": 5345,
      "Ġà®Ĩà®ķà®Ł": 5346,
      "Ð°": 5347,
      "Ġother": 5348,
      "ograp": 5349,
      "irth": 5350,
      "avirus": 5351,
      "elling": 5352,
      "EM": 5353,
      "ĠBi": 5354,
      "rop": 5355,
      "Ġago": 5356,
      "Ġà®µà®Łà®¤": 5357,
      "aiv": 5358,
      "à¯į,,": 5359,
      "à®³à®°à®¤": 5360,
      "Ġà®ķà®µà®ļà®Ļ": 5361,
      "Ġà®ľà®²à®¤": 5362,
      "ĠÙĦ": 5363,
      "Ġfilm": 5364,
      "à®ĥà®µ": 5365,
      "ĠCr": 5366,
      "ĠEl": 5367,
      "Ġif": 5368,
      "mark": 5369,
      "Ġ......[": 5370,
      "Ġbel": 5371,
      "Ġà®¯à®¨": 5372,
      "à®µà®¤à®²": 5373,
      "Ġ1900": 5374,
      "ĠHe": 5375,
      "ious": 5376,
      "Ġ1934": 5377,
      "ese": 5378,
      "Ġà®ķà®´à®©": 5379,
      "à¯ģâĢĿ.": 5380,
      "mi": 5381,
      "ĠâĢĺ`": 5382,
      "Ġits": 5383,
      "à®ķà®£à®µà®©": 5384,
      "ĠReviews": 5385,
      "âĢĮâĢĮ": 5386,
      "ĠCar": 5387,
      "editor": 5388,
      "oz": 5389,
      "ĠVar": 5390,
      "ras": 5391,
      "à®°à®ķà®ª": 5392,
      "Ġà®ķà®µà®°à®ª": 5393,
      "Ġà®®à®©à®¸": 5394,
      "idd": 5395,
      "Ġà®Łà®ľà®©": 5396,
      "Ġà®ķà®°à®¨": 5397,
      "ield": 5398,
      "Ġ115": 5399,
      "Hz": 5400,
      "ĠStud": 5401,
      "lines": 5402,
      "à®°à®´à®ķ": 5403,
      "Ġ'''": 5404,
      "iving": 5405,
      "oronavirus": 5406,
      "à®¾]]": 5407,
      "Ġà®ıà®ķà®®": 5408,
      "Ġà®°à®ķà®¤": 5409,
      "à®ªà®°à®¨": 5410,
      "Ġà®Ĩà®©à®µ": 5411,
      "Ġ106": 5412,
      "à®ªà®µà®ª": 5413,
      "à¯ĨÂŃ": 5414,
      "à¯ģ.âĢĻ": 5415,
      "atic": 5416,
      "à®Łà®Īà®Ł": 5417,
      "Ġà®µà®°à®²à®Ł": 5418,
      "uck": 5419,
      "jp": 5420,
      "à®ļà®©à®°": 5421,
      "Ġà®¯à®Ļ": 5422,
      "à®³à®°à®µ": 5423,
      "ura": 5424,
      "Ġà®Łà®Ļ": 5425,
      "à®ļà®¨à®²": 5426,
      "ĠSm": 5427,
      "asp": 5428,
      "Ġà®¹à®Ļ": 5429,
      "Ġactor": 5430,
      "TP": 5431,
      "à®·à®£à®®": 5432,
      "ract": 5433,
      "Ah": 5434,
      "à®³à®¤à®®": 5435,
      "ĠDI": 5436,
      "Ġà®Ĩà®©à®ª": 5437,
      "Ġdog": 5438,
      "à®¾âĢĻ,": 5439,
      "à®ªà®³à®ķ": 5440,
      "ellery": 5441,
      "ĠHer": 5442,
      "ole": 5443,
      "à®¸à®Ł": 5444,
      "ĠPar": 5445,
      "la": 5446,
      "à®°à®ļà®ª": 5447,
      "orth": 5448,
      "à®ļà®¯à®®à®±": 5449,
      "Ġà®ªà®°à®ŀ": 5450,
      "à®Łà®µà®Ļ": 5451,
      "ĠAI": 5452,
      "à®ıà®ı": 5453,
      "à¯ĩ?\"": 5454,
      "ANK": 5455,
      "à®ĩà®¯à®²": 5456,
      "à®µà®®à®£": 5457,
      "5759": 5458,
      "ren": 5459,
      "à®²à®±à®¤": 5460,
      "ovid": 5461,
      "Ġmonth": 5462,
      "...'": 5463,
      "à¯įâĢ¦!": 5464,
      "Ġfree": 5465,
      "Ġ7205759": 5466,
      "Ġ720575940": 5467,
      "à®£à®µà®¤": 5468,
      "Ġà®®à®±à®µ": 5469,
      "Ġà®Ĩà®¤à®®": 5470,
      "Ġà®ĩà®²à®ŀ": 5471,
      "Ġà®ķà®²à®¤": 5472,
      "à®¤à®°à®ļà®©": 5473,
      "ĠOp": 5474,
      "ĠReg": 5475,
      "Ġ{\\": 5476,
      "opp": 5477,
      "Ġà®µà®Łà®ªà®ķ": 5478,
      "lk": 5479,
      "à®¯à®®à®³": 5480,
      "à®ķà®®à®©": 5481,
      "elp": 5482,
      "ĠAN": 5483,
      "SL": 5484,
      "Ġà®ļà®°à®µà®£": 5485,
      "ĠServ": 5486,
      "ĠExpress": 5487,
      "à®¨à®ķà®°à®ļà®ª": 5488,
      "ĠIPL": 5489,
      "eneral": 5490,
      "atter": 5491,
      "IF": 5492,
      "PM": 5493,
      "RC": 5494,
      "Ġ()": 5495,
      "Ġà®ªà®¤à®ŀ": 5496,
      "ran": 5497,
      "à®¨à®ļ": 5498,
      "alin": 5499,
      "ĠDe": 5500,
      "Ġà®ªà®°à®¤à®¨": 5501,
      "ĠLeave": 5502,
      "aka": 5503,
      "ense": 5504,
      "à¯ĩâĢ¦.": 5505,
      "Ġà®Īà®¤": 5506,
      "ĠMess": 5507,
      "Ġà®ıà®µà®²": 5508,
      "Ġthey": 5509,
      "olitical": 5510,
      "Ġ1919": 5511,
      "120": 5512,
      "\\\\": 5513,
      "ĠINDI": 5514,
      "Ã¼": 5515,
      "à®ķà®Łà®ª": 5516,
      "Ġ1933": 5517,
      "1999": 5518,
      "à¯ģ...'": 5519,
      "à®ªà®°à®µà®²": 5520,
      "ĠCap": 5521,
      "à®´à®ķà®ķ": 5522,
      "Ġmeet": 5523,
      "Â¾": 5524,
      "akes": 5525,
      "à®·à®ķà®®": 5526,
      "à®ªà®ķà®Ł": 5527,
      "Ġà®ħà®ĥà®ª": 5528,
      "alayam": 5529,
      "Ġà®¨à®ķà®°à®ļ": 5530,
      "au": 5531,
      "style": 5532,
      "ities": 5533,
      "order": 5534,
      "lear": 5535,
      "ived": 5536,
      "Ġà®ļà®¤à®¤": 5537,
      "Ġà®ļà®®à®¯à®ķ": 5538,
      "ĠJuly": 5539,
      "ctions": 5540,
      "Ġinc": 5541,
      "Âª": 5542,
      "à®²à®Łà®Ļ": 5543,
      "à®¯à®ķà®²": 5544,
      "Ġà®µà®Łà®®à®°": 5545,
      "Ġà®ķà®£à®©": 5546,
      "à®Ĩà®¹": 5547,
      "amma": 5548,
      "google": 5549,
      "à®©à®³": 5550,
      "à®¯à®µà®¤": 5551,
      "à®²à®±à®®": 5552,
      "Ġà®µà®²à®ķ": 5553,
      "à®®à®Łà®²": 5554,
      "Ġà®®à®©à®ħà®´": 5555,
      "ergy": 5556,
      "à¯į.......": 5557,
      "ĠApr": 5558,
      "TS": 5559,
      "red": 5560,
      "à®¿âĢ¦.": 5561,
      "Ġcons": 5562,
      "ACH": 5563,
      "vid": 5564,
      "à¯ģ]": 5565,
      "1980": 5566,
      "Ġhot": 5567,
      "à®µà®°à®£": 5568,
      "Ġnadan": 5569,
      "Ġask": 5570,
      "Ġà®ħà®ķà®ļ": 5571,
      "ĠColle": 5572,
      "ĠStories": 5573,
      "Ĥ¾": 5574,
      "Ġ1932": 5575,
      "ayal": 5576,
      "osp": 5577,
      "Ġ{{": 5578,
      "Ġ!!!": 5579,
      "ĠØ¹": 5580,
      "anm": 5581,
      "Ġpar": 5582,
      "ĠVanni": 5583,
      "led": 5584,
      "Ġass": 5585,
      "Ġà®ļà®®à®ª": 5586,
      "hol": 5587,
      "Ġà®µà®¤à®®": 5588,
      "Or": 5589,
      "Ġà®īà®Łà®²à®®": 5590,
      "ĠGB": 5591,
      "ĠVijay": 5592,
      "uthu": 5593,
      "Ġà®ħà®±à®µà®´": 5594,
      "ized": 5595,
      "vir": 5596,
      "Ġ(+": 5597,
      "ĠIP": 5598,
      "Ġà®ļà®°à®ļ": 5599,
      "ĠAD": 5600,
      "ĠView": 5601,
      "display": 5602,
      "à®ªà®°à®²": 5603,
      "à¯ĩ!âĢĻ": 5604,
      "ĠPay": 5605,
      "Ġraj": 5606,
      "Ġà®·à®ª": 5607,
      "ĠAt": 5608,
      "Ġà¯§": 5609,
      "à®²à®®à®Ł": 5610,
      "Ġ1925": 5611,
      "Ġlanguage": 5612,
      "Ġà®ĩà®ļà®Ł": 5613,
      "Ġà®ļà®®à®°à®µ": 5614,
      "à®±à®µà®´": 5615,
      "Ġ123": 5616,
      "Ġstud": 5617,
      "ĠðŁĻ": 5618,
      "à®°à®µà®²": 5619,
      "Ġà®īà®µà®°": 5620,
      "Ġà®İà®©à®ªà®¤": 5621,
      "Ġà®īà®¤à®µà®µ": 5622,
      "ĠAcc": 5623,
      "ĠQuestion": 5624,
      "ĠCream": 5625,
      "elect": 5626,
      "Ġà®ĵà®®à®¨": 5627,
      "Ġà®ªà®°à®µà®ļà®¤": 5628,
      "1996": 5629,
      "Ġamma": 5630,
      "elopment": 5631,
      "UV": 5632,
      "war": 5633,
      "à®²à®ķà®ª": 5634,
      "à®ļà®¤à®®": 5635,
      "à®¹à®³": 5636,
      "azine": 5637,
      "Inter": 5638,
      "à®ľà®²à®Ł": 5639,
      "Ġà®ļà®°à®³": 5640,
      "ĠNet": 5641,
      "à®Ĵà®±": 5642,
      "à®ķà®ļà®®": 5643,
      "Ġseries": 5644,
      "ever": 5645,
      "Ùģ": 5646,
      "à®¤à®ķà®ļ": 5647,
      "ĠGu": 5648,
      "Ġreg": 5649,
      "word": 5650,
      "amily": 5651,
      "Ti": 5652,
      "ley": 5653,
      "Ġ135": 5654,
      "1600": 5655,
      "etails": 5656,
      "get": 5657,
      "xy": 5658,
      "à®¿]": 5659,
      "ĠWord": 5660,
      "Ġà®¯à®©": 5661,
      "YM": 5662,
      "ĠVoice": 5663,
      "reatment": 5664,
      "à®ķà®®à®°": 5665,
      "ason": 5666,
      "à®¿!!": 5667,
      "ĠTalk": 5668,
      "udd": 5669,
      "udh": 5670,
      "ĠAugust": 5671,
      "à®ªà®°à®£": 5672,
      "à®°à®ªà®²à®ª": 5673,
      "ĠIl": 5674,
      "à¯Ī!''": 5675,
      "tra": 5676,
      "Ġà®°à®ķà®³": 5677,
      "ĠSeptember": 5678,
      "à®©à®°à®ļ": 5679,
      "à®ĩà®²à®µ": 5680,
      "Ġà®µà®¯à®ª": 5681,
      "Ġ1927": 5682,
      "ĠØ¨": 5683,
      "ilanka": 5684,
      "ĠÙģ": 5685,
      "ases": 5686,
      "Ġà®¨à®Łà®©à®Ļ": 5687,
      "1998": 5688,
      "à®°à®¤à®ķ": 5689,
      "Ġrest": 5690,
      "Ġà®Ĩà®ľ": 5691,
      "Ġà®ħà®ķà®£": 5692,
      "Ġ1914": 5693,
      "Ġ107": 5694,
      "Mb": 5695,
      "à®®à®ļà®Ļ": 5696,
      "ĠMath": 5697,
      "affna": 5698,
      "à¯Ī.)": 5699,
      "Ġà®Īà®·": 5700,
      "ule": 5701,
      "ĠTable": 5702,
      "Ġsub": 5703,
      "Ġwebsite": 5704,
      "itha": 5705,
      "ource": 5706,
      "à¯į+": 5707,
      "à®®à®¤à®Ļ": 5708,
      "oft": 5709,
      "Ġ->": 5710,
      "Ġkathaigal": 5711,
      "ĠLocal": 5712,
      "Ġ175": 5713,
      "ĠAndroid": 5714,
      "à¯Ī.\"": 5715,
      "à®°à®£à®°": 5716,
      "ĠSw": 5717,
      "Ġtips": 5718,
      "ills": 5719,
      "à®ķà®²à®°": 5720,
      "Ġà®ħà®´à®ķà®ª": 5721,
      "Ġà®Ĩà®¤à®µà®©": 5722,
      "Ġà®İà®µà®±": 5723,
      "à®°à®ĥà®ª": 5724,
      "Ġ230": 5725,
      "OO": 5726,
      "ication": 5727,
      "Ġmatr": 5728,
      "athy": 5729,
      "!\"": 5730,
      "Ġà®ªà®¤à®©": 5731,
      "Ġback": 5732,
      "ĠGreen": 5733,
      "à®ĩà®±à®¨": 5734,
      "æĤłæĤłæĤłæĤł": 5735,
      "Ġ1918": 5736,
      "ĠBank": 5737,
      "ailable": 5738,
      "ĠStandard": 5739,
      "à¯ģ,\"": 5740,
      "à¯įÂ": 5741,
      "à®¿.)": 5742,
      "ĠCM": 5743,
      "ĠMon": 5744,
      "Ġcall": 5745,
      "Ġrec": 5746,
      "VF": 5747,
      "Ġunder": 5748,
      "ĠTE": 5749,
      "ĠPaper": 5750,
      "Ġgovernment": 5751,
      "ĠSongs": 5752,
      "uff": 5753,
      "à¯ģ.//": 5754,
      "Ġtw": 5755,
      "Ġindia": 5756,
      "Ġà®ħà®®à®³": 5757,
      "Ġafter": 5758,
      "ĠUs": 5759,
      "AB": 5760,
      "Ġred": 5761,
      "Ġà®ķà®µà®ļ": 5762,
      "Ġà®Ĩà®²à®¨": 5763,
      "ĠWeb": 5764,
      "à®ļà®°à®µà®£à®©": 5765,
      "Ġtn": 5766,
      "à¯į`": 5767,
      "ony": 5768,
      "ĠCor": 5769,
      "ĠBusiness": 5770,
      "ross": 5771,
      "à®¾!âĢĿ": 5772,
      "àµ": 5773,
      "Ġ118": 5774,
      "Ġbut": 5775,
      "Ġdef": 5776,
      "duct": 5777,
      "ØŃ": 5778,
      "Ġà®ªà®¯à®°": 5779,
      "Ġà®¤à®©à®ŀ": 5780,
      "ids": 5781,
      "à®Ĭà®´à®²": 5782,
      "ification": 5783,
      "!âĢĻ": 5784,
      "Ġ??": 5785,
      "Ad": 5786,
      "ination": 5787,
      "Ġhigh": 5788,
      "aste": 5789,
      "twitter": 5790,
      "ĠInstitute": 5791,
      "ved": 5792,
      "Ġà®ªà®£à®®à®¤": 5793,
      "âĢĺ`": 5794,
      "Ġvery": 5795,
      "à®ĩà®°à®Ł": 5796,
      "Ġà®īà®¤à®µà®²": 5797,
      "ĠAC": 5798,
      "rah": 5799,
      "Ġexam": 5800,
      "Ġà®īà®ľ": 5801,
      "Ġlife": 5802,
      "displaystyle": 5803,
      "png": 5804,
      "à®²à®°à®¤": 5805,
      "ĠWW": 5806,
      "à®²à®ķà®µ": 5807,
      "Ġ---": 5808,
      "ĠMa": 5809,
      "ĠAth": 5810,
      "igin": 5811,
      "à®ªà®®à®¯à®®": 5812,
      "ĠSr": 5813,
      "avi": 5814,
      "bhp": 5815,
      "à®ļà®²à®Ł": 5816,
      "ulture": 5817,
      "ĠDownload": 5818,
      "ĠWeek": 5819,
      "eeds": 5820,
      "Ġbre": 5821,
      "ĠChannel": 5822,
      "RX": 5823,
      "Ġà®ħà®ķà®²à®ª": 5824,
      "ppl": 5825,
      "wid": 5826,
      "Ġserv": 5827,
      "Ġdownload": 5828,
      "ĠÙĬ": 5829,
      "à®ĵà®ª": 5830,
      "ĠUth": 5831,
      "Ġget": 5832,
      "Ġ1923": 5833,
      "à¯ĩ.,": 5834,
      "Ġà®ļà®®à®·": 5835,
      "ĠFrequ": 5836,
      "à¯ĪâĢ¦.": 5837,
      "Ġà®ĵà®ķà®¸": 5838,
      "Ġsur": 5839,
      "Ġuse": 5840,
      "à±": 5841,
      "Ġà®Ĩà®ļà®©à®¤": 5842,
      "AK": 5843,
      "EET": 5844,
      "Ġà®®à®©à®®à®ķ": 5845,
      "Ġà®¸à®¤": 5846,
      "ĠGood": 5847,
      "Ġany": 5848,
      "Image": 5849,
      "ĠPad": 5850,
      "Ġlist": 5851,
      "ĠRecip": 5852,
      "Pre": 5853,
      "à®¯à®£à®°": 5854,
      "Ġà®Ĩà®ļà®©": 5855,
      "Ġà®°à®®à®²": 5856,
      "Ġca": 5857,
      "eter": 5858,
      "Ġmay": 5859,
      "Ġà®Ĳà®ıà®İà®¸": 5860,
      "Ġtamilnadu": 5861,
      "Ġmatrum": 5862,
      "ii": 5863,
      "Ġ190": 5864,
      "Ġbenefits": 5865,
      "à®µà®ķà®©": 5866,
      "ĠEv": 5867,
      "ender": 5868,
      "ĠVal": 5869,
      "Ø§ÙĦ": 5870,
      "Ġhand": 5871,
      "Ġbuyers": 5872,
      "Ġà®ļà®ĥà®ª": 5873,
      "ĠDes": 5874,
      "Ġà®¨à®ķà®®": 5875,
      "à®¾???": 5876,
      "ino": 5877,
      "ĠDep": 5878,
      "ugal": 5879,
      "Ġgood": 5880,
      "à¯ģâĢĻ.": 5881,
      "à¯ĩâĢĮ": 5882,
      "ĠCH": 5883,
      "à¥ĩ": 5884,
      "Ġperm": 5885,
      "udan": 5886,
      "à®¾/": 5887,
      "Ġà®¯à®°": 5888,
      "Ġ117": 5889,
      "lam": 5890,
      "à®²à®°à®Ļ": 5891,
      "Ġcent": 5892,
      "Ġà®ļà®¤à®Ļ": 5893,
      "1991": 5894,
      "ĠSubeditor": 5895,
      "Ġet": 5896,
      "Ġà®ħà®Łà®Ł": 5897,
      "à®²à®ķà®©": 5898,
      "Ġ126": 5899,
      "oud": 5900,
      "ird": 5901,
      "à®ĩà®°à®¤": 5902,
      "ĠMax": 5903,
      "cript": 5904,
      "à®´à®ķà®ª": 5905,
      "à®¯à®µà®ķ": 5906,
      "ĠSal": 5907,
      "ĠïĤ¾": 5908,
      "Ġcome": 5909,
      "Ġinto": 5910,
      "à®ħà®ľ": 5911,
      "Ġà®ķà®°à®µ": 5912,
      "iler": 5913,
      "à®ªà®¯à®©à®°": 5914,
      "à¯įâĢ¦âĢ¦": 5915,
      "ĠUl": 5916,
      "ithi": 5917,
      "ruitment": 5918,
      "Ġà®ĩà®¤à®©à®Ł": 5919,
      "Â¤": 5920,
      "Ġà®®à®²à®¤": 5921,
      "ury": 5922,
      "à¯į!.": 5923,
      "Ġ124": 5924,
      "à®£à®¯à®ķ": 5925,
      "Ġ('": 5926,
      "Ġ:(": 5927,
      "Ġclass": 5928,
      "à®ļà®¸à®°": 5929,
      "Ġà®µà®°à®Ļ": 5930,
      "Ġà®®à®ķà®°à®®": 5931,
      "à®¹à®°à®©": 5932,
      "à®īà®´": 5933,
      "asu": 5934,
      "ney": 5935,
      "à¯ģ!'": 5936,
      "UT": 5937,
      "Ġhome": 5938,
      "à®ļà®£à®¤": 5939,
      "Ġà®¨à®ķà®°à®µ": 5940,
      "à®īà®¤à®¯à®ķ": 5941,
      "à®ªà®ľ": 5942,
      "à®¸à®µ": 5943,
      "à®¾},": 5944,
      "à®µà®©à®µà®±": 5945,
      "Ġann": 5946,
      "à®µà®ľ": 5947,
      "Ġà®¸à®¹": 5948,
      "ĠTimes": 5949,
      "Ġà®ķà®µà®ļà®¤": 5950,
      "à¯į.--": 5951,
      "ĠSch": 5952,
      "Ġso": 5953,
      "otes": 5954,
      "à®¯à®´à®ķà®©": 5955,
      "Ġ210": 5956,
      "à¯ģ..âĢĿ": 5957,
      "Ġà®ªà®ķà®°": 5958,
      "à®³à®¤à®©": 5959,
      "Â®Â®": 5960,
      "weet": 5961,
      "ful": 5962,
      "1987": 5963,
      "ĠHeadlines": 5964,
      "à¯ĤâĢĻ": 5965,
      "ady": 5966,
      "uring": 5967,
      "Ġ320": 5968,
      "ĠNewspaper": 5969,
      "ĠIII": 5970,
      "ration": 5971,
      "Ġà®ħà®°à®ļà®ķ": 5972,
      "à¯ĭÂŃ": 5973,
      "enk": 5974,
      "Ġsup": 5975,
      "Ġà®ªà®Łà®²à®¤": 5976,
      "Ġà®¤à®µà®ļ": 5977,
      "ĠAmb": 5978,
      "à®ķà®·": 5979,
      "arc": 5980,
      "Ġ109": 5981,
      "Ġonly": 5982,
      "ĠApril": 5983,
      "cent": 5984,
      "Ġà®Ĩà®µà®©": 5985,
      "Ġà®®à®°à®µà®³": 5986,
      "Ġ1926": 5987,
      "à¯į--": 5988,
      "asri": 5989,
      "Ġnanjil": 5990,
      ":-": 5991,
      "à®ªà®Łà®±": 5992,
      "ĠMal": 5993,
      "ĠKar": 5994,
      "Ġ142": 5995,
      "ift": 5996,
      "à®Ĩà®Ĩà®Ĩà®Ĩ": 5997,
      "UL": 5998,
      "ĠNan": 5999,
      "à®©à®°à®¤": 6000,
      "Ġà®ĵà®®à®²": 6001,
      "',": 6002,
      "Ġà®Ĩà®²à®ª": 6003,
      "Ġà®ķà®Łà®ķà®®": 6004,
      "ĠEngine": 6005,
      "ĠINDIA": 6006,
      "Ġà®īà®ªà®µ": 6007,
      "Ġà®µà®¤à®±": 6008,
      "à®¯à®µà®ŀ": 6009,
      "itol": 6010,
      "ĠTamilwin": 6011,
      "Ġ113": 6012,
      "agu": 6013,
      "iet": 6014,
      "Ġà®ĵà®Łà®¤": 6015,
      "Ġ1922": 6016,
      "Ġà®ĩà®Łà®µ": 6017,
      "Ġdirector": 6018,
      "Ġà®ħà®Łà®²": 6019,
      "Ġ114": 6020,
      "aga": 6021,
      "HQ": 6022,
      "ype": 6023,
      "à¯ģ...''": 6024,
      "à¯į??": 6025,
      "Ġcor": 6026,
      "osit": 6027,
      "rishn": 6028,
      "à®¿',": 6029,
      "Ġà®µà®Łà®ªà®´à®©": 6030,
      "Ġï»¿": 6031,
      "Ġnaanjil": 6032,
      "('": 6033,
      "OW": 6034,
      "ten": 6035,
      "Â¨": 6036,
      "Ġà®µà®¯à®¨": 6037,
      "Ġà®ļà®©à®Ļ": 6038,
      "Ġà®ħà®µà®ª": 6039,
      "ries": 6040,
      "Te": 6041,
      "à®ķà®°à®¨": 6042,
      "ĠSP": 6043,
      "OH": 6044,
      "Ġà®¤à®µà®°": 6045,
      "Ġà®ļà®ķà®µ": 6046,
      "Ġ145": 6047,
      "à¯ģ...\"": 6048,
      "Ġdec": 6049,
      "ĠBlack": 6050,
      "ÂªÃł": 6051,
      "Ð¾": 6052,
      "ĠUN": 6053,
      "bl": 6054,
      "Ġà®®à®±à®µà®°": 6055,
      "à®ķà®©à®ķ": 6056,
      "à¤¨": 6057,
      "ĠResearch": 6058,
      "à®µà®®à®Ł": 6059,
      "Ġ1910": 6060,
      "Ġthere": 6061,
      "à®ķà®µà®©à®®": 6062,
      "Ġsystem": 6063,
      "Ġà®Ĩà®²à®®à®°à®¤": 6064,
      "TA": 6065,
      "à®¨à®ķà®°à®ª": 6066,
      "akh": 6067,
      "ĠClass": 6068,
      "DA": 6069,
      "cy": 6070,
      "Ġact": 6071,
      "Ġbh": 6072,
      "à®Łà®°à®ļ": 6073,
      "ĠSystem": 6074,
      "à¯ģ!!!": 6075,
      "Ġhow": 6076,
      "ĠWith": 6077,
      "à¯ĩ!!": 6078,
      "Ġà®ļà®ķà®²à®¤": 6079,
      "Ġà®ļà®°à®µà®£à®ª": 6080,
      "width": 6081,
      "itch": 6082,
      "Ġà®°à®®à®´": 6083,
      "CD": 6084,
      "Zy": 6085,
      "rs": 6086,
      "à®°à®ķà®ļ": 6087,
      "Ġstart": 6088,
      "atus": 6089,
      "1993": 6090,
      "Ġadmin": 6091,
      "ĠLankasri": 6092,
      "à¯ĩ},": 6093,
      "à¯į,.": 6094,
      "Ġà®²à®ª": 6095,
      "Online": 6096,
      "à®¨à®¯à®®": 6097,
      "Ġà®ļà®£à®²": 6098,
      "aves": 6099,
      "Object": 6100,
      "TJ": 6101,
      "Ġà®ĩà®ļà®ķ": 6102,
      "à®ıà®£": 6103,
      "ĠVideos": 6104,
      "à®¤à®ªà®¤": 6105,
      "Ġà®Ĵà®°à®¤": 6106,
      "Ãµ": 6107,
      "à®³à®ķà®°": 6108,
      "Ġà®ĩà®©à®µà®´": 6109,
      "Ġà®ļà®°à®£à®®": 6110,
      "pm": 6111,
      "à®´à®°à®ļà®©": 6112,
      "à®¸à®¨": 6113,
      "à¯ĩ..!": 6114,
      "à®ĥà®ªà®©": 6115,
      "Ġthan": 6116,
      "Ġà®Ĩà®³à®µ": 6117,
      "Ġtagged": 6118,
      "à®®à®£à®ļ": 6119,
      "ĠGod": 6120,
      "âĢ²": 6121,
      "chi": 6122,
      "Ġà®ħà®µà®ļà®°à®ļ": 6123,
      "PR": 6124,
      "à®¾!!": 6125,
      "ilk": 6126,
      "ĠTAMIL": 6127,
      "Ġvis": 6128,
      "Ic": 6129,
      "ues": 6130,
      "Ġà®ĵà®¹": 6131,
      "à¯į)&": 6132,
      "Ġ///": 6133,
      "à®ªà®Łà®Ł": 6134,
      "Ġà®ħà®²à®ļà®²": 6135,
      "Ġbeaut": 6136,
      "Ø¬": 6137,
      "Ġcorona": 6138,
      "Ġ;)": 6139,
      "à¯ĢâĢĻ": 6140,
      "Ġà®µà®¤à®Ļ": 6141,
      "eech": 6142,
      "oj": 6143,
      "Ġà®ķà®©à®²": 6144,
      "Ġprice": 6145,
      "1997": 6146,
      "cohol": 6147,
      "ĠMagazine": 6148,
      "Ġà®ľà®µà®ķà®°": 6149,
      "Ġagainst": 6150,
      "nic": 6151,
      "ĠHistory": 6152,
      "Fo": 6153,
      "MA": 6154,
      "à®¾_": 6155,
      "à®İà®¤à®±": 6156,
      "ĠJaffna": 6157,
      "height": 6158,
      "Ġavailable": 6159,
      "ZC": 6160,
      "ye": 6161,
      "à®¾?,": 6162,
      "Ġà®®à®ķà®®": 6163,
      "ĠSev": 6164,
      "ĠPhotos": 6165,
      "Ġà®®à®©à®°": 6166,
      "à¯į,âĢĻ": 6167,
      "à®¤à®µà®ª": 6168,
      "Ġ550": 6169,
      "Ġcase": 6170,
      "uru": 6171,
      "Ġ365": 6172,
      "ancy": 6173,
      "Ġ1911": 6174,
      "Ġà®ĩà®³à®ļ": 6175,
      "ovil": 6176,
      "ĠQuality": 6177,
      "yA": 6178,
      "Ġà®īà®°à®²": 6179,
      "ĠSouth": 6180,
      "Ġà¯¨": 6181,
      "OP": 6182,
      "Ġdev": 6183,
      "Ġà®Ĩà®ķà®ļ": 6184,
      "ength": 6185,
      "Xq": 6186,
      "patti": 6187,
      "Ġà®Ĩà®ĥà®ªà®°": 6188,
      "ams": 6189,
      "kam": 6190,
      "ĠRem": 6191,
      "à®¿\",": 6192,
      "Ġà®¯à®®à®¹": 6193,
      "cient": 6194,
      "Ġà®µà®²à®¯à®®": 6195,
      "Ġvideos": 6196,
      "hys": 6197,
      "itor": 6198,
      "à®Ĵà®£": 6199,
      "Gx": 6200,
      "à®´à®£": 6201,
      "kar": 6202,
      "erry": 6203,
      "Uf": 6204,
      "Ġà®¨à®¯à®µà®ŀ": 6205,
      "à®¤à®°à®²": 6206,
      "ĠKa": 6207,
      "ïĢ": 6208,
      "Ġ1905": 6209,
      "à®ķà®´à®ķà®ª": 6210,
      "ĠGen": 6211,
      "Hh": 6212,
      "à®°à®ķà®ķ": 6213,
      "Pl": 6214,
      "aug": 6215,
      "à®²à®µà®°à®Ļ": 6216,
      "Ġsw": 6217,
      "ĠFree": 6218,
      "iod": 6219,
      "à®ķà®Łà®ļ": 6220,
      "ĠTemple": 6221,
      "icles": 6222,
      "ĠTeach": 6223,
      "750": 6224,
      "Ġà®ħà®ªà®¯": 6225,
      "AAAAAAAA": 6226,
      "Ġà®īà®ªà®ļ": 6227,
      "ĠTips": 6228,
      "ening": 6229,
      "ĠSE": 6230,
      "ĠOther": 6231,
      "Ġà®Ĩà®ªà®°à®£à®®": 6232,
      "Ġmeaning": 6233,
      "Ġà®ķà®´à®ķà®ª": 6234,
      "ĠWel": 6235,
      "ments": 6236,
      "ists": 6237,
      "TiQ": 6238,
      "Ġà®µà®Łà®²": 6239,
      "Ġà®ĩà®©à®ļ": 6240,
      "Ġà®ªà®°à®ķ": 6241,
      "à®ħà®°à®µ": 6242,
      "Â®Â°": 6243,
      "Ġwhen": 6244,
      "Ġmany": 6245,
      "à®ĩà®µà®³": 6246,
      "ĠCR": 6247,
      "ĠâĢĻâĢĻ": 6248,
      "1995": 6249,
      "ublisher": 6250,
      "MbQ": 6251,
      "ĠWeekly": 6252,
      "Bbp": 6253,
      "VI": 6254,
      "Vgo": 6255,
      "YHQ": 6256,
      "cBG": 6257,
      "pII": 6258,
      "pUf": 6259,
      "ze": 6260,
      "Ġà®ªà®²à®®à®Łà®Ļ": 6261,
      "Ġlove": 6262,
      "ukVF": 6263,
      "mlGx": 6264,
      "twIG": 6265,
      "CLcBG": 6266,
      "AsYHQ": 6267,
      "YMtwIG": 6268,
      "ImageObject": 6269,
      "ZyVgo": 6270,
      "IcmlGx": 6271,
      "ZCpUf": 6272,
      "AAAAAAAAMbQ": 6273,
      "TiQCLcBG": 6274,
      "BbpX": 6275,
      "ukVFZyVgo": 6276,
      "YMtwIGIcmlGx": 6277,
      "ZCpUfYMtwIGIcmlGx": 6278,
      "TiQCLcBGAsYHQ": 6279,
      "ukVFZyVgoZCpUfYMtwIGIcmlGx": 6280,
      "ukVFZyVgoZCpUfYMtwIGIcmlGxK": 6281,
      "TT": 6282,
      "string": 6283,
      "Coin": 6284,
      "Ġà®®à®°à®ķà®¤": 6285,
      "stru": 6286,
      "Ġtest": 6287,
      "à®®à®¨à®ªà®°": 6288,
      "ĠWatch": 6289,
      "Ġ270": 6290,
      "Ġclick": 6291,
      "ĠMessages": 6292,
      "à¯Ģ...": 6293,
      "âĢı": 6294,
      "Ġvid": 6295,
      "Ø°": 6296,
      "à¨": 6297,
      "à®ķà®±à®µà®Ļ": 6298,
      "Ġà®®à®ª": 6299,
      "Ġà®ħà®®à®°à®ļ": 6300,
      "ĠPalan": 6301,
      "ena": 6302,
      "Ġpric": 6303,
      "Ġpalan": 6304,
      "à¯ģâĢ¦..": 6305,
      "à®±à®µà®ķ": 6306,
      "CS": 6307,
      "Ġ1912": 6308,
      "1989": 6309,
      "Ġà®ķà®ªà®ļ": 6310,
      "à¤¤": 6311,
      "ollow": 6312,
      "ENT": 6313,
      "Leave": 6314,
      "à®¯à®©à®µà®±": 6315,
      "ĠGovernment": 6316,
      "adio": 6317,
      "à®Łà®®à®²": 6318,
      "à®³à®®à®¯à®®": 6319,
      "Me": 6320,
      "Ġà®¤à®©à®²à®Ł": 6321,
      "Ð¸": 6322,
      "Ġà®Ĳà®Ļ": 6323,
      "char": 6324,
      "akkal": 6325,
      "alli": 6326,
      "ĠTablet": 6327,
      "App": 6328,
      "Ġà®ªà®©à®®": 6329,
      "à®°à®£à®µ": 6330,
      "à®ªà®©à®Ļ": 6331,
      "à®¾âĢ¦âĢĿ": 6332,
      "adhu": 6333,
      "Â¡": 6334,
      "Ġold": 6335,
      "Ġ1908": 6336,
      "eta": 6337,
      "ĠKalvi": 6338,
      "à®°à®ķà®µ": 6339,
      "avar": 6340,
      "ĠJunior": 6341,
      "à®µà®ªà®ķ": 6342,
      "Ġà®Ĵà®¯à®°": 6343,
      "ume": 6344,
      "iram": 6345,
      "MO": 6346,
      "ĠNa": 6347,
      "Ġà®ĥà®ªà®µ": 6348,
      "Bl": 6349,
      "va": 6350,
      "Ġà®¤à®©à®ļ": 6351,
      "///": 6352,
      "110": 6353,
      "Pr": 6354,
      "à®Łà®°à®Ł": 6355,
      "Ġ\",": 6356,
      "à¯į,...": 6357,
      "Ġdictionary": 6358,
      "Ġà®ļà®°à®ª": 6359,
      "Ġarrest": 6360,
      "Ġà®Ķà®µ": 6361,
      "oad": 6362,
      "Ġà®ĩà®ĥà®¤": 6363,
      "à®ķà®µà®ļà®Ļ": 6364,
      "à®¤à®®à®³": 6365,
      "Ġà®ªà®²à®¸": 6366,
      "anga": 6367,
      ".-": 6368,
      "ĠBS": 6369,
      "Ġà®µà®©à®ķ": 6370,
      "ĠOF": 6371,
      "Ġà®ķà®±à®µ": 6372,
      "son": 6373,
      "Ġur": 6374,
      "Ġà®ķà®³à®©": 6375,
      "à®¾...''": 6376,
      "istant": 6377,
      "ukal": 6378,
      "à®µà®¯à®®": 6379,
      "Ġco": 6380,
      "à¯Ī.[": 6381,
      "Ġcond": 6382,
      "Mar": 6383,
      "à®ķà®ķà®®": 6384,
      "à®©à®®à®²": 6385,
      "ĠNar": 6386,
      "à®ªà®¯à®±": 6387,
      "ĠâĢĽ": 6388,
      "Ġ122": 6389,
      "otal": 6390,
      "National": 6391,
      "anings": 6392,
      "FC": 6393,
      "gm": 6394,
      "..\"": 6395,
      "à®²à®¯à®©": 6396,
      "Ġà®®à®©à®µà®°": 6397,
      "par": 6398,
      "vers": 6399,
      "ĠRevitol": 6400,
      "ĠCorona": 6401,
      "Ġperson": 6402,
      "Ġ256": 6403,
      "Ġà®ļà®ķà®²à®°": 6404,
      "pdf": 6405,
      "tainment": 6406,
      "aunch": 6407,
      "erc": 6408,
      "adum": 6409,
      "Ġ1916": 6410,
      "ĠCal": 6411,
      "ĠChief": 6412,
      "à®®à®¯à®ķ": 6413,
      "Ġà®¨à®µà®¤": 6414,
      "à®İà®¯": 6415,
      "avid": 6416,
      "à¯ģ...!": 6417,
      "Ġà®±à®¤": 6418,
      "à®ļà®°à®©": 6419,
      "Ġ1915": 6420,
      "ĠAR": 6421,
      "Ġ121": 6422,
      "ÑĢ": 6423,
      "á¸": 6424,
      "Ġà®ķà®±à®¨": 6425,
      "Ġà®ĵà®²à®®": 6426,
      "à®¤à®²à®ķ": 6427,
      "iva": 6428,
      "Ġà®®à®³à®®": 6429,
      "Ġà®µà®²à®ļ": 6430,
      "ape": 6431,
      "Ġà®ħà®µà®ļà®°à®¨": 6432,
      "strology": 6433,
      "à®¤à®°à®ķà®£": 6434,
      "Ġ944": 6435,
      "Ġvari": 6436,
      "inter": 6437,
      "Ġ225": 6438,
      "rab": 6439,
      "Ġà®Ĩà®£à®µà®¤": 6440,
      "à®ıà®Ł": 6441,
      "à¯įâĢ¦âĢĻ": 6442,
      "Ġket": 6443,
      "à®²à®ļà®®à®¯à®®": 6444,
      "Ġà®īà®²à®ķà®±": 6445,
      "Ġplay": 6446,
      "mk": 6447,
      "à®¾âĢ¦?": 6448,
      "Ġà®ļà®®à®±": 6449,
      "à¯į...?": 6450,
      "Ġ116": 6451,
      "ĠDig": 6452,
      "Ġà®¤à®ķà®µà®®": 6453,
      "à®ķà®´à®²": 6454,
      "à®©à®ķà®°à®®": 6455,
      "1994": 6456,
      "ĠMur": 6457,
      "Ġpic": 6458,
      "Ġ2030": 6459,
      "Ġà®ļà®ķà®¸": 6460,
      "Ġcolle": 6461,
      "ĠFast": 6462,
      "indows": 6463,
      "ĠVigRX": 6464,
      "Ġà®īà®£à®°à®¤": 6465,
      "Ġelection": 6466,
      "coin": 6467,
      "à®ľà®ķà®¤": 6468,
      "Ġà®ªà®²à®ļ": 6469,
      "Ġà®Ĳà®¯à®¤": 6470,
      "youtube": 6471,
      "à®³à®£": 6472,
      "Ġà®µà®©à®Ļ": 6473,
      "à®İà®µà®°": 6474,
      "Ġà®īà®³à®ª": 6475,
      "Ġà®ĥà®ªà®ķ": 6476,
      "mon": 6477,
      "à®®à®±à®¨": 6478,
      "à®ļà®®à®±": 6479,
      "1970": 6480,
      "Ġ1600": 6481,
      "ĠViews": 6482,
      "Ġgl": 6483,
      "ks": 6484,
      "utch": 6485,
      "oom": 6486,
      "à®®à®°à®°": 6487,
      "ald": 6488,
      "ĠSL": 6489,
      "405": 6490,
      "illed": 6491,
      "Ġenglish": 6492,
      "Ã´": 6493,
      "Ġà®¨à®µà®°à®¤": 6494,
      "Ġà®Ĩà®ļà®©à®®": 6495,
      "Ġcook": 6496,
      "aby": 6497,
      "à®¾\",": 6498,
      "Ġyears": 6499,
      "EA": 6500,
      "à®¤à®°à®£à®®": 6501,
      "andhi": 6502,
      "post": 6503,
      "ĠSar": 6504,
      "earn": 6505,
      "à®¯à®ķà®µ": 6506,
      "PI": 6507,
      "Ġà®Ĩà®±à®µ": 6508,
      "ĠSuper": 6509,
      "tions": 6510,
      "LK": 6511,
      "rome": 6512,
      "ĠIC": 6513,
      "à¯į>": 6514,
      "à®ļà®ķà®ª": 6515,
      "olar": 6516,
      "à¯§": 6517,
      "à®ªà®©à®°à®²": 6518,
      "Ġinformation": 6519,
      "Ġ133": 6520,
      "ĠRecruitment": 6521,
      "amalar": 6522,
      "à®īà®ķ": 6523,
      "asa": 6524,
      "ĠDrug": 6525,
      "Ġ161": 6526,
      "nadan": 6527,
      "à®ķà®¯à®®": 6528,
      "à®®à®ļà®ª": 6529,
      "omy": 6530,
      "Spark": 6531,
      "ĠSocial": 6532,
      "##": 6533,
      "à¯ģ?''": 6534,
      "Ġ136": 6535,
      "à®Łà®´": 6536,
      "à®¾à®Ĥ": 6537,
      "Ġà®İà®Łà®¤": 6538,
      "Ġà®Ĭà®µ": 6539,
      "Ġà®ªà®¯à®ªà®ķ": 6540,
      "%.": 6541,
      "duc": 6542,
      "aith": 6543,
      "Ġ111": 6544,
      "Ġrasi": 6545,
      "1992": 6546,
      "Ġkamak": 6547,
      "à¯į.âĢĭ": 6548,
      "Ġà®ĵà®°à®£": 6549,
      "iles": 6550,
      "à®¤à®¯à®ķ": 6551,
      "à¯į?âĢĻâĢĻ": 6552,
      "ĠSchool": 6553,
      "à¯į\"\"": 6554,
      "à¯ģâĢĿ,": 6555,
      "ĠTalkies": 6556,
      "à®¯à®©à®ª": 6557,
      "à®ħà®¹": 6558,
      "ĠMain": 6559,
      "Ġcap": 6560,
      "ĠAdv": 6561,
      "lab": 6562,
      "bi": 6563,
      "ger": 6564,
      "à®°à®°à®ļà®©": 6565,
      "ĠOrgan": 6566,
      "à®ķà®±à®ª": 6567,
      "à®ľà®¹": 6568,
      "Ġà®·à®°à®¤": 6569,
      "Ġthir": 6570,
      "Ġbody": 6571,
      "Ġdif": 6572,
      "à®¾...'": 6573,
      "Ġà®Ĩà®ªà®°à®£à®¤": 6574,
      "Ġtranslation": 6575,
      "à®°à®µà®²à®°": 6576,
      "Ġà®ļà®µà®ª": 6577,
      "icon": 6578,
      "ĠRet": 6579,
      "Ġasked": 6580,
      "Ġ127": 6581,
      "Ġmake": 6582,
      "Ġjewellery": 6583,
      "Ġ155": 6584,
      "ournal": 6585,
      "ĠDelhi": 6586,
      "LE": 6587,
      "à¯ģ.!": 6588,
      "à®ķà®µà®Ļ": 6589,
      "à®³à®³": 6590,
      "Ġà®ļà®µà®°": 6591,
      "ita": 6592,
      "Ġint": 6593,
      "agement": 6594,
      "à¯ģ',": 6595,
      "uz": 6596,
      "à®ªà®¯à®²": 6597,
      "Ġschool": 6598,
      "RY": 6599,
      "à®¾?!": 6600,
      "Ġsome": 6601,
      "Ġant": 6602,
      "à®ķà®µà®¨": 6603,
      "à¯į!..": 6604,
      "ĠId": 6605,
      "à®¯à®®à®¯à®®": 6606,
      "raz": 6607,
      "Ġdeath": 6608,
      "ĠITU": 6609,
      "UK": 6610,
      "Ġoil": 6611,
      "td": 6612,
      "à®ļà®®à®²": 6613,
      "Ġà®ªà®°à®µà®ļ": 6614,
      "Ġsal": 6615,
      "Ġà®µà®Łà®®à®¤": 6616,
      "Ġwithout": 6617,
      "ĠPres": 6618,
      "elebr": 6619,
      "yp": 6620,
      "à¯ģ}": 6621,
      "Ġà®¤à®ļà®®": 6622,
      "Ġà®İà®´à®²": 6623,
      "ĠID": 6624,
      "ĠBJP": 6625,
      "Am": 6626,
      "à®¹à®ķ": 6627,
      "ÙĳÙĲ": 6628,
      "ince": 6629,
      "Ġsong": 6630,
      "Ġà®ħà®°à®ļà®®à®°à®ª": 6631,
      "kapp": 6632,
      "à®ļà®®à®°": 6633,
      "à®³à®µà®Ļ": 6634,
      "Ġ1857": 6635,
      "berry": 6636,
      "cite": 6637,
      "Ġà®īà®³à®°": 6638,
      "Ġà®ħà®´à®µ": 6639,
      "add": 6640,
      "Ġcar": 6641,
      "à®¤à®³à®ª": 6642,
      "Ġpage": 6643,
      "armers": 6644,
      "Ġà®ıà®®à®©": 6645,
      "ĠBh": 6646,
      "Ġhelp": 6647,
      "à®ĥà®ĥ": 6648,
      "à®£à®µà®®": 6649,
      "350": 6650,
      "à®¿|": 6651,
      "à®ļà®ªà®¤": 6652,
      "Ġà®Ĵà®°à®³à®µ": 6653,
      "à®°à®ªà®²à®¤": 6654,
      "averi": 6655,
      "990": 6656,
      "Ġà®Ĩà®²à®®à®°à®®": 6657,
      "OM": 6658,
      "Ġ........": 6659,
      "à®¯à®®à®£": 6660,
      "Ġà®Ĩà®Łà®µ": 6661,
      "ĠPal": 6662,
      "ĠCop": 6663,
      "Ġpal": 6664,
      "Ġ1400": 6665,
      "Ġà®Ĵà®©à®ķ": 6666,
      "Ġmadh": 6667,
      "à¯į.!!": 6668,
      "à¯ĩ...''": 6669,
      "ĠReading": 6670,
      "Ġï¿½": 6671,
      "ĠViral": 6672,
      "à®´à®µà®¨": 6673,
      "Ġà®µà®³à®°à®¤": 6674,
      "Ġfa": 6675,
      "à®¯à®²à®Ļ": 6676,
      "à®ķà®©à®ļ": 6677,
      "umari": 6678,
      "à®¤à®¯à®µ": 6679,
      "atore": 6680,
      "atural": 6681,
      "alink": 6682,
      "376": 6683,
      "ĠNotes": 6684,
      "ĠCategories": 6685,
      "Ġà®Ĭà®³": 6686,
      "ustral": 6687,
      "ĠEnter": 6688,
      "ĠDevelopment": 6689,
      "à®ķà®°à®²": 6690,
      "Ġà®Īà®¯": 6691,
      "etic": 6692,
      "à®ķà®°à®£à®®": 6693,
      "Ġà®ĩà®²à®µà®Ļ": 6694,
      "Ġà®ħà®´à®¤": 6695,
      "ĠPER": 6696,
      "ulation": 6697,
      "à¯ĩ''": 6698,
      "Ġà®ħà®²à®ª": 6699,
      "à®¹à®£": 6700,
      "ĠAnn": 6701,
      "ĠNanayam": 6702,
      "gl": 6703,
      "uf": 6704,
      "Ġà®ľà®ªà®®": 6705,
      "Ġchennai": 6706,
      "Ġà®¸à®¨": 6707,
      "ĠØ§ÙĦÙĦ": 6708,
      "ĠOrigin": 6709,
      "jpg": 6710,
      "à®£à®³à®µ": 6711,
      "Ġpain": 6712,
      "Ġlong": 6713,
      "ĠUthayan": 6714,
      "ences": 6715,
      "pa": 6716,
      "à®ªà®Łà®²à®®": 6717,
      "ores": 6718,
      "ected": 6719,
      "pert": 6720,
      "à®µà®²à®ķà®ª": 6721,
      "à®ķà®£à®ªà®¤": 6722,
      "urns": 6723,
      "ĠKing": 6724,
      "à®Łà®ķà®ļ": 6725,
      "Ġ152": 6726,
      "à¯ĩ!\"": 6727,
      "à®ĵà®µà®°": 6728,
      "rich": 6729,
      "Ġà®ĩà®²à®µà®ļà®Ļ": 6730,
      "books": 6731,
      "Ġ1913": 6732,
      "ĠDC": 6733,
      "artment": 6734,
      "mun": 6735,
      "Ġà®īà®´à®²": 6736,
      "Ġdays": 6737,
      "Ġpolice": 6738,
      "à¯Ī}": 6739,
      "à®µà®¤à®¤": 6740,
      "Ġà®µà®³à®¨": 6741,
      "à®¯à®£à®ª": 6742,
      "ĠMen": 6743,
      "Ġshould": 6744,
      "ference": 6745,
      "embly": 6746,
      "à¯ª": 6747,
      "ĠGe": 6748,
      "à®īà®Łà®©à®Ł": 6749,
      "TO": 6750,
      "Ġà®ªà®°à®µà®ķ": 6751,
      "anath": 6752,
      "ĠKn": 6753,
      "ĠBookmark": 6754,
      "\"-": 6755,
      ",âĢĿ": 6756,
      "lor": 6757,
      "ister": 6758,
      "?''": 6759,
      "à®°à®®à®°à®£à®®": 6760,
      "ĠMB": 6761,
      "arai": 6762,
      "âĨ": 6763,
      "à®ľà®¯à®µ": 6764,
      "à®©à®²à®®": 6765,
      "à®²à®µà®ķ": 6766,
      "Ġ280": 6767,
      "à®®à®©à®ª": 6768,
      "à®ķà®£à®µà®°": 6769,
      "Ġpatri": 6770,
      "125": 6771,
      "ovt": 6772,
      "undai": 6773,
      "ambu": 6774,
      "iber": 6775,
      "Ġà®Ĭà®Łà®²": 6776,
      "ĠAut": 6777,
      "SI": 6778,
      "Ġà®·à®¤": 6779,
      "imbatore": 6780,
      "Ġà®ªà®ļà®²": 6781,
      "Ġà®Ĳà®µ": 6782,
      "à®µà®´à®ķà®©": 6783,
      "ĠAmer": 6784,
      "for": 6785,
      "à®ļà®±à®¤": 6786,
      "à®©à®®à®±": 6787,
      ",_": 6788,
      "Ġà¶": 6789,
      "ĠSup": 6790,
      "ĠLaw": 6791,
      "ĠThiruv": 6792,
      "ĠGroup": 6793,
      "ociety": 6794,
      "Ġrecipe": 6795,
      "à®±à®ķà®Ł": 6796,
      "à¯ģ,'": 6797,
      "ĠâĢ¦..": 6798,
      "Ġproble": 6799,
      "Ġpass": 6800,
      "Ġmus": 6801,
      "Ġkm": 6802,
      "Ġà®³à®¤": 6803,
      "ĠNetwork": 6804,
      "sk": 6805,
      "Ġà®®à®³à®®à®³à®µ": 6806,
      "à¯į,(": 6807,
      "à®¯à®²à®µ": 6808,
      "Ġà®ļà®®à®¯à®ļ": 6809,
      "asy": 6810,
      "Ġeffect": 6811,
      "estival": 6812,
      "à®ľà®ľ": 6813,
      "à®¤à®ªà®¯": 6814,
      "ĠPublic": 6815,
      "icine": 6816,
      "ĠVol": 6817,
      "Ġbeen": 6818,
      "Ġà®ķà®²à®ķà®ķ": 6819,
      "à®Łà®²à®ķ": 6820,
      "à®³à®µà®¤": 6821,
      "à¯Ģ!": 6822,
      "à®©à®®à®¯à®®": 6823,
      "read": 6824,
      "ĠStory": 6825,
      "urrent": 6826,
      "dr": 6827,
      "gen": 6828,
      "Ġ153": 6829,
      "à®¾..âĢĿ": 6830,
      "obal": 6831,
      "ĠREAD": 6832,
      "Ġà®ķà®²à®ķà®¤": 6833,
      "Ġà®µà®Łà®ķà®°": 6834,
      "Ġà®ªà®´à®µ": 6835,
      "engal": 6836,
      "âĢĶâĢĶâĢĶâĢĶâĢĶâĢĶâĢĶâĢĶ": 6837,
      "Ġà®®à®¯à®ª": 6838,
      "Ġ1906": 6839,
      "Ġ158": 6840,
      "elry": 6841,
      "ĠProt": 6842,
      "âĢĻ.": 6843,
      "à®²à®ļà®®": 6844,
      "à®¹à®¨": 6845,
      "Ġà®ĥà®ªà®¯à®°": 6846,
      "Ġbest": 6847,
      "anna": 6848,
      "à®Łà®µà®¤": 6849,
      "à®ħà®°à®ª": 6850,
      "Ġins": 6851,
      "à®°à®¹à®®": 6852,
      "à®¯à®ŀ": 6853,
      "à®±à®©à®±": 6854,
      "ĠAssoci": 6855,
      "à®ħà®µà®ļ": 6856,
      "akthi": 6857,
      "à®ªà®¤à®°": 6858,
      "...âĢĿ": 6859,
      "à®¯à®ļà®ķ": 6860,
      "ĠOld": 6861,
      "à¥Ģ": 6862,
      "enb": 6863,
      "Ġ7000": 6864,
      "oe": 6865,
      "à¯Ģ..": 6866,
      "Ġà®ĩà®°à®ª": 6867,
      "Ġà®ĩà®°à®µà®²": 6868,
      "ĠGall": 6869,
      "unty": 6870,
      "Ġka": 6871,
      ".!": 6872,
      "à¯Ĭà®¿": 6873,
      "ĠThooth": 6874,
      "ĠList": 6875,
      "Co": 6876,
      "var": 6877,
      "Âµ": 6878,
      "Ġà®ļà®ķà®Ł": 6879,
      "âĢĿ.": 6880,
      "ĠSiy": 6881,
      "ĠTrichy": 6882,
      "Ġ10000": 6883,
      "aiyin": 6884,
      "Post": 6885,
      "fess": 6886,
      "Ġid": 6887,
      "à®°à®¯à®Ļ": 6888,
      "à®ľà®Ł": 6889,
      "Ġ165": 6890,
      "udget": 6891,
      "à®ħà®·": 6892,
      "1950": 6893,
      "Ġmade": 6894,
      "ongress": 6895,
      "Ġ\\\\": 6896,
      "à®Łà®¤à®ķ": 6897,
      "à¯į?!": 6898,
      "ĠPower": 6899,
      "iri": 6900,
      "à¸": 6901,
      "à®¨à®°à®ļ": 6902,
      "Sc": 6903,
      "Ġà®ķà®¤à®®": 6904,
      "ells": 6905,
      "ĠFrequently": 6906,
      "CA": 6907,
      "Ġà®ĵà®¸": 6908,
      "eme": 6909,
      "ought": 6910,
      "ĠSiyane": 6911,
      "ris": 6912,
      "à®²à®ªà®¤": 6913,
      "Ġà®¯à®®à®©": 6914,
      "à®Ĩà®ĥà®ª": 6915,
      "ato": 6916,
      "Ġcount": 6917,
      "Ġxossip": 6918,
      "à¯«": 6919,
      "Ġà®ªà®¤à®Ļ": 6920,
      "Ġ1901": 6921,
      "Ġsim": 6922,
      "Ġ000": 6923,
      "à®£à®ķà®¤": 6924,
      "à®²à®®à®£": 6925,
      "story": 6926,
      "108": 6927,
      "elvigal": 6928,
      "UP": 6929,
      "à®³à®¤à®±": 6930,
      "igation": 6931,
      "EX": 6932,
      "Ġà®ħà®±à®ļ": 6933,
      "à®ķà®£à®ª": 6934,
      "Ġadikk": 6935,
      "¸ı": 6936,
      "à®ķà®©à®°": 6937,
      "Ġà®¨à®ķà®¤": 6938,
      "à®°à®®à®°": 6939,
      "à®ĩà®³à®µà®°": 6940,
      "Ġ192": 6941,
      "onn": 6942,
      "Ġdistrict": 6943,
      "}}</": 6944,
      "Ġmagan": 6945,
      "Ġdown": 6946,
      "à¤®": 6947,
      "uel": 6948,
      "Ġà®°à®£à®®": 6949,
      "ĠHar": 6950,
      "ĠJew": 6951,
      "ĠEnergy": 6952,
      "Tube": 6953,
      "Ġpermalink": 6954,
      "Ġà®Ĩà®µà®£à®ķ": 6955,
      "ĠAlcohol": 6956,
      "Indian": 6957,
      "ospital": 6958,
      "umai": 6959,
      "oung": 6960,
      "publisher": 6961,
      "Ġà®īà®µà®ķ": 6962,
      "inet": 6963,
      "à®ªà®³à®Ļ": 6964,
      "Ġà®ķà®²à®ļà®¤": 6965,
      "ems": 6966,
      "à®Ĭà®´": 6967,
      "ples": 6968,
      "à®®à®µà®©": 6969,
      "à®¹à®®à®Ł": 6970,
      "Ġwhat": 6971,
      "NG": 6972,
      "Next": 6973,
      "ï¸ı": 6974,
      "oms": 6975,
      "Î±": 6976,
      "ĠSo": 6977,
      "Ġkelvigal": 6978,
      "ĠMeanings": 6979,
      "BE": 6980,
      "ÙĢ": 6981,
      "Ġadikkadi": 6982,
      "ĠLearn": 6983,
      "ĠFirst": 6984,
      "osa": 6985,
      "oken": 6986,
      "Ġketkapp": 6987,
      "Ġketkappadum": 6988,
      "Ġà®ħà®´à®ķà®©": 6989,
      "ological": 6990,
      "Ġà®Ĩà®Łà®ª": 6991,
      "Ġused": 6992,
      "CI": 6993,
      "Ġ(âĢĺ": 6994,
      "ĠHindu": 6995,
      "omic": 6996,
      "à¯ĩ...'": 6997,
      "PF": 6998,
      "Ġsaid": 6999,
      "Ġ132": 7000,
      "Art": 7001,
      "à§·": 7002,
      "Dr": 7003,
      "à®ľà®°à®¤": 7004,
      "ĠPolice": 7005,
      "opping": 7006,
      "df": 7007,
      "less": 7008,
      "à®®à®ļà®¨": 7009,
      "à®ļà®ªà®°": 7010,
      "ÙĳÙ°": 7011,
      "225": 7012,
      "à®©à®²à®®à®±": 7013,
      "à®ļà®¯à®ª": 7014,
      "Ġà®İà®©à®±": 7015,
      "ĠAuthor": 7016,
      "360": 7017,
      "à®µà®©à®ļ": 7018,
      "Ġrem": 7019,
      "ĠBit": 7020,
      "sw": 7021,
      "Ġà®ªà®ĥà®ª": 7022,
      "Ġ1907": 7023,
      "urity": 7024,
      "Ġbelow": 7025,
      "kad": 7026,
      "Ġà®ļà®®à®£à®®": 7027,
      "à¯į):": 7028,
      "Ġvacc": 7029,
      "ography": 7030,
      "ïĢ½": 7031,
      "];": 7032,
      "ĠDrugs": 7033,
      "Ġà®īà®£à®°à®ķ": 7034,
      "ĠTrailer": 7035,
      "Ġà®ĩà®²à®¨": 7036,
      "Ġà®ļà®²à®©": 7037,
      "à®Ĳà®İà®¸": 7038,
      "Ġgirl": 7039,
      "ĠNeut": 7040,
      "ĠCD": 7041,
      "à®ĩà®±à®ª": 7042,
      "ĠCine": 7043,
      "à¯ģ?.": 7044,
      "à¯ģ!âĢĻâĢĻ": 7045,
      "Ġà®®à®®à®¤": 7046,
      "à®¤à®®à®ª": 7047,
      "âĢĿ,": 7048,
      "ican": 7049,
      "1960": 7050,
      "ffee": 7051,
      "agai": 7052,
      "Ġval": 7053,
      "portant": 7054,
      "ĠTechnology": 7055,
      "eh": 7056,
      "à®ķà®ķà®¤": 7057,
      "à®¯à®´à®ķ": 7058,
      "Ġ330": 7059,
      "Ġchild": 7060,
      "à¯į,âĢĭâĢĭ": 7061,
      "à®¾!âĢĻ": 7062,
      "ĠState": 7063,
      "ĠVanniOnline": 7064,
      "sy": 7065,
      "vision": 7066,
      "Ġà®īà®¤à®¯à®¤": 7067,
      "Ġ168": 7068,
      "ĠFull": 7069,
      "image": 7070,
      "Ã¤Ã¤": 7071,
      "ĠAnti": 7072,
      "ĠðŁĻĤ": 7073,
      "Â½": 7074,
      "Ġà®ªà®µà®³": 7075,
      "icy": 7076,
      "ĠMet": 7077,
      "Ġreview": 7078,
      "130": 7079,
      "back": 7080,
      "top": 7081,
      "à®ķà®µà®³": 7082,
      "ĠMi": 7083,
      "ĠBal": 7084,
      "Ġgreat": 7085,
      "ĠTRB": 7086,
      "à®©à®®à®©": 7087,
      "Ġ129": 7088,
      "ðŁĳ": 7089,
      "irect": 7090,
      "Ġà®¤à®ļà®°à®¤à®©": 7091,
      "à®Łà®²à®ª": 7092,
      "à®ħà®ķà®¤": 7093,
      "unction": 7094,
      "195": 7095,
      "à¯Ĥ'": 7096,
      "à¯ĤÂŃ": 7097,
      "Ġà®¨à®ķà®°à®ķ": 7098,
      "Ġà®·à®©": 7099,
      "rek": 7100,
      "Ġlead": 7101,
      "RL": 7102,
      "SE": 7103,
      "à®¤à®®à®£": 7104,
      "à®ĩà®´": 7105,
      "à®¾?)": 7106,
      "rid": 7107,
      "Ġà®ļà®°à®µà®£à®ķ": 7108,
      "ĠRasi": 7109,
      "Ġbet": 7110,
      "Ġwoman": 7111,
      "ĠAssistant": 7112,
      "ĠOriginally": 7113,
      "à¯įâĢĶ": 7114,
      "à®ķà®°à®±": 7115,
      "ĠDog": 7116,
      "iyan": 7117,
      "ĠWhats": 7118,
      "ĠALL": 7119,
      "SA": 7120,
      "Ġà®¤à®Łà®ª": 7121,
      "Ġà®ķà®¤à®±à®²": 7122,
      "Ġà®ķà®®à®´": 7123,
      "à®¾âĢĻâĢĻ": 7124,
      "à¯į,[": 7125,
      "ĠExam": 7126,
      "Ġ(âĢľ": 7127,
      ".âĢĻ": 7128,
      "à®ļà®²à®ķ": 7129,
      "plain": 7130,
      "à·Ĭ": 7131,
      "Ġ(-": 7132,
      "à®ļà®®à®¯": 7133,
      "1984": 7134,
      "Ġ143": 7135,
      "Ġ147": 7136,
      "ĠHere": 7137,
      "à¤µ": 7138,
      "acy": 7139,
      "TI": 7140,
      "Ġà®¯à®²": 7141,
      "eni": 7142,
      "edy": 7143,
      "Ġmost": 7144,
      "ambi": 7145,
      "à®°à®µà®¸": 7146,
      "1986": 7147,
      "Ġthr": 7148,
      "Ġiss": 7149,
      "ploy": 7150,
      "bal": 7151,
      "ĠCons": 7152,
      "Ġ1100": 7153,
      "Ġ260": 7154,
      "Ġà®ĥà®µ": 7155,
      "à¯įâĢĻ...": 7156,
      "Ġ166": 7157,
      "airav": 7158,
      "Ġkathaikal": 7159,
      "Ġsecond": 7160,
      "à³": 7161,
      "à®²à®®à®²": 7162,
      "Ġà®Īà®¨": 7163,
      "Ġ850": 7164,
      "Ġla": 7165,
      "Ġ134": 7166,
      "Ġhair": 7167,
      "ĠJohn": 7168,
      "udana": 7169,
      "maz": 7170,
      "Ġarrested": 7171,
      "unt": 7172,
      "ĠEMI": 7173,
      "ux": 7174,
      "à®¤à®³à®°": 7175,
      "à®ªà®°à®°": 7176,
      "à®ħà®°à®Ļ": 7177,
      "à®ķà®ļà®ķ": 7178,
      "Ġà®Ĩà®®à®£à®ķ": 7179,
      "Ġshe": 7180,
      "à¯į'''": 7181,
      "ĠPolitical": 7182,
      "ĠHair": 7183,
      "Ġà®īà®´à®©": 7184,
      "ĠSevere": 7185,
      "ÂµÃł": 7186,
      "What": 7187,
      "Ġend": 7188,
      "Ġà®²à®ļ": 7189,
      "à®¹à®Ļ": 7190,
      "Ġpur": 7191,
      "ĠInst": 7192,
      ")âĢİ": 7193,
      "Ðµ": 7194,
      "1983": 7195,
      "ĠBar": 7196,
      "India": 7197,
      "Ġà®īà®µ": 7198,
      "ĠPress": 7199,
      "ĠBre": 7200,
      "ĠRep": 7201,
      "akkam": 7202,
      "><": 7203,
      "hu": 7204,
      "oa": 7205,
      "ĠÂŃ": 7206,
      "Ġtheev": 7207,
      "Bay": 7208,
      "Ġwomen": 7209,
      "tact": 7210,
      "World": 7211,
      "à®¿à®¾à®¿": 7212,
      "à®ªà®±à®ķ": 7213,
      "Ġ131": 7214,
      "ĠKumar": 7215,
      "Ġref": 7216,
      "aham": 7217,
      "PU": 7218,
      "à®¯à®°à®©": 7219,
      "..!!": 7220,
      "Ġà®ªà®²à®ªà®Ł": 7221,
      "à®µà®ļà®©à®®": 7222,
      "Ġmark": 7223,
      "anced": 7224,
      "à¯į.âĢľ": 7225,
      "Ġà®ħà®©à®ķ": 7226,
      "ĠIV": 7227,
      "ears": 7228,
      "UCH": 7229,
      "Ġà®ļà®Łà®ķ": 7230,
      "ĠMS": 7231,
      "180": 7232,
      "à¯į_(": 7233,
      "à®Łà®©à®ķ": 7234,
      "Ġà®¸à®ª": 7235,
      "Ġer": 7236,
      "à®£à®°à®¤": 7237,
      "à®¯à®°à®Ł": 7238,
      "Ġà®¸à®ķ": 7239,
      "Ġtra": 7240,
      "à®³à®°à®µà®®": 7241,
      "aanath": 7242,
      "ga": 7243,
      "à®¿[": 7244,
      "1988": 7245,
      "ĠFrom": 7246,
      "Ġhistory": 7247,
      "itional": 7248,
      "nb": 7249,
      "ites": 7250,
      "Ġcre": 7251,
      "Ġ148": 7252,
      "avy": 7253,
      "ĠðŁĺ": 7254,
      "ĠModi": 7255,
      "Ġformula": 7256,
      "Ġà®Łà®µà®²": 7257,
      "Ġà®īà®¤à®¯à®©": 7258,
      "Ġpira": 7259,
      "Ġpres": 7260,
      "ĠArchived": 7261,
      "ĠInteractions": 7262,
      "à®°à®ķà®£à®¤": 7263,
      "Ġà®ķà®±à®ķ": 7264,
      "Ġthem": 7265,
      "by": 7266,
      "Ġext": 7267,
      "à®¯à®¤à®®": 7268,
      "owers": 7269,
      "Ġunavu": 7270,
      "ĠOfficial": 7271,
      "Press": 7272,
      "à®ªà®¯à®®": 7273,
      "à¯į.<": 7274,
      "à®ķà®®à®¯à®®": 7275,
      "à®¤à®©à®ļ": 7276,
      "ĠCourt": 7277,
      "à®Ĳà®¸": 7278,
      "Ġatta": 7279,
      "HA": 7280,
      "à¯Ī&": 7281,
      "Ġà®ļà®°à®Ł": 7282,
      "osis": 7283,
      "à®¤à®ĥ": 7284,
      "Ġà®ıà®ľà®©": 7285,
      "Ġà®ľà®¯": 7286,
      "ĠLife": 7287,
      "iful": 7288,
      "mg": 7289,
      "oil": 7290,
      "ero": 7291,
      "ĠMot": 7292,
      "ukaludan": 7293,
      "ham": 7294,
      "Ġà®ľà®¯à®¨": 7295,
      "Ġà®ªà®µà®³à®ª": 7296,
      "Ġusing": 7297,
      "ouncil": 7298,
      "ircle": 7299,
      "Ġconf": 7300,
      "Ġmarundhukaludan": 7301,
      "Ġtheevira": 7302,
      "Ġmadhub": 7303,
      "SO": 7304,
      "Ġ?âĢĿ": 7305,
      "à®Īà®Ī": 7306,
      "aiyinile": 7307,
      "udanaana": 7308,
      "aanathudanaana": 7309,
      "Ġmadhubaanathudanaana": 7310,
      "bit": 7311,
      "à®·à®£à®©": 7312,
      "Ġà®ħà®µà®²à®¨": 7313,
      "inik": 7314,
      "ured": 7315,
      "Ġ139": 7316,
      "Ġkaraiyinile": 7317,
      "airavini": 7318,
      "Ġà®īà®°à®ļà®²": 7319,
      "ĠCash": 7320,
      "adai": 7321,
      "ands": 7322,
      "ĠGeneral": 7323,
      "à®ĩà®²à®µà®ļ": 7324,
      "à®ķà®®à®ķ": 7325,
      "ĠSir": 7326,
      "ĠSell": 7327,
      "gg": 7328,
      "hai": 7329,
      "ĠModel": 7330,
      "ĠTwitter": 7331,
      "EF": 7332,
      "Ġà®Ĩà®¤à®©": 7333,
      "Ġ1903": 7334,
      "à®£à®µà®°à®£": 7335,
      "odi": 7336,
      "ugu": 7337,
      "ĠMaths": 7338,
      "Ġà®ĵà®Łà®ķ": 7339,
      "Ġmov": 7340,
      "à¯ĭ?âĢĻ": 7341,
      "ËĪ": 7342,
      "1985": 7343,
      "Ġinf": 7344,
      "Ġ164": 7345,
      "ĠMusic": 7346,
      "sm": 7347,
      "Ġsign": 7348,
      "à®¾.....": 7349,
      "Link": 7350,
      "à®ķà®Łà®°": 7351,
      "à¯Ĩ,": 7352,
      "à¯į.?": 7353,
      "1947": 7354,
      "Ġnumber": 7355,
      "à®ªà®¯à®£à®Ļ": 7356,
      "Ġvali": 7357,
      "rue": 7358,
      "ongal": 7359,
      "pons": 7360,
      "Ġmet": 7361,
      "umal": 7362,
      "ĠInformation": 7363,
      "ees": 7364,
      "Ġ1909": 7365,
      "erala": 7366,
      "ĠØª": 7367,
      "ĠYouTube": 7368,
      "hind": 7369,
      "à¯įà¯į": 7370,
      "à®£à®µà®ª": 7371,
      "à¯į..,": 7372,
      "Ġviews": 7373,
      "à¯Ī!âĢĿ": 7374,
      "160": 7375,
      "istan": 7376,
      "à¯ĭ;": 7377,
      "à®İà®Łà®ª": 7378,
      "Ġsam": 7379,
      "Ġcard": 7380,
      "Ġ137": 7381,
      "Ġ138": 7382,
      "Ġà®ıà®ķà®®à®©à®¤": 7383,
      "à®°à®ķà®³": 7384,
      "ĠDMK": 7385,
      "ĠJobs": 7386,
      "à®ľà®¯à®¤à®ļà®®": 7387,
      "ouch": 7388,
      "à®¨à®²à®ª": 7389,
      "Ġà®¨à®³à®©": 7390,
      "Ġà®¤à®Łà®¯à®µ": 7391,
      "Ġà®µà®²à®¯à®Ļ": 7392,
      "ĠBer": 7393,
      "à¯©": 7394,
      "à®²à®µà®³": 7395,
      "plit": 7396,
      "ĠDi": 7397,
      "à¯ĩ!''": 7398,
      "raj": 7399,
      "à¥¤": 7400,
      "Ġà®¤à®ľ": 7401,
      "inc": 7402,
      "à®¿âĢĻâĢĻ": 7403,
      "BF": 7404,
      "HI": 7405,
      "à®°à®µà®ķ": 7406,
      "Ġpower": 7407,
      "à®¿..!!": 7408,
      "ĠImages": 7409,
      "140": 7410,
      "à®ľà®©à®Ļ": 7411,
      "ila": 7412,
      "ĠPUD": 7413,
      "ĠCa": 7414,
      "ERRY": 7415,
      "ibr": 7416,
      "anguages": 7417,
      "lon": 7418,
      "utcham": 7419,
      "à®Łà®¯à®°": 7420,
      "à®¾...âĢĻ": 7421,
      "DR": 7422,
      "LO": 7423,
      "Of": 7424,
      "Ġà®°à®£à®¤": 7425,
      "duction": 7426,
      "ait": 7427,
      "atu": 7428,
      "Ġwere": 7429,
      "ental": 7430,
      "à¯ģ..\"": 7431,
      "à®±à®°à®ļà®°": 7432,
      "à¯ĩ...âĢĻ": 7433,
      "Ġà®ħà®µà®®à®°": 7434,
      "Ġ1904": 7435,
      "Ġ420": 7436,
      "Ġhouse": 7437,
      "ĠForum": 7438,
      "Ġà®Ĭà®ķà®Ļ": 7439,
      "Ġà®¨à®Łà®©à®ª": 7440,
      "ĠTNTJ": 7441,
      "View": 7442,
      "Ġrice": 7443,
      "à®ķà®ľà®©": 7444,
      "à®ļà®¤à®µ": 7445,
      "Ġà®°à®²": 7446,
      "à®ľà®¯à®ļ": 7447,
      "à®ļà®®à®£": 7448,
      "à®¹à®Ł": 7449,
      "ison": 7450,
      "ĠDef": 7451,
      "Ġhd": 7452,
      "Ġà®ķà®¯à®µà®°": 7453,
      "à®ļà®ļà®°": 7454,
      "à®Ĳà®®": 7455,
      "ĠRadio": 7456,
      "Ġstate": 7457,
      "à®¿?âĢĿ": 7458,
      "XX": 7459,
      "Ġà¯į": 7460,
      "à®±à®°à®ļ": 7461,
      "info": 7462,
      "Ġà®¤à®µà®ķ": 7463,
      "Ġ1890": 7464,
      "Ġnar": 7465,
      "ĠWork": 7466,
      "ugan": 7467,
      "...âĢĻ": 7468,
      "Ġ8000": 7469,
      "à®µà®£à®®": 7470,
      "Ġà®ħà®µà®©à®µà®©": 7471,
      "icer": 7472,
      "itle": 7473,
      "organ": 7474,
      "Ð½": 7475,
      "îİ": 7476,
      "Ġwell": 7477,
      "450": 7478,
      "aim": 7479,
      "Ġdate": 7480,
      "ĠKann": 7481,
      "avith": 7482,
      "îİį": 7483,
      ":)": 7484,
      "à®ķà®ªà®¤": 7485,
      "à®©à®°à®ŀ": 7486,
      "Ġà®¯à®·": 7487,
      "à®Ĳà®ı": 7488,
      "ried": 7489,
      "ydro": 7490,
      "...]": 7491,
      "ĠCC": 7492,
      "let": 7493,
      "Ġ151": 7494,
      "ĠClick": 7495,
      "COM": 7496,
      "UCHERRY": 7497,
      "à®Łà®®à®Ļ": 7498,
      "Ġà®ħà®®à®°à®©": 7499,
      "Previous": 7500,
      "à®²à®ķà®ķ": 7501,
      "Ġà®īà®´à®µà®©": 7502,
      "ĠVis": 7503,
      "Ġacid": 7504,
      "ĠLabels": 7505,
      "Ã¶": 7506,
      "Ġà®²à®¸": 7507,
      "ĠTime": 7508,
      "cep": 7509,
      "web": 7510,
      "Ġ185": 7511,
      "DS": 7512,
      "Ġà®ļà®ķà®ª": 7513,
      "à¯Ģ'": 7514,
      "à®ĩà®±à®ķ": 7515,
      "amin": 7516,
      "isul": 7517,
      "à®¾..!!": 7518,
      "Â®ÂŁ": 7519,
      "à®ªà®´à®¨": 7520,
      "ATE": 7521,
      "à®ķà®¤à®²": 7522,
      "à®¯à®ªà®°": 7523,
      "à®³à®ŀ": 7524,
      "Ġà®ĵà®µà®²": 7525,
      "ĠPlease": 7526,
      "iyal": 7527,
      "Ġopen": 7528,
      "à¯ĩ(": 7529,
      "Ġà®ķà®²à®ļ": 7530,
      "Ġportal": 7531,
      "ĠIns": 7532,
      "yan": 7533,
      "Ġà®¯à®ľ": 7534,
      "rows": 7535,
      "yright": 7536,
      "GR": 7537,
      "WD": 7538,
      "ĠPas": 7539,
      "Ġtreatment": 7540,
      "1956": 7541,
      "ĠBro": 7542,
      "Ġdep": 7543,
      "ĠKey": 7544,
      "Ġgu": 7545,
      "ppadi": 7546,
      "à®ļà®®à®¤": 7547,
      "ĠFOR": 7548,
      "Ġà®°à®®à®£à®©": 7549,
      "olv": 7550,
      "ĠEX": 7551,
      "angam": 7552,
      "Ġjust": 7553,
      "Ġprotest": 7554,
      "band": 7555,
      "Ġà®®à®©à®©à®®": 7556,
      "Ġ480": 7557,
      "à®Ĳà®¤à®°": 7558,
      "Ġdist": 7559,
      "ĠErek": 7560,
      "ĠWill": 7561,
      "oda": 7562,
      "BN": 7563,
      "Con": 7564,
      "ll": 7565,
      "à®©à®Łà®°": 7566,
      "à¯į);": 7567,
      "Ġ1898": 7568,
      "urs": 7569,
      "à¯Ī\",": 7570,
      "hal": 7571,
      "Ġà®Ĩà®£à®µà®ķ": 7572,
      "Ġà®Īà®²": 7573,
      "Ġ154": 7574,
      "à®¾',": 7575,
      "Ġà®¤à®²à®µ": 7576,
      "Ġpo": 7577,
      "ĠBatt": 7578,
      "ĠErektion": 7579,
      "Ġà®ĩà®Łà®±": 7580,
      "atory": 7581,
      "à¯į???": 7582,
      "ivate": 7583,
      "ĠNeutral": 7584,
      "à®ļà®²à®µ": 7585,
      "cept": 7586,
      "cont": 7587,
      "áĥ": 7588,
      "Ġà®īà®³à®¤": 7589,
      "riage": 7590,
      "span": 7591,
      "Per": 7592,
      "à®ļà®®à®©": 7593,
      "ĠKAL": 7594,
      "SR": 7595,
      "mir": 7596,
      "à®Łà®°à®ķ": 7597,
      "oly": 7598,
      "à¯Ī..!!": 7599,
      "Ñģ": 7600,
      "appy": 7601,
      "Ġà®ļà®®à®°à®ļà®¤": 7602,
      "OV": 7603,
      "van": 7604,
      "ĠFriend": 7605,
      "Ġ177": 7606,
      "oolaham": 7607,
      "OD": 7608,
      "ling": 7609,
      "ĠEcon": 7610,
      "ĠPUDUCHERRY": 7611,
      "Ġà®ķà®¤à®ķ": 7612,
      "à®ļà®ļà®ª": 7613,
      "à®°à®£à®®à®²": 7614,
      "Ġ167": 7615,
      "Ġdetails": 7616,
      "à¯ĭ?âĢĿ": 7617,
      "iance": 7618,
      "à®³à®®à®©": 7619,
      "Ġà®ıà®±à®µ": 7620,
      "Ġà®®à®°à®£à®ª": 7621,
      "à®īà®³à®µ": 7622,
      "rey": 7623,
      "Ġsing": 7624,
      "Ġ176": 7625,
      "Ġà®ļà®²à®Ļ": 7626,
      "Ġà®ļà®ķà®ľ": 7627,
      "Ġside": 7628,
      "Ġ1880": 7629,
      "ĠKan": 7630,
      "ĠUK": 7631,
      "ĠSingh": 7632,
      "mp": 7633,
      "à®´à®ķà®©": 7634,
      "à®¯à®©à®ķ": 7635,
      "asik": 7636,
      "à®¾!\"": 7637,
      "udram": 7638,
      "Ġà®ĩà®¤à®¯à®ķ": 7639,
      "Ġ:))": 7640,
      "Ġ141": 7641,
      "Ġkal": 7642,
      "Ġincl": 7643,
      "Ġ149": 7644,
      "Ġne": 7645,
      "athir": 7646,
      "ipl": 7647,
      "Ġà®¤à®¹": 7648,
      "Ġà®®à®°à®ķà®¤à®®": 7649,
      "Ġwhite": 7650,
      "akathaikal": 7651,
      "ĠTEACH": 7652,
      "à®µà®ķà®£": 7653,
      "ĠSearch": 7654,
      "ĠMLA": 7655,
      "ĠIM": 7656,
      "Ġhim": 7657,
      "rown": 7658,
      "à¯ģâĢĵ": 7659,
      "ĠLtd": 7660,
      "ĠÂ£": 7661,
      "illion": 7662,
      "Ġwords": 7663,
      "iab": 7664,
      "Ġà®ªà®°à®®à®¤": 7665,
      "à¯ĭ....": 7666,
      "thy": 7667,
      "ĠPlay": 7668,
      ">{{": 7669,
      "Kan": 7670,
      "Ne": 7671,
      "à®¯à®£à®ķ": 7672,
      "ĠAf": 7673,
      "emy": 7674,
      "?!": 7675,
      "Ge": 7676,
      "ca": 7677,
      "à®Łà®ļà®¨": 7678,
      "eder": 7679,
      "Ġ1860": 7680,
      "%-": 7681,
      "Ġà®ļà®®à®¤à®°": 7682,
      "ĠPL": 7683,
      "Ġ157": 7684,
      "ĠRah": 7685,
      "asalai": 7686,
      "Ġbirth": 7687,
      "Ġà®ĩà®²à®µà®ļà®ķ": 7688,
      "::": 7689,
      "GH": 7690,
      "noolaham": 7691,
      "Ġà®īà®µà®ª": 7692,
      "à®·à®ļ": 7693,
      "olgy": 7694,
      "Ġ1300": 7695,
      "à®ħà®Łà®Ł": 7696,
      "ANKA": 7697,
      "Ele": 7698,
      "ĠPo": 7699,
      "Ġ156": 7700,
      "Ġà®ĩà®®à®¯à®®": 7701,
      "Ġfile": 7702,
      "Ġ146": 7703,
      "à®ĩà®²à®Ł": 7704,
      "estion": 7705,
      "Ġ2024": 7706,
      "à®īà®Łà®®": 7707,
      "reg": 7708,
      "aterial": 7709,
      "ĠCommission": 7710,
      "ĠTechnolgy": 7711,
      "ĠElect": 7712,
      "TML": 7713,
      "Ġà®°à®ļà®¤": 7714,
      "à¯į)\"": 7715,
      "-%": 7716,
      ".''": 7717,
      "à®Łà®¤à®Ļ": 7718,
      "Ġà®ľà®¯à®µà®°": 7719,
      "Ġpa": 7720,
      "Ġdise": 7721,
      "anks": 7722,
      "ĠCentre": 7723,
      "Ġà®ħà®°à®ļà®ª": 7724,
      "Ġmur": 7725,
      "main": 7726,
      "ified": 7727,
      "ðŁĴ": 7728,
      "ĠCollege": 7729,
      "');": 7730,
      "inia": 7731,
      "ĠFact": 7732,
      "Ġdem": 7733,
      "poration": 7734,
      "thing": 7735,
      "ĠSRI": 7736,
      "Ġmoun": 7737,
      "Ġotha": 7738,
      "Ġ162": 7739,
      "Â®Âļ": 7740,
      "erman": 7741,
      "ĠEducation": 7742,
      "à®¯à®²à®ķà®Ļ": 7743,
      "Ġ1902": 7744,
      "iven": 7745,
      "Ġ3500": 7746,
      "Ġà®ľà®©à®®": 7747,
      "...!": 7748,
      "ĠMin": 7749,
      "iger": 7750,
      "mm": 7751,
      "nam": 7752,
      "Î¿": 7753,
      "Ġà®ĩà®¤à®¯à®¨": 7754,
      "ĠSn": 7755,
      "ĠSTR": 7756,
      "ĠCard": 7757,
      "Ġsisul": 7758,
      "ĠEducational": 7759,
      "Ġsisulthan": 7760,
      "VD": 7761,
      "Ġà®¤à®®à®¯à®¨": 7762,
      "Ġ380": 7763,
      "Ġà®µà®³à®µà®©": 7764,
      "ancer": 7765,
      "Ġslider": 7766,
      "êŀ": 7767,
      "à¯į=": 7768,
      "alavu": 7769,
      "Ġfound": 7770,
      "une": 7771,
      "Ġlaw": 7772,
      "ĠYog": 7773,
      "êŀī": 7774,
      "Ġ((": 7775,
      "à®ļà®²à®ªà®¤": 7776,
      "Ġ1280": 7777,
      "Ġnagai": 7778,
      "Organ": 7779,
      "à®¿âĢĵ": 7780,
      "à®©à®Łà®ķ": 7781,
      "à®ĥà®°": 7782,
      "mazon": 7783,
      "Ġà®·à®µ": 7784,
      "reet": 7785,
      "1967": 7786,
      "ĠLim": 7787,
      "trichy": 7788,
      "ĠCovid": 7789,
      "ĠKet": 7790,
      "à®¤à®¹": 7791,
      "Ġà®ĩà®¤à®¯à®ª": 7792,
      "Ġà®Īà®¯à®®": 7793,
      "oma": 7794,
      "Ġwrit": 7795,
      "ĠOffice": 7796,
      "ĠMedical": 7797,
      "================": 7798,
      "asamudram": 7799,
      "240": 7800,
      "Ġà®ªà®³à®ªà®³à®ķ": 7801,
      "ĠPhil": 7802,
      "BD": 7803,
      "ĠSkin": 7804,
      "ĠLANKA": 7805,
      "Ġà®İà®ľ": 7806,
      "à¯Ģ\"": 7807,
      "à®Ĩà®¤à®°à®µ": 7808,
      "ĠSC": 7809,
      "ĠVs": 7810,
      "ension": 7811,
      "?.": 7812,
      "Ġà®ľà®©à®°à®ŀ": 7813,
      "Ġà®®à®°à®µ": 7814,
      "à®²à®ķà®µà®¤": 7815,
      "Ġà®µà®ļà®µ": 7816,
      "Ġsee": 7817,
      "ĠFin": 7818,
      "ĠForm": 7819,
      "ĠReal": 7820,
      "Ġà®ħà®ľà®¨": 7821,
      "vert": 7822,
      "ĠCoffee": 7823,
      "Ġà®ķà®ªà®³": 7824,
      "à®ļà®¯à®°": 7825,
      "Ġà®ķà®¤à®ķà®³": 7826,
      "à®ªà®ķà®µà®¤": 7827,
      "à®ıà®²": 7828,
      "à®ªà®£à®ķ": 7829,
      "ised": 7830,
      "ĠHP": 7831,
      "ĠKUR": 7832,
      "ĠUr": 7833,
      "à®¿!âĢĿ": 7834,
      "uild": 7835,
      "à®®à®³à®®": 7836,
      "à¯Ī|": 7837,
      "à®°à®£à®©": 7838,
      "Ġsu": 7839,
      "Ġ044": 7840,
      "ĠPadasalai": 7841,
      "elle": 7842,
      "à®£à®¨à®²à®©": 7843,
      "Ġevery": 7844,
      "Ġà®īà®¯à®°à®Ļ": 7845,
      "ĠAward": 7846,
      "ĠUSB": 7847,
      "ĠMadurai": 7848,
      "rd": 7849,
      "aman": 7850,
      "ĠMicro": 7851,
      "oli": 7852,
      "ĠBrit": 7853,
      "Ġmem": 7854,
      "Ġfamily": 7855,
      "Ġnow": 7856,
      "Ġà®¤à®°à®®à®£": 7857,
      "à¤²": 7858,
      "ĠChild": 7859,
      "Ġà®ħà®¯à®²à®µà®°": 7860,
      "BM": 7861,
      "à®®à®°à®£": 7862,
      "à®©à®¤à®¯": 7863,
      "à®ķà®©à®²": 7864,
      "Ġhead": 7865,
      "Ġattack": 7866,
      "à®·à®¸": 7867,
      "Ġà®ķà®²à®µà®°": 7868,
      "à®ªà®©à®ª": 7869,
      "à¯ģ...âĢĻ": 7870,
      "à®¯à®ĩà®©": 7871,
      "à®°à®®à®³": 7872,
      "Ġà®¤à®°à®µà®²": 7873,
      "Ġaunty": 7874,
      "imal": 7875,
      "Ġproduct": 7876,
      "Ġmarundhalavu": 7877,
      "Ed": 7878,
      "à®Łà®±à®ķ": 7879,
      "Ġ2025": 7880,
      "Ġduring": 7881,
      "à®²à®´à®ķà®°": 7882,
      "Se": 7883,
      "Ġà°": 7884,
      "à®¨à®°à®®": 7885,
      "Ġà®ªà®°à®®à®©": 7886,
      "ultural": 7887,
      "Ġhero": 7888,
      "aspberry": 7889,
      "ĠAssociation": 7890,
      "à®ļà®ļà®©": 7891,
      "à®¤à®°à®ķà®Ļ": 7892,
      "à®ķà®Łà®ķ": 7893,
      "inition": 7894,
      "Ġthod": 7895,
      "ĠDh": 7896,
      "ikal": 7897,
      "Ġ2455": 7898,
      "ferent": 7899,
      "à®ªà®©à®ķ": 7900,
      "Ġà®µà®²à®¯": 7901,
      "Ġtree": 7902,
      "Ġpan": 7903,
      "Ġvijay": 7904,
      "à®ħà®µà®ļà®°": 7905,
      "ĠYour": 7906,
      "Ġrain": 7907,
      "ces": 7908,
      "à®©à®´à®ķ": 7909,
      "Ġ.,": 7910,
      "ĠCare": 7911,
      "1977": 7912,
      "1971": 7913,
      "à¯įâĢ¦?": 7914,
      "à¯ĪâĢĻ.": 7915,
      "ĠÙĤ": 7916,
      "à®¨à®Łà®ķ": 7917,
      "Ġà®ķà®²à®ļà®Ļ": 7918,
      "ĠSer": 7919,
      "iff": 7920,
      "New": 7921,
      "name": 7922,
      "Ġakka": 7923,
      "à®Łà®°à®®": 7924,
      "à¯Ģà¯į": 7925,
      "Ġ(=": 7926,
      "Ġà®ħà®µà®¨": 7927,
      "à®®à®°à®µ": 7928,
      "Ġ:))))": 7929,
      "Ġblog": 7930,
      "ivil": 7931,
      "avel": 7932,
      "osition": 7933,
      "à®¾âĢĻ.": 7934,
      "eca": 7935,
      "ĠAdd": 7936,
      "ĠMedium": 7937,
      "HD": 7938,
      "edu": 7939,
      "adam": 7940,
      "ivity": 7941,
      "uvam": 7942,
      "Ġà®®à®°à®£à®ļ": 7943,
      "à®°à®µà®³": 7944,
      "Ġnadu": 7945,
      "Ġà®©à®¤": 7946,
      "allur": 7947,
      "Ġà®³à®°": 7948,
      "ĠAng": 7949,
      "à®ķà®¤à®ķ": 7950,
      "Ġà®ħà®©à®¸": 7951,
      "à®ĩà®ĩ": 7952,
      "Ġà®ĵà®®à®©": 7953,
      "ĠSiv": 7954,
      "Ġetc": 7955,
      "Man": 7956,
      "Ġà®°à®¤à®¤": 7957,
      "à®Łà®°à®°": 7958,
      "Ġà®ķà®®à®£": 7959,
      "Ġ1896": 7960,
      "ĠRAM": 7961,
      "Ġà®µà®©à®ľ": 7962,
      "apalayam": 7963,
      "oftw": 7964,
      "Ġà®Ĩà®³à®µà®¨": 7965,
      "UC": 7966,
      "à¯Ī',": 7967,
      "à®ľà®¯à®¨à®ķà®°à®ª": 7968,
      "ĠPage": 7969,
      "à¯ģ...âĢĿ": 7970,
      "Ġchar": 7971,
      "ĠShare": 7972,
      "ĠRecipes": 7973,
      "499": 7974,
      "mar": 7975,
      "Ġà®®à®ļà®ķ": 7976,
      "Ġà®ħà®©à®¤": 7977,
      "à¯ģ.*": 7978,
      "à®ķà®°à®µà®£": 7979,
      "omet": 7980,
      "à®Ĵà®ķ": 7981,
      "Ġfact": 7982,
      "Ġà®ªà®²à®©à®Ł": 7983,
      "ĠTEACHERS": 7984,
      "och": 7985,
      "Ġà®ħà®Łà®ª": 7986,
      "à®²à®®à®Ļ": 7987,
      "à®¯à®ķà®Ł": 7988,
      "ĠNam": 7989,
      "adurai": 7990,
      "Ġpay": 7991,
      "aiya": 7992,
      "Ġfull": 7993,
      "eylon": 7994,
      "ĠUnion": 7995,
      "Ġpregn": 7996,
      "Ġà®Ĩà®ķà®®à®Ļ": 7997,
      "ĠÏ": 7998,
      "Ġ2023": 7999,
      "agram": 8000,
      "Ġ**": 8001,
      "ĠÃĹ": 8002,
      "ribe": 8003,
      "75913": 8004,
      "Ġà®ħà®°à®³": 8005,
      "ĠMoh": 8006,
      "isamy": 8007,
      "ify": 8008,
      "Ġ72057594045": 8009,
      "Ġ245575913": 8010,
      "Ġcur": 8011,
      "ĠRaspberry": 8012,
      "ides": 8013,
      "Fi": 8014,
      "à®¯à®µà®²": 8015,
      "à¯Ĥ\"": 8016,
      "Ġà®Ĩà®Ĩà®Ĩ": 8017,
      "à®ĩà®¤à®´": 8018,
      "ĠIPS": 8019,
      "à¤¯": 8020,
      "Ã¡": 8021,
      "à®²à®µà®Ł": 8022,
      "Ġ205": 8023,
      "ĠPark": 8024,
      "Ġshopping": 8025,
      "à®ħà®µà®¤": 8026,
      "ĠMov": 8027,
      "ĠFM": 8028,
      "rust": 8029,
      "Ġbhp": 8030,
      "Ġpriced": 8031,
      "à®ķà®³à®ļ": 8032,
      "Ġà®ħà®ķà®Ł": 8033,
      "Ġsweet": 8034,
      "1948": 8035,
      "ĠON": 8036,
      "anthi": 8037,
      "cription": 8038,
      "àµį": 8039,
      "ĠPG": 8040,
      "cture": 8041,
      "atham": 8042,
      "40549": 8043,
      "ei": 8044,
      "ĠNager": 8045,
      "Ø§ÙĨ": 8046,
      "Ġ72057594040549": 8047,
      "Ġ72057594040549376": 8048,
      "Ġà®µà®°à®¤à®©": 8049,
      "Ġà®ĩà®©à®¨": 8050,
      "Ġà®ªà®ķà®±": 8051,
      "ĠProject": 8052,
      "Ġà®ªà®Łà®ªà®Łà®µ": 8053,
      "Ġà®¹à®¯": 8054,
      "à®¾.?": 8055,
      "ĠNtrichy": 8056,
      "à¯į?,": 8057,
      "Ġremed": 8058,
      "à¯ĩ..?": 8059,
      "appadi": 8060,
      "à®¾à¯ĩ": 8061,
      "illage": 8062,
      "ians": 8063,
      "watch": 8064,
      "Ġà®ĩà®±à®µ": 8065,
      "Ġà®Ĭà®°à®£": 8066,
      "ĠAustral": 8067,
      "ola": 8068,
      "à¯Ī?âĢĿ": 8069,
      "fect": 8070,
      "ja": 8071,
      "à®ľà®£": 8072,
      "irm": 8073,
      "ĠWindows": 8074,
      "à®¤à®µà®ļ": 8075,
      "à¯į..âĢĻ": 8076,
      "ĠKairavini": 8077,
      "Ġread": 8078,
      "Ġà®ħà®°à®®": 8079,
      "à®¯à®²à®ķà®ª": 8080,
      "à®¤à®®à®ķ": 8081,
      "Ġà®Ĳà®ļà®ķ": 8082,
      "Ġ310": 8083,
      "ĠSociety": 8084,
      "ults": 8085,
      "à¯į..!!âĢĿ": 8086,
      "HP": 8087,
      "Å«": 8088,
      "à®µà®ķà®µ": 8089,
      "atur": 8090,
      "à¯ĩ.âĢĿ": 8091,
      "enz": 8092,
      "Ġ999": 8093,
      "ottai": 8094,
      "à®ľà®¯à®¨": 8095,
      "irit": 8096,
      "Ġ215": 8097,
      "Ġplace": 8098,
      "Ġsmall": 8099,
      "ĠWordPress": 8100,
      "dy": 8101,
      "à®²à®ķà®ļ": 8102,
      "Ġ1897": 8103,
      "Ġfollow": 8104,
      "osoph": 8105,
      "à¤ķ": 8106,
      "Ġtwo": 8107,
      "ela": 8108,
      "room": 8109,
      "Ġà®ķà®®à®²à®ķ": 8110,
      "Ġcalled": 8111,
      "EG": 8112,
      "à®°à®®à®ķ": 8113,
      "Ġà®Ĳà®Ĩà®°": 8114,
      "à¯ģ......": 8115,
      "à¯ĩ!'": 8116,
      "??\"": 8117,
      "AND": 8118,
      "-)": 8119,
      "val": 8120,
      "âĢĮ,": 8121,
      "ster": 8122,
      "ĠOTT": 8123,
      "Ġ178": 8124,
      "ankar": 8125,
      "Â¯ÂĪ": 8126,
      "âĻ": 8127,
      "à®¿}": 8128,
      "à¯ĭ(": 8129,
      "à®µà®°à®Ł": 8130,
      "1981": 8131,
      "ĠAmbasamudram": 8132,
      "box": 8133,
      "Ġà®ķà®²à®ļà®®": 8134,
      "à®ĩà®µà®Ļ": 8135,
      "ĠPur": 8136,
      "Ġsk": 8137,
      "avai": 8138,
      "rabh": 8139,
      "Ġstyle": 8140,
      "à¯¨": 8141,
      "Ġà®ķà®ļà®Ļ": 8142,
      "Ġà®Ĩà®¯à®ķ": 8143,
      "arp": 8144,
      "Ġcoronavirus": 8145,
      "ĠUp": 8146,
      "AVAI": 8147,
      "light": 8148,
      "Ġà®®à®ĩà®ķ": 8149,
      "Ġthose": 8150,
      "à®ĵà®ĵ": 8151,
      "Ġshow": 8152,
      ")(": 8153,
      "Raj": 8154,
      "ĠOut": 8155,
      "123": 8156,
      "peri": 8157,
      "airs": 8158,
      "Trans": 8159,
      "à®²à®µà®¤": 8160,
      "Ġà®®à®²à®Ļ": 8161,
      "Ġà®ļà®ķà®²à®®": 8162,
      "Ġ1870": 8163,
      "umm": 8164,
      "à®ĩà®©à®ª": 8165,
      "à¯įâĢĻ-": 8166,
      "ĠSun": 8167,
      "à®Ĳà®¤": 8168,
      "Ġsell": 8169,
      "Ġ163": 8170,
      "tains": 8171,
      "returns": 8172,
      "ĠService": 8173,
      "RA": 8174,
      "isk": 8175,
      "raw": 8176,
      "Ġrep": 8177,
      ",,,,": 8178,
      "ĠOS": 8179,
      "à¯į,''''": 8180,
      "RS": 8181,
      "Ĺı": 8182,
      "à®ħà®±à®®": 8183,
      "à®ıà®ľ": 8184,
      ".......": 8185,
      "Ġ1700": 8186,
      "ettings": 8187,
      "Ġà®ļà®°à®µà®£à®®": 8188,
      "ĠCopyright": 8189,
      "/>": 8190,
      "650": 8191,
      "Give": 8192,
      "sub": 8193,
      "onym": 8194,
      "Ġpe": 8195,
      "Ġeven": 8196,
      "stories": 8197,
      "à®¤à®ķà®®à®±": 8198,
      "00000000": 8199,
      "Page": 8200,
      "dom": 8201,
      "pect": 8202,
      "Øµ": 8203,
      "ĠCity": 8204,
      "ĠGandhi": 8205,
      "Ġ275": 8206,
      "ĠProgram": 8207,
      "Ġspecial": 8208,
      "antha": 8209,
      "ĠEntertainment": 8210,
      "Ġthrough": 8211,
      "310": 8212,
      "ray": 8213,
      "à®ļà®£à®Ļ": 8214,
      "à®£à®°à®ª": 8215,
      "à®´à®µà®°à®®": 8216,
      "1975": 8217,
      "ĠBack": 8218,
      "Ġlast": 8219,
      "ekho": 8220,
      "ĠPERAVAI": 8221,
      "NEW": 8222,
      "ily": 8223,
      "ĠAy": 8224,
      "à®Ĳà®İà®®": 8225,
      "Ġ1891": 8226,
      "ĠLove": 8227,
      "ĠWar": 8228,
      "Ġblack": 8229,
      "soft": 8230,
      "vel": 8231,
      "Ùĵ": 8232,
      "à®ıà®Ļ": 8233,
      "à¯ģ!)": 8234,
      "Ġà¯¬": 8235,
      "wa": 8236,
      "Ø´": 8237,
      "Ġà®ľà®¤": 8238,
      "Ġdi": 8239,
      "ĠSpecial": 8240,
      "aur": 8241,
      "down": 8242,
      "à¯ģâĢľ": 8243,
      "à®©à®µà®²": 8244,
      "esc": 8245,
      "1957": 8246,
      "osc": 8247,
      "ĠGoodreturns": 8248,
      "Ġà®Ĩà®±à®Ł": 8249,
      "ĠBhar": 8250,
      "Ġret": 8251,
      "Ø®": 8252,
      "à®µà®¯à®ª": 8253,
      "Ġà®Īà®¤à®°": 8254,
      "ili": 8255,
      "Ġà®ªà®°à®µà®µ": 8256,
      "Dekho": 8257,
      "yt": 8258,
      "Ġà®°à®ľà®©": 8259,
      "à®©à®®à®°": 8260,
      "onic": 8261,
      "ĠPath": 8262,
      "à®·à®¯à®®à®²": 8263,
      "riev": 8264,
      "Vijay": 8265,
      "à®µà®¹": 8266,
      "à®¤à®µà®´": 8267,
      "ĠTerm": 8268,
      "à®īà®Łà®±": 8269,
      "umin": 8270,
      "ĠProv": 8271,
      "Ġtransl": 8272,
      "Dec": 8273,
      "Ġà®ķà®£à®£": 8274,
      "ĠCur": 8275,
      "avin": 8276,
      "Ġadv": 8277,
      "gar": 8278,
      "Ġà®ĩà®¹": 8279,
      "Ġà®®à®©à®īà®³": 8280,
      "à®¾?..": 8281,
      "Ġcal": 8282,
      "akumar": 8283,
      "ulf": 8284,
      "Ġà®ªà®°à®®à®¹à®®": 8285,
      "Ġ802": 8286,
      "à®°à®¹à®¤": 8287,
      "ĠComputer": 8288,
      "Ġdon": 8289,
      "Ġneed": 8290,
      "à®ĵà®²": 8291,
      "Ġeppadi": 8292,
      "ĠCategory": 8293,
      "International": 8294,
      "Ġà®ĵà®µà®©": 8295,
      "Ġà®ĵà®ªà®°": 8296,
      "ined": 8297,
      "Ġ2050": 8298,
      "Ġsir": 8299,
      "1982": 8300,
      "Ġ188": 8301,
      ".'": 8302,
      "EU": 8303,
      "hot": 8304,
      "à®°à®ļà®°": 8305,
      "Ġà®µà®²à®¯à®ķ": 8306,
      "1974": 8307,
      "Ġown": 8308,
      "Thir": 8309,
      "sa": 8310,
      "Ġair": 8311,
      "à¯¯": 8312,
      "à®ķà®²à®µà®°à®®": 8313,
      "Ġ204": 8314,
      "à¯į)âĢİ": 8315,
      "ĠCoun": 8316,
      "ĠVa": 8317,
      "ĠLankan": 8318,
      "iqu": 8319,
      "ner": 8320,
      "Ġà®īà®²à®Ļ": 8321,
      "Ġà®ĩà®²à®ļ": 8322,
      "Ġà®Ĩà®±à®°": 8323,
      "ises": 8324,
      "isation": 8325,
      "Ġphotos": 8326,
      "Ġîİį": 8327,
      "à®®à®¤à®°": 8328,
      "oul": 8329,
      "ĠmAh": 8330,
      "ĠStr": 8331,
      "Ġbeautiful": 8332,
      "ÙĮ": 8333,
      "à®¾).": 8334,
      "Ġà®Ĵà®Łà®®": 8335,
      "Gr": 8336,
      "MD": 8337,
      "Ġà®ĵà®·": 8338,
      "Ġà®ķà®´à®²": 8339,
      "ĠAtt": 8340,
      "1979": 8341,
      "104": 8342,
      "Ġà®īà®ªà®ķà®°à®£à®®": 8343,
      "****************": 8344,
      "âĨĳ": 8345,
      "oftware": 8346,
      "Ġ1892": 8347,
      "Ġpundai": 8348,
      "INE": 8349,
      "ĠAval": 8350,
      "!'": 8351,
      "à®ķà®´à®¤": 8352,
      "Ġtre": 8353,
      "Ġmen": 8354,
      "Ġlac": 8355,
      "ĠWWE": 8356,
      ",\"": 8357,
      "Â´": 8358,
      "à®Łà®ĥà®ª": 8359,
      "à®´à®ķà®ļ": 8360,
      "ĠPRO": 8361,
      "Ġsym": 8362,
      "Ġseeds": 8363,
      "Ġà®ķà®Łà®²à®Ł": 8364,
      "Ġ1899": 8365,
      "ĠTele": 8366,
      "à®¯à®®à®¤": 8367,
      "à®¿.âĢĿ": 8368,
      "Ġà®·à®£": 8369,
      "ĠEp": 8370,
      "IB": 8371,
      "Re": 8372,
      "Ùĭ": 8373,
      "Ġà®ĩà®°à®¨": 8374,
      "Ġà®ªà®°à®µà®ļà®ª": 8375,
      "ĠBigg": 8376,
      "asikala": 8377,
      "MC": 8378,
      "Ġà®ľà®©à®ķ": 8379,
      "Ġà®ķà®©à®ķà®ļà®ª": 8380,
      "ĠTHE": 8381,
      "à®ķà®ķà®µà®ļà®®": 8382,
      "ĠHuman": 8383,
      "ĠPrime": 8384,
      "ĠDinamalar": 8385,
      "á¹Ń": 8386,
      "à®²à®¤à®®": 8387,
      "à®µà®Łà®¤": 8388,
      "ĠIr": 8389,
      "Ġlive": 8390,
      "fore": 8391,
      "Ġà®¨à®¹": 8392,
      "ĠPU": 8393,
      "Ġsn": 8394,
      "à¯ĩ?'": 8395,
      "tity": 8396,
      "Ġshort": 8397,
      "à¯ģ//": 8398,
      "à®ķà®²à®µà®°à®¤": 8399,
      "leep": 8400,
      "alaxy": 8401,
      "ford": 8402,
      "oid": 8403,
      "Ġà®ķà®ļà®Ł": 8404,
      "à®ķà®¤à®©": 8405,
      "Ġà®®à®©à®µà®²": 8406,
      "Ġà®¸à®Ļ": 8407,
      "itis": 8408,
      "Ġ1850": 8409,
      "Cont": 8410,
      "ĠSlim": 8411,
      "ĠCS": 8412,
      "ĠDur": 8413,
      "ĠJan": 8414,
      "à¯Ī?âĢĻ": 8415,
      "ector": 8416,
      "uvan": 8417,
      "à®ªà®¯à®ª": 8418,
      "Ġà®ķà®ķà®©": 8419,
      "Ġà®¤à®ķà®µ": 8420,
      "à¯Ī.,": 8421,
      "à®¤à®°à®ļà®®": 8422,
      "Ġà®ķà®°à®£à®®": 8423,
      "Ġà®īà®£à®°à®ļ": 8424,
      "à®¹à®ľ": 8425,
      "owder": 8426,
      "endra": 8427,
      "à¯įâĢ¦.âĢĿ": 8428,
      "ukku": 8429,
      "æĤłæĤłæĤłæĤłæĤłæĤłæĤłæĤł": 8430,
      "978": 8431,
      "ĠSR": 8432,
      "ĠEro": 8433,
      "Ġ???": 8434,
      "ĠPhoto": 8435,
      "380": 8436,
      "<<": 8437,
      "Ġà®ħà®°à®±": 8438,
      "à®Łà®²à®µ": 8439,
      "ĠPeople": 8440,
      "Ġà®ķà®©à®ķà®ļ": 8441,
      "ĠTamilSpark": 8442,
      "Ġmother": 8443,
      "à®ľà®¯à®ķà®²": 8444,
      "ĠGo": 8445,
      "Ġà®Ĳà®ľ": 8446,
      "ĠSMS": 8447,
      "ĠPri": 8448,
      "à¯ģ??": 8449,
      "ĠHand": 8450,
      "Ġ174": 8451,
      "à¯ģ'.": 8452,
      "Â®Â¯": 8453,
      "ĠArticle": 8454,
      "Ġel": 8455,
      "à¯ģ.âĢĭ": 8456,
      "Ġwant": 8457,
      "à®¿?âĢĻ": 8458,
      "nbsp": 8459,
      "Ġà®ħà®ķà®ķ": 8460,
      "à®ħà®Łà®ķ": 8461,
      "ĠAstrology": 8462,
      "Ġ1893": 8463,
      "ĠRa": 8464,
      "101": 8465,
      "105": 8466,
      "otion": 8467,
      "ĠDoctor": 8468,
      "à¯Ī[": 8469,
      "Ġà®¹à®£": 8470,
      "Ġsug": 8471,
      "1965": 8472,
      "1972": 8473,
      "Ġcourt": 8474,
      "ander": 8475,
      "107": 8476,
      "Ġà®ĩà®ĥà®ª": 8477,
      "à¯Ĥ)": 8478,
      "ĠTO": 8479,
      "aras": 8480,
      "ĠCricket": 8481,
      "ĠKovil": 8482,
      "Ġver": 8483,
      "ĠInf": 8484,
      "ĠCoimbatore": 8485,
      "inikanth": 8486,
      "à®°à®®à®¯à®®": 8487,
      "Ġà®ĵà®£": 8488,
      "Ġà®¤à®Łà®¯à®®": 8489,
      "Ġ1886": 8490,
      "unity": 8491,
      "à®¤à®²à®Ł": 8492,
      "Ġà®ıà®İà®®": 8493,
      "à®¯à®°à®ķ": 8494,
      "Ġà®Ĭà®Łà®±": 8495,
      "Ġ340": 8496,
      "Ġ182": 8497,
      "ĠOpen": 8498,
      "ĠDepartment": 8499,
      "!,": 8500,
      "kgm": 8501,
      "ÑĤ": 8502,
      "à®®à®°à®£à®®": 8503,
      "à®Ĩà®ªà®°": 8504,
      "ora": 8505,
      "ads": 8506,
      "à®Īà®ķ": 8507,
      "Ġà®®à®µà®©": 8508,
      "à®ķà®²à®ļ": 8509,
      "Ġ1895": 8510,
      "Ġ173": 8511,
      "Ġdue": 8512,
      "Â®Â©": 8513,
      "'t": 8514,
      "Ġà®Ĩà®²à®¤": 8515,
      "à®°à®ļà®²": 8516,
      "à¯į!,": 8517,
      "Ġsil": 8518,
      "Ġ181": 8519,
      "Ġms": 8520,
      "ĠFund": 8521,
      "anges": 8522,
      "ustom": 8523,
      "Ġheart": 8524,
      "Ġaddress": 8525,
      "Eng": 8526,
      "OG": 8527,
      "Ġà®ļà®®à®£à®¤": 8528,
      "ĠData": 8529,
      "ĠGarc": 8530,
      "acter": 8531,
      "Ġà®ķà®ļà®¨": 8532,
      "ĠâĢº": 8533,
      "Ġà®µà®Łà®ĩà®¨": 8534,
      "ĠWest": 8535,
      "Ġvil": 8536,
      "rypt": 8537,
      "ĠBoss": 8538,
      "ĠGet": 8539,
      "athan": 8540,
      "aps": 8541,
      "ĠAnanda": 8542,
      "ART": 8543,
      "SNATION": 8544,
      "NEWSNATION": 8545,
      "put": 8546,
      "Ġà®ļà®¤à®®à®Ł": 8547,
      "à®ħà®²à®Ļ": 8548,
      "ĠAk": 8549,
      "Ġpet": 8550,
      "ĠFire": 8551,
      "ĠJava": 8552,
      "ĠÙĥ": 8553,
      "PN": 8554,
      "cast": 8555,
      "à®ķà®¤à®ª": 8556,
      "Ġà®²à®ľ": 8557,
      "ared": 8558,
      "orrow": 8559,
      "ĠCeylon": 8560,
      "Ġbro": 8561,
      "Ġgener": 8562,
      "eet": 8563,
      "Â¸": 8564,
      "à®¤à®£à®©": 8565,
      "à®¸à®ķ": 8566,
      "1976": 8567,
      "olin": 8568,
      "Ġinst": 8569,
      "aving": 8570,
      "Ġà®¨à®ķà®°à®®à®¯à®®": 8571,
      "ĠCarDekho": 8572,
      "299": 8573,
      "Ġà®Łà®ĥà®ª": 8574,
      "Ġà®®à®ķà®ľà®°": 8575,
      "ester": 8576,
      "ĠChar": 8577,
      "Ġgroup": 8578,
      "ikkaigal": 8579,
      "off": 8580,
      "à¯į,âĢ¦": 8581,
      "2022": 8582,
      "à®¤à®ļà®Ļ": 8583,
      "osph": 8584,
      "Ġthodarb": 8585,
      "ways": 8586,
      "Ġà®īà®£à®µà®ķ": 8587,
      "ĠTamilan": 8588,
      "1978": 8589,
      "ĠHy": 8590,
      "aver": 8591,
      "osed": 8592,
      "ĠDrive": 8593,
      "Ġissue": 8594,
      "Ab": 8595,
      "Bigg": 8596,
      "ĠTel": 8597,
      "Ġcy": 8598,
      "uma": 8599,
      "aji": 8600,
      "Voice": 8601,
      "Ġà®ħà®¤à®²": 8602,
      "à®¾?...": 8603,
      "ĠSH": 8604,
      "'''": 8605,
      "urg": 8606,
      "à®¾...\"": 8607,
      "Ġechar": 8608,
      "Ġecharikkaigal": 8609,
      "550": 8610,
      "Ġà®ªà®µà®¤": 8611,
      "à¯ĩâĢĭ": 8612,
      "Ġà®¤à®²à®ª": 8613,
      "Ġà®īà®¯à®°à®µ": 8614,
      "Ġ159": 8615,
      "à®¨à®°à®ķà®®": 8616,
      "ĠDiv": 8617,
      "inking": 8618,
      "akku": 8619,
      "à®¤à®ķà®µà®²à®±": 8620,
      "board": 8621,
      "à®ļà®°à®Ļ": 8622,
      "erg": 8623,
      "ĠMir": 8624,
      "Ġwife": 8625,
      "Ġà®°à®®à®£à®°": 8626,
      "Ġà®¯à®¯": 8627,
      "Ġà®ĵà®³": 8628,
      "ules": 8629,
      "Ġcolor": 8630,
      "ledge": 8631,
      "CB": 8632,
      "Ġà®ľà®²à®®": 8633,
      "Ġà®ĩà®µà®³à®¤": 8634,
      "amani": 8635,
      "à¯į?)": 8636,
      "ĠSelect": 8637,
      "ĠAmazon": 8638,
      "à¯ĪâĢĿ.": 8639,
      "ĠiOS": 8640,
      "Ġà¤ķ": 8641,
      "ĠTrain": 8642,
      "Boss": 8643,
      "GE": 8644,
      "SH": 8645,
      "à®µà®²à®ļ": 8646,
      "Ġsuper": 8647,
      "Ġ186": 8648,
      "115": 8649,
      "Ġproblem": 8650,
      "Article": 8651,
      "We": 8652,
      "ÏĤ": 8653,
      "à®ķà®µà®ļà®¤": 8654,
      "Ġà®İà®´à®¤": 8655,
      "ĠDirector": 8656,
      "agan": 8657,
      "Ġvel": 8658,
      "illa": 8659,
      "ĠYear": 8660,
      "ibrary": 8661,
      "MB": 8662,
      "à®ķà®³à®ķà®°à®®": 8663,
      "Ġà®°à®£à®ļ": 8664,
      "Ġà®¹à®¸à®©": 8665,
      "online": 8666,
      "Ġà®Ĩà®²à®¯à®ª": 8667,
      "ĠCouncil": 8668,
      "Ġà®ĥà®ªà®©": 8669,
      "1930": 8670,
      "Ġ1889": 8671,
      "ĠBBC": 8672,
      "Ġway": 8673,
      "ellow": 8674,
      "220": 8675,
      "bar": 8676,
      "à®ħà®¯à®©": 8677,
      "ĠPR": 8678,
      "Ġ1888": 8679,
      "ĠSpace": 8680,
      "Ġà®Ķà®°à®Ļ": 8681,
      "Ġrecipes": 8682,
      "((": 8683,
      "Ġà®ªà®²à®ļà®°à®ķ": 8684,
      "urasu": 8685,
      "ĠGiz": 8686,
      "unthu": 8687,
      "Ġlook": 8688,
      "Ġprocess": 8689,
      "voice": 8690,
      "Ð»": 8691,
      "Ġà®Ĩà®Łà®¤": 8692,
      "ĠSan": 8693,
      "ĠSmart": 8694,
      "EP": 8695,
      "à®Łà®ķà®²": 8696,
      "à®®à®£à®°à®²": 8697,
      "à®Łà®£à®ķ": 8698,
      "ĠFlex": 8699,
      "Ġnext": 8700,
      "ĠWomen": 8701,
      "à¤Ĥ": 8702,
      "IND": 8703,
      "okes": 8704,
      "Posted": 8705,
      "FX": 8706,
      "rolle": 8707,
      "à®¯à®ħà®°à®ļ": 8708,
      "Ġà®µà®³à®ļà®°à®µ": 8709,
      "ĠDem": 8710,
      "Ġà®µà®ļà®©à®ķà®°": 8711,
      "à®±à®µà®±à®®": 8712,
      "Ġtalk": 8713,
      "ĠWi": 8714,
      "Ġknown": 8715,
      "à®°à®¤à®Ł": 8716,
      "Ġà®Īà®İà®®": 8717,
      "ĠCongress": 8718,
      "ĠÂ´": 8719,
      "appa": 8720,
      "ĠExpl": 8721,
      "rolleyes": 8722,
      "à¯ģâĢĺ": 8723,
      "Ġà®Ĩà®®à®¤": 8724,
      "à®·à®¨": 8725,
      "à®¯à®ķà®ļ": 8726,
      "ĠCoronavirus": 8727,
      "Ġ1885": 8728,
      "andh": 8729,
      "Ġ224": 8730,
      "ATT": 8731,
      "à¥ģ": 8732,
      "Ġà®ļà®¹à®¸": 8733,
      ")[": 8734,
      "Cent": 8735,
      "Gl": 8736,
      "Ġà®®à®Łà®ª": 8737,
      "à®ªà®Łà®°": 8738,
      "à¯ĢÂŃ": 8739,
      "à®ķà®ªà®ª": 8740,
      "à®ħà®©à®¨": 8741,
      "ĠSBI": 8742,
      "ĠPO": 8743,
      "ĠMakkal": 8744,
      "Ġselling": 8745,
      "à¯ĩ?''": 8746,
      "ĠChap": 8747,
      "Ġflowers": 8748,
      "Ant": 8749,
      "Kanags": 8750,
      "280": 8751,
      "à®¯à®īà®¤à®µ": 8752,
      "à®µà®ľà®©": 8753,
      "Ġà®ĵà®£à®®": 8754,
      "udio": 8755,
      "Ġtrad": 8756,
      "Ġà®Ĩà®ļà®©à®µ": 8757,
      "ĠSa": 8758,
      "ĠSl": 8759,
      "ĠGel": 8760,
      "Ġland": 8761,
      "128": 8762,
      "à®ªà®Łà®£": 8763,
      "à®µà®®à®¯à®®": 8764,
      "arma": 8765,
      "ĠSite": 8766,
      "Ġà®ķà®©à®©": 8767,
      "olk": 8768,
      "used": 8769,
      "astic": 8770,
      "ategory": 8771,
      "Br": 8772,
      "ĠCEO": 8773,
      "ĠVel": 8774,
      "ĠWater": 8775,
      "ITY": 8776,
      "eekam": 8777,
      "ĠAgric": 8778,
      "Ġà®¤à®©à®°": 8779,
      "ĠPe": 8780,
      "chan": 8781,
      "ĠHu": 8782,
      "istry": 8783,
      "ffic": 8784,
      "Ġvaccine": 8785,
      "ĠPasumai": 8786,
      "ji": 8787,
      "à¯ĩâĢĻâĢĻ": 8788,
      "ĠSim": 8789,
      "Ġà®ħà®®à®°à®¤": 8790,
      "ĠPan": 8791,
      "icide": 8792,
      "her": 8793,
      "atta": 8794,
      "Ġ430": 8795,
      "Ġà®ªà®´à®ķà®µ": 8796,
      "ĠAB": 8797,
      "Ġ189": 8798,
      "alls": 8799,
      "Ġâĸ": 8800,
      "ĠIslam": 8801,
      "ĠGarcinia": 8802,
      "CP": 8803,
      "uh": 8804,
      "ĠSize": 8805,
      "ĠPort": 8806,
      "ĠStalin": 8807,
      "ĠWhatsApp": 8808,
      "ique": 8809,
      "Ġà®ķà®³à®°": 8810,
      "Ġ222": 8811,
      "ĠMeaning": 8812,
      "archi": 8813,
      "à®°à®©à®®": 8814,
      "à®ªà®·": 8815,
      "Ġà®¨à®°à®ªà®²": 8816,
      "Ġà®ıà®¸": 8817,
      "Ġà®ªà®°à®°": 8818,
      "isc": 8819,
      "ĠWHO": 8820,
      "ĠCentral": 8821,
      "ĠSecret": 8822,
      "Ġà®¯à®¸": 8823,
      "ĠToken": 8824,
      "ĠMale": 8825,
      "1969": 8826,
      "elt": 8827,
      "à¯Ī!\"": 8828,
      "ler": 8829,
      "Åį": 8830,
      "ĠAp": 8831,
      "Ġfre": 8832,
      "ention": 8833,
      "ĠUnited": 8834,
      "++++": 8835,
      "à®¤à®ļà®°à®¸": 8836,
      "Ġà®ªà®Łà®ªà®Łà®¤": 8837,
      "Ġ1848": 8838,
      "quest": 8839,
      "Ġ:-))": 8840,
      "augh": 8841,
      "Nadu": 8842,
      "PDF": 8843,
      "thers": 8844,
      "à®°à®ķà®¸": 8845,
      "adesh": 8846,
      "Ġcare": 8847,
      "ĠCorporation": 8848,
      "nxx": 8849,
      "Ġatt": 8850,
      "Ġà®ĩà®©à®°": 8851,
      "ĠATM": 8852,
      "ired": 8853,
      "à®¾..?âĢĿ": 8854,
      ")]": 8855,
      "320": 8856,
      "313": 8857,
      "My": 8858,
      "à®¤à®µà®©à®®": 8859,
      "ĠMobile": 8860,
      "Ġtake": 8861,
      "1955": 8862,
      "Ġap": 8863,
      "rac": 8864,
      "orge": 8865,
      "Ġdoes": 8866,
      "'.": 8867,
      "à®¤à®ľ": 8868,
      "à®¸à®µà®®": 8869,
      "Ġ-/": 8870,
      "à®¾.âĢĿ": 8871,
      "Ġ1882": 8872,
      "oval": 8873,
      "***": 8874,
      "ĠManagement": 8875,
      "akshmi": 8876,
      "Wh": 8877,
      "fr": 8878,
      "Ġorder": 8879,
      "à®ķà®ļà®¤": 8880,
      "Ġ(?)": 8881,
      "1973": 8882,
      "ĠRoad": 8883,
      "asamy": 8884,
      "à¤¦": 8885,
      "opy": 8886,
      "Ġà®ĩà®²à®µà®ļà®ª": 8887,
      "pplication": 8888,
      "rieved": 8889,
      "Ġà®ªà®¤à®°": 8890,
      "tham": 8891,
      "Ġ1080": 8892,
      "ĠPand": 8893,
      "Ġsch": 8894,
      "Ġmult": 8895,
      "Ġyoung": 8896,
      "ĠeBay": 8897,
      "!..": 8898,
      "Ġà®Īà®£": 8899,
      "ICAL": 8900,
      "Ġteam": 8901,
      "à®ªà®µà®ļ": 8902,
      "Ġà®°à®¤à®®": 8903,
      "Ġà®ªà®Łà®ļ": 8904,
      "à®Ĩà®ªà®¤": 8905,
      "urance": 8906,
      "Ġ169": 8907,
      "avam": 8908,
      "Ġleg": 8909,
      "Ġarticleà®ª": 8910,
      "ĠCenter": 8911,
      "ĠElection": 8912,
      "arajan": 8913,
      "FT": 8914,
      "à¯Ĩ-": 8915,
      "usband": 8916,
      "Ġright": 8917,
      "isha": 8918,
      "Ġà¯Ń": 8919,
      "Ġà®ľà®¯à®¤": 8920,
      "Ġwar": 8921,
      "iginal": 8922,
      "uts": 8923,
      "attle": 8924,
      "RD": 8925,
      "ban": 8926,
      "new": 8927,
      "à®£à®¯à®ļ": 8928,
      "à®¤à®®à®©à®®": 8929,
      "Ġà®ªà®±à®®": 8930,
      "ĠRSS": 8931,
      "Ġpop": 8932,
      "Ġ172": 8933,
      "img": 8934,
      "à¯ĩâĢ¦âĢĿ": 8935,
      "ozhi": 8936,
      "ĠEngineering": 8937,
      "Ġà´": 8938,
      "Ġà®ħà®ĩ": 8939,
      "à¯Ī,''": 8940,
      "ĠMO": 8941,
      "1952": 8942,
      "1962": 8943,
      "akistan": 8944,
      "Ġaway": 8945,
      "avigation": 8946,
      "à®¤à®ļà®·": 8947,
      "Ġthen": 8948,
      "à®¿!''": 8949,
      "aint": 8950,
      "ĠISO": 8951,
      "ground": 8952,
      "Feb": 8953,
      "met": 8954,
      "yarl": 8955,
      "à®©à®µà®ķ": 8956,
      "arsh": 8957,
      "thod": 8958,
      "Ġ1894": 8959,
      "Ġpdf": 8960,
      "Ġthese": 8961,
      "ĠTopics": 8962,
      "--------------------------------": 8963,
      "à®ķà®³à®µà®©": 8964,
      "Ġfin": 8965,
      "Ġaut": 8966,
      "Ġà®°à®®à®³": 8967,
      "ĠâĻ": 8968,
      "Organization": 8969,
      "ÃŃ": 8970,
      "Ġà®¨à®¯à®¤": 8971,
      "à®®à®²à®©": 8972,
      "Ġà®ªà®£à®µà®°à®¤": 8973,
      "Ġ\".": 8974,
      "phone": 8975,
      "ween": 8976,
      "Ġofficial": 8977,
      "à¯įà¯Ī": 8978,
      "à®ŀà®®": 8979,
      "1954": 8980,
      "ĠKerala": 8981,
      "emia": 8982,
      "ĠâĨĲ": 8983,
      "Ġindian": 8984,
      "auty": 8985,
      "ĠStudy": 8986,
      "Ġannounc": 8987,
      "no": 8988,
      "split": 8989,
      "Â£": 8990,
      "ïģ": 8991,
      "à¯Ī.(": 8992,
      "atin": 8993,
      "ĠVaik": 8994,
      "à¤¸": 8995,
      "ĠProst": 8996,
      "icken": 8997,
      "ictures": 8998,
      "ilankainet": 8999,
      "One": 9000,
      "gam": 9001,
      "à®ªà®ļà®Ļ": 9002,
      "à¯ĭâĢ¦.": 9003,
      "Ġ1887": 9004,
      "Ġ245": 9005,
      "Ġlaunch": 9006,
      "ima": 9007,
      "à®¾âĢ¦..": 9008,
      "Jan": 9009,
      "iers": 9010,
      "à®ķà®ĩà®°": 9011,
      "à®¯à®°à®²": 9012,
      "Ġà®Īà®´à®¨": 9013,
      "ĠCL": 9014,
      "ĠBoard": 9015,
      "elam": 9016,
      "135": 9017,
      "à®ªà®´à®ļ": 9018,
      "ATH": 9019,
      "ĠRetrieved": 9020,
      "850": 9021,
      "bot": 9022,
      "ient": 9023,
      "Äĵ": 9024,
      "à®¿.''": 9025,
      "à®ħà®°à®£": 9026,
      "ĠNH": 9027,
      "ĠMA": 9028,
      "190": 9029,
      "Ġ1881": 9030,
      "ĠDate": 9031,
      "Ġweek": 9032,
      "ĠFind": 9033,
      "ĠKrishn": 9034,
      "rial": 9035,
      "eyarchi": 9036,
      "ĠControl": 9037,
      "IST": 9038,
      "ME": 9039,
      "pu": 9040,
      "à¯Ĥà®¾à¯į,": 9041,
      "Ġ512": 9042,
      "103": 9043,
      "anger": 9044,
      "à¯Ī.....": 9045,
      "oke": 9046,
      "Ġupd": 9047,
      "ĠTake": 9048,
      "Ġà®īà®Łà®²à®³à®µ": 9049,
      "ĠHouse": 9050,
      "102": 9051,
      "5000": 9052,
      "Solution": 9053,
      "à¯ĢâĢĿ": 9054,
[...]
