{
  "version": "1.0",
  "truncation": null,
  "padding": null,
  "added_tokens": [
    {
      "id": 0,
      "content": "<|endoftext|>",
      "single_word": false,
      "lstrip": false,
      "rstrip": false,
      "normalized": false,
      "special": true
    }
  ],
  "normalizer": null,
  "pre_tokenizer": {
    "type": "ByteLevel",
    "add_prefix_space": false,
    "trim_offsets": true,
    "use_regex": true
  },
  "post_processor": {
    "type": "ByteLevel",
    "add_prefix_space": true,
    "trim_offsets": false,
    "use_regex": true
  },
  "decoder": {
    "type": "ByteLevel",
    "add_prefix_space": true,
    "trim_offsets": true,
    "use_regex": true
  },
  "model": {
    "type": "BPE",
    "dropout": null,
    "unk_token": null,
    "continuing_subword_prefix": null,
    "end_of_word_suffix": null,
    "fuse_unk": false,
    "byte_fallback": false,
    "ignore_merges": false,
    "vocab": {
      "<|endoftext|>": 0,
      "!": 1,
      "\"": 2,
      "#": 3,
      "$": 4,
      "%": 5,
      "&": 6,
      "'": 7,
      "(": 8,
      ")": 9,
      "*": 10,
      "+": 11,
      ",": 12,
      "-": 13,
      ".": 14,
      "/": 15,
      "0": 16,
      "1": 17,
      "2": 18,
      "3": 19,
      "4": 20,
      "5": 21,
      "6": 22,
      "7": 23,
      "8": 24,
      "9": 25,
      ":": 26,
      ";": 27,
      "<": 28,
      "=": 29,
      ">": 30,
      "?": 31,
      "@": 32,
      "A": 33,
      "B": 34,
      "C": 35,
      "D": 36,
      "E": 37,
      "F": 38,
      "G": 39,
      "H": 40,
      "I": 41,
      "J": 42,
      "K": 43,
      "L": 44,
      "M": 45,
      "N": 46,
      "O": 47,
      "P": 48,
      "Q": 49,
      "R": 50,
      "S": 51,
      "T": 52,
      "U": 53,
      "V": 54,
      "W": 55,
      "X": 56,
      "Y": 57,
      "Z": 58,
      "[": 59,
      "\\": 60,
      "]": 61,
      "^": 62,
      "_": 63,
      "`": 64,
      "a": 65,
      "b": 66,
      "c": 67,
      "d": 68,
      "e": 69,
      "f": 70,
      "g": 71,
      "h": 72,
      "i": 73,
      "j": 74,
      "k": 75,
      "l": 76,
      "m": 77,
      "n": 78,
      "o": 79,
      "p": 80,
      "q": 81,
      "r": 82,
      "s": 83,
      "t": 84,
      "u": 85,
      "v": 86,
      "w": 87,
      "x": 88,
      "y": 89,
      "z": 90,
      "{": 91,
      "|": 92,
      "}": 93,
      "~": 94,
      "¡": 95,
      "¢": 96,
      "£": 97,
      "¤": 98,
      "¥": 99,
      "¦": 100,
      "§": 101,
      "¨": 102,
      "©": 103,
      "ª": 104,
      "«": 105,
      "¬": 106,
      "®": 107,
      "¯": 108,
      "°": 109,
      "±": 110,
      "²": 111,
      "³": 112,
      "´": 113,
      "µ": 114,
      "¶": 115,
      "·": 116,
      "¸": 117,
      "¹": 118,
      "º": 119,
      "»": 120,
      "¼": 121,
      "½": 122,
      "¾": 123,
      "¿": 124,
      "Â": 125,
      "Ã": 126,
      "Ä": 127,
      "Å": 128,
      "Æ": 129,
      "Ç": 130,
      "È": 131,
      "É": 132,
      "Ê": 133,
      "Ë": 134,
      "Ì": 135,
      "Í": 136,
      "Î": 137,
      "Ï": 138,
      "Ð": 139,
      "Ñ": 140,
      "Ò": 141,
      "Ó": 142,
      "Ô": 143,
      "Õ": 144,
      "Ö": 145,
      "×": 146,
      "Ø": 147,
      "Ù": 148,
      "Ú": 149,
      "Û": 150,
      "Ü": 151,
      "Þ": 152,
      "ß": 153,
      "à": 154,
      "á": 155,
      "â": 156,
      "ã": 157,
      "ä": 158,
      "å": 159,
      "æ": 160,
      "ç": 161,
      "è": 162,
      "é": 163,
      "ê": 164,
      "ë": 165,
      "ì": 166,
      "í": 167,
      "î": 168,
      "ï": 169,
      "ð": 170,
      "ă": 171,
      "Ĉ": 172,
      "Ċ": 173,
      "Ġ": 174,
      "Ģ": 175,
      "ģ": 176,
      "Ĥ": 177,
      "ĥ": 178,
      "Ħ": 179,
      "ħ": 180,
      "Ĩ": 181,
      "ĩ": 182,
      "Ī": 183,
      "ī": 184,
      "Ĭ": 185,
      "ĭ": 186,
      "Į": 187,
      "į": 188,
      "İ": 189,
      "ı": 190,
      "Ĳ": 191,
      "ĳ": 192,
      "Ĵ": 193,
      "ĵ": 194,
      "Ķ": 195,
      "ķ": 196,
      "ĸ": 197,
      "Ĺ": 198,
      "ĺ": 199,
      "Ļ": 200,
      "ļ": 201,
      "Ľ": 202,
      "ľ": 203,
      "Ŀ": 204,
      "ŀ": 205,
      "Ł": 206,
      "ł": 207,
      "Ń": 208,
      "à®": 209,
      "à¯": 210,
      "à¯į": 211,
      "Ġà®": 212,
      "à¯ģ": 213,
      "à®¿": 214,
      "à®ķ": 215,
      "à®¤": 216,
      "à®°": 217,
      "à®Ł": 218,
      "à®¾": 219,
      "à®©": 220,
      "à®®": 221,
      "à®²": 222,
      "à®ª": 223,
      "à¯Ī": 224,
      "à®¯": 225,
      "à®±": 226,
      "à®³": 227,
      "à®µ": 228,
      "Ġà®ª": 229,
      "Ġà®ķ": 230,
      "Ġà®µ": 231,
      "Ġà®®": 232,
      "à®ķà®³": 233,
      "à®ļ": 234,
      "Ġà®ħ": 235,
      "à¯ĩ": 236,
      "à®¨": 237,
      "à®£": 238,
      "Ġà®¤": 239,
      "Ġà®ļ": 240,
      "Ġà®ĩ": 241,
      "à¯Ĩ": 242,
      "Ġà®¨": 243,
      "à¯ĭ": 244,
      "Ġà®İ": 245,
      "à¯į.": 246,
      "à®Ļ": 247,
      "à¯Ĭ": 248,
      "à®´": 249,
      "à®ªà®Ł": 250,
      "à¯į,": 251,
      "à¯Ģ": 252,
      "Ġà®ī": 253,
      "à¯Ĥ": 254,
      "Ġà®İà®©": 255,
      "à®µà®°": 256,
      "Ġà®Ĩ": 257,
      "à¯ģ.": 258,
      "Ġà®ĩà®°": 259,
      "Ġà®Ĵ": 260,
      "Ġà®ħà®¤": 261,
      "à®¸": 262,
      "âĢ": 263,
      "à®ªà®¤": 264,
      "à®µà®¤": 265,
      "à®Łà®¤": 266,
      "à®±à®¤": 267,
      "Ġà®Ĵà®°": 268,
      "Ġà®µà®°": 269,
      "à®ķà®ª": 270,
      "Ġà®ĩà®¨": 271,
      "à®©à®°": 272,
      "à¯ģ,": 273,
      "à®Łà®®": 274,
      "à®¤à®²": 275,
      "à®ķà®®": 276,
      "Ġà®ķà®Ł": 277,
      "Ġà®ĩà®¤": 278,
      "Ġà®°": 279,
      "à®¤à®¤": 280,
      "Ġà®ħà®µà®°": 281,
      "à®°à®®": 282,
      "Ġà®®à®±": 283,
      "à®ķà®¤": 284,
      "à®ķà®µ": 285,
      "Ġà®ı": 286,
      "à®Łà®©": 287,
      "à®ķà®°": 288,
      "Ġà®ħà®°": 289,
      "à®¯à®¤": 290,
      "à®¯à®²": 291,
      "Ġà®īà®³": 292,
      "à®¯à®®": 293,
      "à®³à®¤": 294,
      "à®ľ": 295,
      "Ġà®ħà®®": 296,
      "Ġà®¨à®Ł": 297,
      "à®¤à®®": 298,
      "à®µà®©": 299,
      "Ġ1": 300,
      "à®Łà®°": 301,
      "à®¯à®°": 302,
      "à®·": 303,
      "..": 304,
      "Ġà®ªà®Ł": 305,
      "à®©à®¤": 306,
      "Ġà®ĩà®²": 307,
      "Ġà®ħà®©": 308,
      "ĠâĢ": 309,
      "Ġà®Ł": 310,
      "Ġà®ħà®Ł": 311,
      "à®³à®°": 312,
      "Ġà®µà®´": 313,
      "à®¤à®©": 314,
      "Ġ2": 315,
      "à®ŀ": 316,
      "à®°à®¤": 317,
      "Ġà®ªà®²": 318,
      "Ġà®¤à®®": 319,
      "à®¿,": 320,
      "à®²à®®": 321,
      "Ġ(": 322,
      "à®²à®¤": 323,
      "Ġà®ħà®±": 324,
      "Ġà®ķà®£": 325,
      "Ġà®ľ": 326,
      "Ġà®®à®ķ": 327,
      "à¯Ī.": 328,
      "Ġà®ħà®°à®ļ": 329,
      "à®¿.": 330,
      "à®¤à®°": 331,
      "Ġà®µà®¨": 332,
      "à®ķà®²": 333,
      "Ġà®ĩà®©": 334,
      "à®¤à®ª": 335,
      "Ġà®ķà®²": 336,
      "à®ªà®°": 337,
      "Ġà®ħà®µ": 338,
      "à®£à®®": 339,
      "Ġà®ıà®±": 340,
      "Ġà®ħà®¨": 341,
      "Ġà®İà®¤": 342,
      "Ġà®ļà®®": 343,
      "à®¯à®©": 344,
      "à®®à®²": 345,
      "à®Łà®Ļ": 346,
      "Ġà®¤à®©": 347,
      "Ġà®ħà®²": 348,
      "Ġà®ªà®¤": 349,
      "Ġà®Ĩà®£": 350,
      "Ġà®Ĩà®ķ": 351,
      "Ġà®ķà®°": 352,
      "Ġà®¯": 353,
      "Ġà®¤à®²": 354,
      "Ġà®®à®©": 355,
      "Ġà®īà®£": 356,
      "à®ļà®®": 357,
      "Ġà®ªà®ķ": 358,
      "Ġà®ħà®ª": 359,
      "Ġà®ªà®£": 360,
      "Ġà®Ĩà®©": 361,
      "à®ĩ": 362,
      "Ġà®²": 363,
      "à¯Ī,": 364,
      "à®Łà®²": 365,
      "Ġà®īà®°": 366,
      "à®¤à®µ": 367,
      "à®³à®µ": 368,
      "Ġà®İà®Ł": 369,
      "00": 370,
      "Ġà®ªà®°": 371,
      "à®¯à®ª": 372,
      "à®µà®Ł": 373,
      "âĢĻ": 374,
      "Ġà®Ĭ": 375,
      "à®İ": 376,
      "Ġà®®à®°": 377,
      "à®µà®®": 378,
      "Ġà®¨à®®": 379,
      "Ġà®ĵ": 380,
      "à®ħ": 381,
      "Ġà®īà®±": 382,
      "à®ļà®°": 383,
      "à®©à®®": 384,
      "à®¯à®ķ": 385,
      "Ġà®İà®´": 386,
      "à®±à®ª": 387,
      "à®µà®²": 388,
      "Ġà®®à®¤": 389,
      "à®±à®©": 390,
      "Ġà®ļà®°": 391,
      "Ġà®ħà®´": 392,
      "à®Łà®ª": 393,
      "Ġà®¸": 394,
      "Ġà®®à®Ł": 395,
      "à®¤à®ķ": 396,
      "Ġ-": 397,
      "Ġà®ĩà®ª": 398,
      "à®ķà®Ł": 399,
      "Ġà®ħà®£": 400,
      "Ġà®ħà®¤à®©": 401,
      "à®®à®¤": 402,
      "à®®à®©": 403,
      "Ġà®ªà®±": 404,
      "Ġà®İà®²": 405,
      "à®ķà®ķ": 406,
      "Ġà®Ĵà®©": 407,
      "à®°à®ļ": 408,
      "à®Łà®ķ": 409,
      "Ġ\"": 410,
      "à®ķà®´": 411,
      "à®³à®®": 412,
      "Ġà®¤à®°": 413,
      "à®¯à®µ": 414,
      "à®¯à®±": 415,
      "à®²à®ķ": 416,
      "Ġà®ĩà®µà®°": 417,
      "à®±à®ķ": 418,
      "Ġà®®à®£": 419,
      "Ġà®īà®Ļ": 420,
      "à®±à®®": 421,
      "à®Ĩ": 422,
      "à®ļà®©": 423,
      "Ġà®ļà®¨": 424,
      "Ġà®¹": 425,
      "à®°à®£": 426,
      "Ġ'": 427,
      "à®¯à®Ļ": 428,
      "âĢĿ": 429,
      "in": 430,
      "Ġà®¤à®Ł": 431,
      "Ġà®µà®´à®Ļ": 432,
      "ĠâĢĺ": 433,
      "Ġà®µà®ķ": 434,
      "à®ļà®¤": 435,
      "Ġà®ªà®¯à®©": 436,
      "à®ķà®©": 437,
      "Ġà®Ĳ": 438,
      "à®±à®¨": 439,
      "Ġ3": 440,
      "Ġà®Ĩà®Ł": 441,
      "à®´à®¨": 442,
      "ĠâĢľ": 443,
      "à®µà®¤à®±": 444,
      "Ġ20": 445,
      "Ġà®ĩà®¤à®©": 446,
      "à®¤à®µà®°": 447,
      "Ġà®ĩà®°à®£": 448,
      "à®¹": 449,
      "à®´à®ķ": 450,
      "Ġà®ĩà®µ": 451,
      "Ġà®Ī": 452,
      "an": 453,
      "Ġà®¤à®Ļ": 454,
      "à®¾,": 455,
      "Ġà®Ĩà®¯": 456,
      "à®±à®©à®°": 457,
      "Ġà®ªà®¯": 458,
      "Ġà®ļà®Ł": 459,
      "Ġà®Ĩà®°": 460,
      "à®ªà®®": 461,
      "à®°à®£à®®": 462,
      "Ġà®ĩà®£": 463,
      "Ġà®¤à®µ": 464,
      "Ġà®¨à®²": 465,
      "am": 466,
      "à®²à®µ": 467,
      "Ġà®İà®£": 468,
      "Ġà®ħà®Ļ": 469,
      "Ġà®ħà®µà®©": 470,
      "à®¤à®©à®°": 471,
      "Ġà®ħà®³à®µ": 472,
      "Ġà®ķà®¤": 473,
      "Ġà®īà®Ł": 474,
      "Ġà®ĩà®Ł": 475,
      "Ġ19": 476,
      "Ġà®İà®Ļ": 477,
      "à®ªà®©": 478,
      "Ġà®µà®²": 479,
      "à®°à®ª": 480,
      "ĥà®ª": 481,
      "Ġà®¨à®Łà®¤": 482,
      "...": 483,
      "à®±à®µ": 484,
      "Ġà®İà®¨": 485,
      "Ġà®İà®ª": 486,
      "Ġà®µà®Ł": 487,
      "à®³à®©": 488,
      "Ġà®ĩà®±": 489,
      "Ġ5": 490,
      "à®®à®°": 491,
      "Ġà®īà®¤": 492,
      "Ġà®İà®©à®ķ": 493,
      "à®ļà®²": 494,
      "à®ªà®µà®°": 495,
      "Ġà®µà®´à®ķ": 496,
      "at": 497,
      "à®ªà®ķ": 498,
      "er": 499,
      "Ġà®ķà®Łà®¨": 500,
      "à®ķà®ļ": 501,
      "Ġà®¨à®Łà®¨": 502,
      "Ġà®¤à®±": 503,
      "à®³à®©à®°": 504,
      "Ġà®Ĩà®ļ": 505,
      "à®²à®°": 506,
      "Ġ4": 507,
      "il": 508,
      "ĠT": 509,
      "à®µà®ķ": 510,
      "à®¾?": 511,
      "Ġà®¤à®¯": 512,
      "Ġà®īà®¯à®°": 513,
      "à®°à®Ļ": 514,
      "Ġà®Ĭà®°": 515,
      "Ġà®ħà®ķ": 516,
      "à¯įâĢĻ": 517,
      "al": 518,
      "à®µà®ļ": 519,
      "à®°à®°": 520,
      "Ġà®ħà®³": 521,
      "Ġà®īà®¤à®µ": 522,
      "on": 523,
      "Ġà®ħà®µà®³": 524,
      "ar": 525,
      "Ġà®ĩà®¯à®ķ": 526,
      "Ġà®µà®³à®°": 527,
      "à¯ĩ,": 528,
      "Ġà®ĩà®Ļ": 529,
      "Ġà®īà®¯": 530,
      "Ġà®¤à®©à®¤": 531,
      "Ġà®Ĩà®®": 532,
      "à®°à®Ł": 533,
      "or": 534,
      "à¯į)": 535,
      "à®²à®Ļ": 536,
      "âĢ¦": 537,
      "Ġà®¨à®ķà®°": 538,
      "à®ķà®Ļ": 539,
      "à®ķà®£": 540,
      "Ġà®ĵà®Ł": 541,
      "Ġà®¨à®©": 542,
      "Ġà®ħà®¤à®±": 543,
      "ĠâĢĵ": 544,
      "Ġà®ªà®´": 545,
      "Ġà®ļà®ķ": 546,
      "à®¤à®°à®µ": 547,
      "à®©à®µ": 548,
      "Ġà®ªà®Ļ": 549,
      "Ġà®īà®Łà®²": 550,
      "à®Łà®µ": 551,
      "20": 552,
      "à®¾.": 553,
      "à®ªà®¤à®±": 554,
      "Ġà®ªà®³": 555,
      "Ġà®Ĩà®°à®®": 556,
      "es": 557,
      "Ġ201": 558,
      "Ġ|": 559,
      "à¯ĩ.": 560,
      "à®£à®¤": 561,
      "à®°à®²": 562,
      "à®³à®ķ": 563,
      "th": 564,
      "à®¤à®Ļ": 565,
      "à¯į!": 566,
      "à®°à®©": 567,
      "à®²à®ª": 568,
      "à¯ĩà®¾": 569,
      "à¯į'": 570,
      "à®ķà®µà®²": 571,
      "Ġà®ĩà®Łà®®": 572,
      "Ġà®¤à®£": 573,
      "à®£à®ª": 574,
      "Ġà®ħà®ļ": 575,
      "Ġ6": 576,
      "à®ªà®µ": 577,
      "Ġà®īà®£à®°": 578,
      "ÂŃ": 579,
      "âĢĮ": 580,
      "à®ªà®¨": 581,
      "Ġà®İà®®": 582,
      "en": 583,
      "à®ŀà®°": 584,
      "à¯Ĩà®¾": 585,
      "Ġà®ķà®´": 586,
      "à®°à®¸": 587,
      "Ġà®¤à®ķà®µà®²": 588,
      "Ġ7": 589,
      "à®°à®ķ": 590,
      "Ġà®ĩà®Łà®¤": 591,
      "ĠN": 592,
      "Ġà®İà®©à®µ": 593,
      "à®ªà®±": 594,
      "Ġà®Ĩà®±": 595,
      "Ġà®¨à®Łà®µà®Ł": 596,
      "Ġà®īà®Łà®©": 597,
      "Ġà®ıà®©": 598,
      "à®°à®µ": 599,
      "Ġà®ķà®±": 600,
      "à®´à®²": 601,
      "Ġ,": 602,
      "Ġà®Ĵà®ª": 603,
      "Ġà®ķà®®": 604,
      "Ġà®µà®£": 605,
      "Ġà®īà®²à®ķ": 606,
      "à¯į...": 607,
      "Ġà®µà®¯à®¤": 608,
      "amil": 609,
      "Ġà®ªà®Łà®¤": 610,
      "Ġà®®à®²": 611,
      "Ġà®ķà®µ": 612,
      "à®µà®©à®®": 613,
      "Ġà®ĩà®²à®Ļ": 614,
      "à®ī": 615,
      "Ġà®Ĵà®µ": 616,
      "Ġà®īà®²": 617,
      "Ġà®ħà®µà®°à®¤": 618,
      "à®ªà®²": 619,
      "Ġà®Īà®Ł": 620,
      "Ġà®ļà®Ļ": 621,
      "Ġ10": 622,
      "ew": 623,
      "Ġà®īà®£à®µ": 624,
      "à®®à®ķ": 625,
      "à¯į-": 626,
      "à®¯à®Ł": 627,
      "Ġà®²à®Ł": 628,
      "Ġà®ļà®¤": 629,
      "à¯į:": 630,
      "Ġ.": 631,
      "à®ĥà®ª": 632,
      "à®£à®µà®°": 633,
      "Ġà®ĩà®ļ": 634,
      "Ġà®Ĩà®²": 635,
      "à¯į?": 636,
      "ĠP": 637,
      "à®ĩà®¨": 638,
      "Ġà®¤à®¨": 639,
      "à¯į..": 640,
      "Ġà®Ĩà®¤": 641,
      "ĠS": 642,
      "à¯į\"": 643,
      "à®³à®Ļ": 644,
      "Ġà®·": 645,
      "Ġà®ķà®²à®¨": 646,
      "ĠC": 647,
      "à®Łà®©à®°": 648,
      "à®¤à®¨": 649,
      "à®¯à®µà®°": 650,
      "à¯į;": 651,
      "Ġà®ĩà®¤à®±": 652,
      "à®´à®°": 653,
      "Ġà®ľà®©": 654,
      "à®İà®¸": 655,
      "Ġà®µà®ļ": 656,
      "à®·à®©": 657,
      "à®µà®¨": 658,
      "à®®à®£": 659,
      "Ġ8": 660,
      "à®İà®©": 661,
      "Ġà®Ĵà®¤": 662,
      "Ġà®ıà®¤": 663,
      "Ġ200": 664,
      "à¯ĭ,": 665,
      "à¯įâĢĿ": 666,
      "ews": 667,
      "à®³à®ª": 668,
      "ic": 669,
      "st": 670,
      "à®£à®©": 671,
      "Ġà®ĥà®ª": 672,
      "Ġà®ķà®©": 673,
      "à®±à®µà®°": 674,
      "it": 675,
      "à®´à®®": 676,
      "ed": 677,
      "à®Łà®µà®°": 678,
      "à®Ĩà®®": 679,
      "Ġà®ĩà®³": 680,
      "à®ı": 681,
      "à®µà®©à®¤": 682,
      "Ġà®ĩà®²à®ķ": 683,
      "Ġ9": 684,
      "Ġà®ķà®³": 685,
      "Ġà®īà®©": 686,
      "Ġà®µà®°à®²": 687,
      "ĠM": 688,
      "à®±à®²": 689,
      "Ġà®¨à®Łà®ķ": 690,
      "à®ļà®ª": 691,
      "à®ĩà®¤": 692,
      "Ġà®ªà®Łà®®": 693,
      "Ġà®Ĩà®³": 694,
      "Ġà®ĵà®°": 695,
      "ĠTamil": 696,
      "à®µà®³à®µ": 697,
      "ĠA": 698,
      "à®µà®ª": 699,
      "à®ķà®±": 700,
      "Ġà®ļà®ª": 701,
      "om": 702,
      "à®µà®Ļ": 703,
      "à®Ĳ": 704,
      "Ġà®¤à®µà®±": 705,
      "ad": 706,
      "à®£à®Ļ": 707,
      "Ġà®İà®µ": 708,
      "Ġà®µà®°à®µ": 709,
      "Ġà®µà®Ļ": 710,
      "Ġà®ªà®²à®°": 711,
      "Ġà®ĩà®Łà®Ļ": 712,
      "re": 713,
      "''": 714,
      "000": 715,
      "Ġà®¨à®£": 716,
      "à®²à®©": 717,
      "à®£à®°": 718,
      "Ġà®ħà®´à®ķ": 719,
      "à®°à®¤à®®": 720,
      "Ġà®ķà®£à®ķ": 721,
      "à®±à®Ļ": 722,
      "Ġà®ªà®©": 723,
      "à®¤à®Ł": 724,
      "Ġà®ĩà®´": 725,
      "Ġt": 726,
      "ĠNews": 727,
      "Ġà®ħà®µà®±": 728,
      "Ġs": 729,
      "à®©à®µà®°": 730,
      "Ġà®ªà®ļ": 731,
      "à¯Į": 732,
      "à®´à®ķà®¤": 733,
      "Ġà®ªà®¤à®µ": 734,
      "à®¨à®ķà®°": 735,
      "Ġà®Ĩà®¤à®°à®µ": 736,
      "à®Ĵ": 737,
      "le": 738,
      "Ġà®Ĵà®Ł": 739,
      "à®ķà®³à®¤": 740,
      "Ġà®Ĩà®ª": 741,
      "19": 742,
      "Ġà®¤à®ķ": 743,
      "à®¤à®ļ": 744,
      "à®µà®©à®Ļ": 745,
      "à®ªà®Ļ": 746,
      "Ġ15": 747,
      "ĠR": 748,
      "Ġà®īà®±à®µ": 749,
      "ol": 750,
      "Ġc": 751,
      "Ġà®µà®³": 752,
      ".,": 753,
      "Ġà®°à®ļ": 754,
      "Ġà®İà®³": 755,
      "à®ħà®¤": 756,
      "à®ªà®Łà®µ": 757,
      "ai": 758,
      "Ġà®ķà®Łà®²": 759,
      "Ġp": 760,
      "Ġà®®à®ķà®©": 761,
      "),": 762,
      "à®ļà®Ļ": 763,
      "Ġ18": 764,
      "Ġ12": 765,
      "Ġà®ĩà®°à®µ": 766,
      "Ġà®ĩà®¯à®±": 767,
      "Ġà®¤à®³": 768,
      "Ġà®¨à®ķ": 769,
      "Ġà®İà®©à®¤": 770,
      "Ġà®Ĩà®µ": 771,
      "Ġà®İà®°": 772,
      "à¯ģ:": 773,
      "ion": 774,
      "à®¯à®ļ": 775,
      "ou": 776,
      "à¯Ĥ.": 777,
      "à®µà®®à®©": 778,
      "à®ªà®ª": 779,
      "Ġà®µà®ļà®¤": 780,
      "ing": 781,
      "à®İà®²": 782,
      "is": 783,
      "à®Ĩà®°": 784,
      "à®ªà®Łà®¤": 785,
      "Ġà®İà®¸": 786,
      "Ġà®ıà®°": 787,
      "à®ªà®£": 788,
      "Ġà®®à®©à®¤": 789,
      "Ġà®īà®ļ": 790,
      "à®®à®®": 791,
      "as": 792,
      "à®©à®Ļ": 793,
      "Ġà®ªà®£à®®": 794,
      "ĠI": 795,
      "à®¨à®°": 796,
      "à®¯à®µà®±": 797,
      "ĠB": 798,
      "à®°à®¤à®®à®°": 799,
      "Ġà®Ĵà®´": 800,
      "à®©à®ª": 801,
      "Ġ:": 802,
      "Ġà®ĩà®¯à®²": 803,
      "Ġà®¨à®ªà®°": 804,
      "Ġà®®à®´": 805,
      "Ġà®Ĵà®³": 806,
      "à®ľà®©": 807,
      "à®Łà®£": 808,
      "Ġà®ħà®µà®ļ": 809,
      "Ġà®¤à®°à®ª": 810,
      "âĢĭ": 811,
      "Ġà®Ĳà®¨": 812,
      "Ġth": 813,
      "Ġà®īà®ª": 814,
      "Ġà®ļà®¤à®µ": 815,
      "Ġà®Ĩà®Ļ": 816,
      "à¯įÂŃ": 817,
      "à®¯à®¨": 818,
      "Ġà®ħà®®à®°": 819,
      "Ġm": 820,
      "à®ªà®Łà®®": 821,
      "à¯ģà®¾": 822,
      "Ġà®ªà®Łà®Ļ": 823,
      "Ġ[": 824,
      "à®µà®°à®¤": 825,
      "Ġà®ķà®Łà®©": 826,
      "Ġ`": 827,
      "Ġ11": 828,
      "à®ļà®ķ": 829,
      "à®µà®³": 830,
      "el": 831,
      "à®µà®±": 832,
      "à®ªà®°à®ª": 833,
      "Ġin": 834,
      "Ġà®µà®©": 835,
      "à®Łà®±": 836,
      "Ġà®®à®ķà®³": 837,
      "ĠD": 838,
      "à¯įâĢ¦": 839,
      "à®£à®µ": 840,
      "Ġà®ĩà®ķ": 841,
      "Ġb": 842,
      "//": 843,
      "Ġà®ĩà®®": 844,
      "à®¤à®±": 845,
      "à¯ģ?": 846,
      "à®µà®²à®°": 847,
      "ĠL": 848,
      "Ġà®°à®¤": 849,
      "âĢĺ": 850,
      "Ġà®ŀ": 851,
      "Ġà®ıà®´": 852,
      "à¯ģ!": 853,
      "Ġà®ĩà®¸": 854,
      "à®®à®£à®®": 855,
      "Ġf": 856,
      "Ġà®Ĭà®Ł": 857,
      "à®ļà®¨": 858,
      "Ġà®¤à®ª": 859,
      "à®©à®£": 860,
      "Ġà®¨à®®à®ķ": 861,
      "à®ªà®³": 862,
      "Ġ0": 863,
      "Ġà®ĩà®±à®¨": 864,
      "id": 865,
      "à®¾à¯į": 866,
      "à®©à®²": 867,
      "à®°à®³": 868,
      "à®İà®®": 869,
      "Ġà®ªà®¯à®£": 870,
      "à®ļà®¯à®®": 871,
      "à®·à®®": 872,
      "ĠO": 873,
      "à®¤à®ªà®Ł": 874,
      "Ġw": 875,
      "ag": 876,
      "à®Łà®ļ": 877,
      "Ġo": 878,
      "Ġà®ķà®µà®©": 879,
      "ay": 880,
      "Ġà®Īà®°": 881,
      "à®ªà®µà®®": 882,
      "ent": 883,
      "ur": 884,
      "Ġ14": 885,
      "Ġà®ªà®°à®µ": 886,
      "Ġà®ļà®©": 887,
      "Ġ25": 888,
      "and": 889,
      "Ġ30": 890,
      "Ġà®İà®ļ": 891,
      "ac": 892,
      "à®©à®ķ": 893,
      "Ġà®ķà®ª": 894,
      "à®¤à®ķà®®": 895,
      "ĠH": 896,
      "à¯ģ...": 897,
      "Ġà®Ĭà®´": 898,
      "Ġà®°à®¯": 899,
      "ine": 900,
      "Ġà®İà®©à®ª": 901,
      "à®ķà®°à®®": 902,
      "Ġà®¨à®®à®¤": 903,
      "à®³à®²": 904,
      "à®´à®ª": 905,
      "Ġà®ķà®Łà®µ": 906,
      "Ġ16": 907,
      "à®®à®Ļ": 908,
      "Ġà®ĩà®µà®±": 909,
      "à®ľà®°": 910,
      "Ġà®ļà®±": 911,
      "21": 912,
      "Ġà®īà®´": 913,
      "Ġà®ĩà®±à®Ļ": 914,
      "Ġ13": 915,
      "Ġà®µà®Łà®ķ": 916,
      "à¯ģ..": 917,
      "ex": 918,
      "....": 919,
      "à®ķà®°à®©": 920,
      "Ġh": 921,
      "ĠF": 922,
      "Ġà®ªà®´à®ķ": 923,
      "à®Ĵà®°": 924,
      "à®ľà®¯": 925,
      "à®®à®¨": 926,
      "ĠG": 927,
      "à¯ģ)": 928,
      "à®®à®±": 929,
      "Ġ17": 930,
      "Ġà®İà®ķ": 931,
      "à®¤à®©à®®": 932,
      "Ġà®ĩà®¯à®Ļ": 933,
      "et": 934,
      "à¯ĩ!": 935,
      "à®µà®£": 936,
      "Ġà®µà®±": 937,
      "201": 938,
      "Ġà®Ĵà®²": 939,
      "Ġthe": 940,
      "Ġà®ļà®µ": 941,
      "à®ĩà®²": 942,
      "ir": 943,
      "Ġd": 944,
      "Ġà®ļà®²": 945,
      "Ġ50": 946,
      "à®ħà®ª": 947,
      "à¯ģâĢĻ": 948,
      "Ġn": 949,
      "ĠE": 950,
      "Ġà®ķà®µà®©à®®": 951,
      "à®Ĩà®©": 952,
      "à®ķà®©à®µ": 953,
      "30": 954,
      "ĠK": 955,
      "Ġà®ªà®¨": 956,
      "Ġà®ķà®µà®°": 957,
      "à®©à®©": 958,
      "ĠV": 959,
      "ch": 960,
      "Ġà®īà®Łà®©à®Ł": 961,
      "Ġà®ªà®ŀ": 962,
      "Ġ''": 963,
      "Ġof": 964,
      "Ġà®ļà®£": 965,
      "ak": 966,
      "Ġà®¤à®©à®ķ": 967,
      "Ġà®¨à®µ": 968,
      "ia": 969,
      "Ġà®®à®©à®®": 970,
      "à¯ģ;": 971,
      "à®ªà®¯": 972,
      "à®ķà®¨": 973,
      "Ġà®ķà®Łà®±": 974,
      "!!": 975,
      "Ġ199": 976,
      "Ġà®ķà®µà®²": 977,
      "à®¿-": 978,
      "ri": 979,
      "à®µà®´": 980,
      "est": 981,
      "à®ķà®£à®ķ": 982,
      "Ġà®ªà®£à®¤": 983,
      "Ġà®Ĩà®¸": 984,
      "à®¯à®²à®²": 985,
      "Ġà®ªà®°à®ª": 986,
      "--": 987,
      "10": 988,
      "à®¤à®µà®©": 989,
      "à®²à®Ł": 990,
      "Ġ24": 991,
      "à®ļà®Ł": 992,
      "à®£à®ķ": 993,
      "ro": 994,
      "Ġà®ıà®ķ": 995,
      "à®¤à®´": 996,
      "à®µà®°à®Ļ": 997,
      "Ġ100": 998,
      "Ġà®¤à®®à®¤": 999,
      "à®Łà®®à®©": 1000,
      "à®±à®ļ": 1001,
      "Ġ)": 1002,
      "Ãł": 1003,
      "Ġà®ĩà®±à®ķ": 1004,
      "à®·à®¯à®Ļ": 1005,
      "à®ªà®Łà®Ļ": 1006,
      "Ġà®īà®²à®ķà®®": 1007,
      "Ġà®ĵà®¯": 1008,
      "Ġà®ĩà®³à®®": 1009,
      "Ġà®ĩà®´à®¨": 1010,
      "à®®à®Ł": 1011,
      "Ġ/": 1012,
      "Ġà®ĩà®µà®°à®¤": 1013,
      "à®ĩà®©": 1014,
      "un": 1015,
      "à®·à®¯à®®": 1016,
      "à®ªà®°à®®": 1017,
      "50": 1018,
      "ĠâĢĿ": 1019,
      "Ġà®®à®¨": 1020,
      "à®£à®²": 1021,
      "um": 1022,
      "ik": 1023,
      "à®ķà®³à®µ": 1024,
      "av": 1025,
      "à®Łà®¨": 1026,
      "à¯įâĢĮ": 1027,
      "à®ĵ": 1028,
      "ath": 1029,
      "tt": 1030,
      "Ġà®Ĳà®ķ": 1031,
      "Ġà®¤à®¤": 1032,
      "ĠW": 1033,
      "Ġà®ķà®©à®µ": 1034,
      "Ġà®ħà®Łà®Ļ": 1035,
      "à®ļà®©à®®": 1036,
      "Ġà®ļà®ļ": 1037,
      "Ġà®°à®µ": 1038,
      "Ġà®Ĩà®ķà®µ": 1039,
      "à®¿)": 1040,
      "à®ļà®ķà®°": 1041,
      "à®¯à®³": 1042,
      "à®µà®¤à®©": 1043,
      "à®°à®£à®¤": 1044,
      "Ġà®ªà®µ": 1045,
      "à®¯à®£": 1046,
      "Ġà®ħà®ŀ": 1047,
      "oo": 1048,
      "à¯Ī:": 1049,
      "Ġà®ªà®²à®©": 1050,
      "iv": 1051,
      "Ġà®Ĩà®´": 1052,
      "à®ħà®®": 1053,
      "us": 1054,
      "à®³à®µà®°": 1055,
      ").": 1056,
      "ation": 1057,
      "à®¨à®Ł": 1058,
      "Ġà®®à®ļ": 1059,
      "Ġà®°à®ľ": 1060,
      "à®µà®°à®®": 1061,
      "Ġà®Ĵà®±": 1062,
      "Ġk": 1063,
      "à®µà®²à®ķà®¤": 1064,
      "Ġà®ªà®¸": 1065,
      "Ġ21": 1066,
      "à®°à®¨": 1067,
      "à¯ģâĢĿ": 1068,
      "Ġa": 1069,
      "Ġà®ħà®µà®¤": 1070,
      "Ġà®ªà®°à®µà®²": 1071,
      "em": 1072,
      "Ġà®Ĳà®°": 1073,
      "à®¤à®ķà®¤": 1074,
      "Ġà®ªà®²à®®": 1075,
      "à®®à®ª": 1076,
      "Ġà®ħà®Łà®ķ": 1077,
      "Ġ198": 1078,
      "à®Łà®ķà®Ļ": 1079,
      "à®¿âĢĻ": 1080,
      "Ġà®¤à®°à®®": 1081,
      "Ġto": 1082,
      "à®¤à®²à®®": 1083,
      "ind": 1084,
      "Ġà®ķà®Łà®¤": 1085,
      "Ġà®ĩà®´à®ª": 1086,
      "Ġà®Ĭà®±": 1087,
      "Ġà®ķà®Łà®®": 1088,
      "à®°à®£à®Ļ": 1089,
      "à®ķà®µà®°": 1090,
      "Ġà®ªà®¯à®£à®®": 1091,
      "Ġà®µà®¯": 1092,
      "ip": 1093,
      "ct": 1094,
      "à®ľà®ķ": 1095,
      "à®°à®µà®°": 1096,
      "ul": 1097,
      "12": 1098,
      "ĠÂ": 1099,
      "à®ªà®µà®¤": 1100,
      "à®£à®±": 1101,
      "Ġl": 1102,
      "Ġà®ĩà®¤à®´": 1103,
      "Ġà®ªà®¯à®Ļ": 1104,
      "Ġ40": 1105,
      "à¯į.,": 1106,
      "Ġà®ıà®®": 1107,
      "à®²à®ļ": 1108,
      "à®ªà®¤à®©": 1109,
      "à®ħà®µà®°": 1110,
      "à®±à®µà®±": 1111,
      "Ġà®ªà®´à®©": 1112,
      "Â®": 1113,
      "vi": 1114,
      "Ġand": 1115,
      "Ġà®Ĭà®ķ": 1116,
      "Ġà®ķà®®à®²": 1117,
      "à®²à®µà®°": 1118,
      "à®®à®ļ": 1119,
      "à®Łà®³": 1120,
      "Ġà®ªà®´à®Ļ": 1121,
      "à®©à®¨": 1122,
      "Ġà®¤à®°à®µ": 1123,
      "à®±à®°": 1124,
      "ot": 1125,
      "line": 1126,
      "à®ªà®Łà®²": 1127,
      "à®ªà®µà®Ļ": 1128,
      "à¯ģ\"": 1129,
      "ĠIn": 1130,
      "à®·à®¯à®¤": 1131,
      "Ġ22": 1132,
      "Ġà®¨à®°": 1133,
      "Ġà®ķà®£à®µà®°": 1134,
      "Ġà®İà®®à®¤": 1135,
      "à®¿.,": 1136,
      "Ġà®ıà®ª": 1137,
      "à®¿:": 1138,
      "ttp": 1139,
      "Ġ2020": 1140,
      "Ġà®ĩà®°à®¤": 1141,
      "Ġà®°à®©": 1142,
      "à®´à®©": 1143,
      "Ġà®Ĩà®ªà®¤": 1144,
      "://": 1145,
      "Ġ23": 1146,
      "Ġà®®à®²à®°": 1147,
      "Ġ?": 1148,
      "à®¯à®ķà®®": 1149,
      "Ġà®¤à®Łà®µ": 1150,
      "à®¤à®°à®®": 1151,
      "à¯į(": 1152,
      "Ġà®®à®¹": 1153,
      "Ġà®ľà®©à®¨": 1154,
      "Ġà®ħà®°à®Ļ": 1155,
      "ap": 1156,
      "ĠOn": 1157,
      "à®¤à®³": 1158,
      "à®¾...": 1159,
      "ig": 1160,
      "Ġà®ķà®£à®µà®©": 1161,
      "âĢľ": 1162,
      "ĠU": 1163,
      "à¯ĪâĢĻ": 1164,
      "à®°à®®à®£": 1165,
      "à®°à®ªà®²à®®": 1166,
      "à®ķà®©à®Ļ": 1167,
      "Ġà®®à®ŀ": 1168,
      "Ġà®ħà®µà®Ļ": 1169,
      "à®¾..": 1170,
      "à®ªà®ļ": 1171,
      "à¯Ī)": 1172,
      "à®ļà®µ": 1173,
      "Ġà®ħà®¯": 1174,
      "Ġv": 1175,
      "Ġ...": 1176,
      "à¯ģ'": 1177,
      "Ġ26": 1178,
      "Ġà®ķà®ļ": 1179,
      "à®¤à®ķà®Ļ": 1180,
      "Ġà®®à®¯": 1181,
      "à¯ģâĢ¦": 1182,
      "ĠTh": 1183,
      "Ġà®ħà®ķà®±": 1184,
      "Ġ197": 1185,
      "11": 1186,
      "à®²à®²": 1187,
      "Ġà®¤à®³à®¤": 1188,
      "im": 1189,
      "ore": 1190,
      "Ġà®®à®°à®ª": 1191,
      "à¤": 1192,
      "à®´à®¤": 1193,
      "Ġà®ªà®Łà®ķ": 1194,
      "os": 1195,
      "Ġà®īà®²à®ķà®¤": 1196,
      "Ġà®¨à®Łà®ª": 1197,
      "à®ħà®¨": 1198,
      "Ġ27": 1199,
      "Ġà®īà®®": 1200,
      "Ġà®īà®©à®ķ": 1201,
      "ut": 1202,
      "à®ĩà®°": 1203,
      "18": 1204,
      "Ġ28": 1205,
      "Ġ(\"": 1206,
      "à®ħà®Ł": 1207,
      "à®ħà®©": 1208,
      "à®ĩà®ª": 1209,
      "à®³à®Łà®ķ": 1210,
      "à®ļà®³": 1211,
      "à®¤à®°à®°": 1212,
      "Ġà®Ĭà®¤": 1213,
      "Ġà®¨à®²à®©": 1214,
      "Ġà®ħà®²à®Ļ": 1215,
      "à®ķà®´à®ķà®¤": 1216,
      "Ġon": 1217,
      "à®ķà®Łà®²": 1218,
      "Ġà®¨à®±": 1219,
      "à¯ģ-": 1220,
      "200": 1221,
      "à®ªà®µà®©": 1222,
      "Ġà®ĩà®¯à®¨": 1223,
      "Ġà®İà®µà®°": 1224,
      "Ġà®ľà®©à®µà®°": 1225,
      "à®ªà®Łà®ķ": 1226,
      "Ġà®ķà®µà®©à®¤": 1227,
      "à®ķà®ªà®Ł": 1228,
      "Ġà®ķà®·": 1229,
      "com": 1230,
      "Ġà®ªà®°à®ªà®°à®ª": 1231,
      "ow": 1232,
      "Ġà®¹à®°": 1233,
      "Ġ#": 1234,
      "à®¯à®ķà®°": 1235,
      "à¯Ī!": 1236,
      "à®´à®ķà®®": 1237,
      "Ġà®®à®±à®¨": 1238,
      "Ġà®ħà®®à®²": 1239,
      "Ġà®Ĭà®´à®²": 1240,
      "à®²à®¯": 1241,
      "Ġà®ĵà®µ": 1242,
      "Ġ&": 1243,
      "à®ĥ": 1244,
      "Ġà®ªà®²à®µ": 1245,
      "à®¤à®£": 1246,
      "15": 1247,
      "ers": 1248,
      "Ġ196": 1249,
      "Ġà®Ĩà®¤à®°": 1250,
      "à¯Ĩ.": 1251,
      "Ġà®®à®°à®Ļ": 1252,
      "à®©à®Ł": 1253,
      "à®ķà®²à®®": 1254,
      "Ġà®Ĭà®Łà®ķà®Ļ": 1255,
      "Ġà®®à®©à®¨": 1256,
      "Ġà®¨à®µà®®": 1257,
      "à®´à®Ļ": 1258,
      "25": 1259,
      "à®ķà®°à®µ": 1260,
      "Ġà®ĩà®µà®©": 1261,
      "Ġà®Ĭà®°à®Łà®Ļ": 1262,
      "Ġà®ªà®´à®®": 1263,
      "Ġà®¨à®¤": 1264,
      "Ġà®Ĩà®©à®¨": 1265,
      "Ġà®ļà®®à®¯à®¤": 1266,
      "ĠRe": 1267,
      "od": 1268,
      "Ġg": 1269,
      "Ġst": 1270,
      "ph": 1271,
      "à®¾âĢĻ": 1272,
      "à®·à®¤": 1273,
      "Ġà®¨à®ª": 1274,
      "Ġ60": 1275,
      "à®¿'": 1276,
      "Ġà®µà®¤": 1277,
      "Ġà®©": 1278,
      "à®´à®±": 1279,
      "à®µà®°à®©": 1280,
      "Ġ2019": 1281,
      "ment": 1282,
      "ĠâĢĺâĢĺ": 1283,
      "Ġà®ķà®¤à®µ": 1284,
      "ĠJ": 1285,
      "à®²à®ķà®Ł": 1286,
      "Ġà®ªà®°à®®": 1287,
      "à®¯à®°à®ļ": 1288,
      "Ġà®ļà®®à®°": 1289,
      "à¯ĩ?": 1290,
      "og": 1291,
      "à®©à®ļ": 1292,
      "à¯į''": 1293,
      "Ġà®®à®Ļ": 1294,
      "ess": 1295,
      "Ġà®¤à®ŀ": 1296,
      "Ġà®ĩà®°à®Ł": 1297,
      "à®ªà®ķà®®": 1298,
      "Ġà®ªà®¯à®®": 1299,
      "Ġre": 1300,
      "Ġ{": 1301,
      "à¯Ģ.": 1302,
      "à®ļà®©à®Ļ": 1303,
      "ta": 1304,
      "ith": 1305,
      "à®¯à®ķà®¤": 1306,
      "old": 1307,
      "à®¾!": 1308,
      "à®ļà®°à®µ": 1309,
      "à®Łà®£à®®": 1310,
      "40": 1311,
      "à®®à®¤à®®": 1312,
      "Ġ29": 1313,
      "Ġà®®à®©à®ļ": 1314,
      "Ġ2011": 1315,
      "ĠOnline": 1316,
      "à®¿!": 1317,
      "ttps": 1318,
      "Ġà®ľà®®": 1319,
      "Ġà®İà®Łà®ª": 1320,
      "Ġà®°à®®": 1321,
      "ĠâĢĭ": 1322,
      "Ġà®®à®°à®£à®®": 1323,
      "ov": 1324,
      "à¯įâĢĭ": 1325,
      "Ġ*": 1326,
      "Ġtamil": 1327,
      "Ġà®®à®°à®¤": 1328,
      "Ùİ": 1329,
      "Ġà®°à®·": 1330,
      "Ġà®¨à®ķà®°à®®": 1331,
      "à®ĩà®¤à®©": 1332,
      "ate": 1333,
      "à¯į),": 1334,
      "ies": 1335,
      "Ġà®ļà®®à®¯à®®": 1336,
      "à®¤à®°à®ª": 1337,
      "à®°à®¯": 1338,
      "Ġà®ħà®¸": 1339,
      "Ġà®Ĩà®¨": 1340,
      "à®ĩà®µ": 1341,
      "Ġà®µà®°à®®": 1342,
      "17": 1343,
      "Ġà®īà®³à®µ": 1344,
      "à®ªà®°à®Ļ": 1345,
      "ab": 1346,
      "oc": 1347,
      "Ġà®ĩà®¯": 1348,
      "à®¯à®¸": 1349,
      "ĠCh": 1350,
      "Ġà®¨à®Łà®©": 1351,
      "âĢĻâĢĻ": 1352,
      "à®²à®¨": 1353,
      "Ġ2021": 1354,
      "ist": 1355,
      "ost": 1356,
      "à®¯à®ªà®Ł": 1357,
      "Ġà®ħà®µà®ļà®°": 1358,
      "ce": 1359,
      "Ġà®ķà®³à®®": 1360,
      "Ġr": 1361,
      "à®īà®Ļ": 1362,
      "ter": 1363,
      "]]": 1364,
      "op": 1365,
      "à®¯à®³à®µ": 1366,
      "à®ľà®ªà®ķ": 1367,
      "Ġ+": 1368,
      "Â®Â": 1369,
      "à®°à®ªà®²": 1370,
      "Ġà®µà®£à®Ļ": 1371,
      "all": 1372,
      "Ġà®ªà®±à®µ": 1373,
      "à®¿ÂŃ": 1374,
      "à®ķà®Łà®¨": 1375,
      "à¯Ī;": 1376,
      "à®ľà®®": 1377,
      "org": 1378,
      "à®ħà®²": 1379,
      "16": 1380,
      "à®£à®¯": 1381,
      "Ġà®¨à®ķà®°à®¤": 1382,
      "Ġà®µà®°à®ª": 1383,
      "art": 1384,
      "à®ķà®®à®¤": 1385,
      "13": 1386,
      "Ġ!": 1387,
      "à®®à®£à®¤": 1388,
      "âĢĵ": 1389,
      "Ġâ": 1390,
      "à¯į.âĢĿ": 1391,
      "24": 1392,
      "ww": 1393,
      "à®¿...": 1394,
      "à®Ī": 1395,
      "adu": 1396,
      "à®¤à®³à®Ļ": 1397,
      "à®¤à®³à®¤": 1398,
      "ud": 1399,
      "Ġà®ªà®¯à®£à®¤": 1400,
      "à®Łà®Ł": 1401,
      "à®¯à®ķà®©": 1402,
      "Ġà®Ĩà®©à®¤": 1403,
      "Ġà®¨à®ķà®°à®Ļ": 1404,
      "Ġ195": 1405,
      "à®¯à®µà®¨": 1406,
      "14": 1407,
      "ome": 1408,
      "Ġà®¤à®´": 1409,
      "Ġà®ħà®µà®©à®¤": 1410,
      "à¯ĩ...": 1411,
      "Ġà®®à®¤à®¤": 1412,
      "à®³à®¸": 1413,
      "Ġà®İà®±": 1414,
      "à®©à®¸": 1415,
      "Ġà®ªà®Łà®ª": 1416,
      "Ġà®īà®Łà®®": 1417,
      "Ġà®ķà®²à®ķ": 1418,
      "Ġà®ľà®ª": 1419,
      "99": 1420,
      "à¯Ī...": 1421,
      "Ġà®ķà®²à®µ": 1422,
      "Ġà®®à®¤à®®": 1423,
      "Ġ[[": 1424,
      "à®¿..": 1425,
      "Ġà®ħà®ľ": 1426,
      "Ġ2017": 1427,
      "Ġ2016": 1428,
      "Ġà®ĩà®©à®¤": 1429,
      "Ġ194": 1430,
      "ĠâĢ¦": 1431,
      "Ġà®Ĳà®ª": 1432,
      "Ġà®ķà®Ļ": 1433,
      "Ġ``": 1434,
      "à®ķà®©à®¤": 1435,
      "Ġà®±": 1436,
      "à¯Ī\"": 1437,
      "à®¸à®²": 1438,
      "à®ķà®Łà®©": 1439,
      "Ġà®¨à®¨": 1440,
      "22": 1441,
      "à®ħà®°à®ļ": 1442,
      "à®¿\"": 1443,
      "Ġà®¨à®ļ": 1444,
      "Ġ31": 1445,
      "à®µà®²à®ķà®®": 1446,
      "Ġ2018": 1447,
      "ma": 1448,
      "our": 1449,
      "ĠâĢĻ": 1450,
      "à¯Ī-": 1451,
      "Ġ..": 1452,
      "ric": 1453,
      "Ġà®īà®ªà®¯": 1454,
      "Ġà®Ĩà®ķà®¸": 1455,
      "Ġ35": 1456,
      "à¯ĭ.": 1457,
      "Ġfor": 1458,
      "60": 1459,
      "ang": 1460,
      "Ġà®¤à®ļ": 1461,
      "à®µà®ļà®®": 1462,
      "à¯į.[": 1463,
      "Ġà®ªà®²à®¤": 1464,
      "Ġà®°à®ķ": 1465,
      "à¯Ī'": 1466,
      "à®±à®³": 1467,
      "Ġ2014": 1468,
      "à®ķà®³à®ª": 1469,
      "Ġà®İà®¤à®±": 1470,
      "Ġ2015": 1471,
      "https": 1472,
      "à®ħà®°": 1473,
      "Ġà®ļà®ŀ": 1474,
      "à¯Ī..": 1475,
      "à¯ĪâĢĿ": 1476,
      "Ġà®¤à®³à®ªà®¤": 1477,
      "à®Ĭ": 1478,
      "Ġà®ĩà®²à®µà®ļ": 1479,
      "Ġà®ħà®µà®³à®¤": 1480,
      "iy": 1481,
      "à®³à®ļ": 1482,
      "wik": 1483,
      "à®Łà®ķà®®": 1484,
      "à®¤à®³à®µ": 1485,
      "Ġà®Ĩà®´à®®": 1486,
      "à®¨à®²": 1487,
      "à®ļà®£": 1488,
      "Ġà®ķà®´à®ķà®¤": 1489,
      "à®®à®³à®µ": 1490,
      "Ġ500": 1491,
      "Ġà®°à®ķà®ļ": 1492,
      "à®ķà®©à®®": 1493,
      "Ġà®ĩà®±à®ª": 1494,
      "Ġà®®à®£à®²": 1495,
      "Ġ80": 1496,
      "à¯į....": 1497,
      "Ġà®ªà®¯à®©à®°": 1498,
      "à®²à®£": 1499,
      "Ġà®īà®¯à®°à®®": 1500,
      "à®µà®°à®°": 1501,
      "à®¨à®®": 1502,
      "Ġà®ķà®¨": 1503,
      "à®ªà®´": 1504,
      "à®¯à®µà®©": 1505,
      "à®¾'": 1506,
      "tit": 1507,
      "Ġà®Īà®´à®¤": 1508,
      "ec": 1509,
      "edia": 1510,
      "ub": 1511,
      "atest": 1512,
      "à®ļà®©à®¤": 1513,
      "à®İà®Ļ": 1514,
      "à®®à®¸": 1515,
      "à®¯à®²à®°": 1516,
      "23": 1517,
      "ra": 1518,
      "à®ķà®´à®ķ": 1519,
      "Ġ70": 1520,
      "à®¤à®°à®©": 1521,
      "Ġà®Ĩà®µà®£à®Ļ": 1522,
      "Ġà®ĩà®²à®Ł": 1523,
      "Ġà®ªà®ķà®²": 1524,
      "Ġà®Ĩà®ĥà®ª": 1525,
      "Ġà®ĵà®µà®°": 1526,
      "à®ķà®°à®¤": 1527,
      "Ġis": 1528,
      "Ġà®µà®Łà®®": 1529,
      "à¯ģ.[": 1530,
      "à®±à®ªà®Ł": 1531,
      "----": 1532,
      "Ġà®®à®±à®ķ": 1533,
      "à®²à®³": 1534,
      "à®ķà®¸": 1535,
      "à¯įâĢĻâĢĻ": 1536,
      "Ġà®ħà®ķà®¤": 1537,
      "Ġà®ªà®¤à®±": 1538,
      "à®Łà®ļà®ª": 1539,
      "eb": 1540,
      "Ġ2009": 1541,
      "title": 1542,
      "ive": 1543,
      "Ġà®ķà®©à®Ł": 1544,
      "à®¾à¯į.": 1545,
      "php": 1546,
      "à®²à®ķà®®": 1547,
      "ĠÂ·": 1548,
      "Ġà®¤à®³à®°": 1549,
      "Ġ//": 1550,
      "à®¤à®¤à®±": 1551,
      "Ġà®¤à®³à®®": 1552,
      "Ġà®ĵà®°à®³à®µ": 1553,
      "index": 1554,
      "Ġà®īà®Łà®±": 1555,
      "ort": 1556,
      "if": 1557,
      "ly": 1558,
      "Ġà®ļà®°à®£": 1559,
      "up": 1560,
      "à®ªà®ķà®¤": 1561,
      "80": 1562,
      "à®ħà®¤à®©": 1563,
      "Ġ45": 1564,
      "ous": 1565,
      "à®¤à®µà®³": 1566,
      "Ġà®®à®£à®®": 1567,
      "27": 1568,
      "Ġà®ĩà®©à®®": 1569,
      "à®ħà®µ": 1570,
      "Ġà®µà®®": 1571,
      "à®ļà®ķà®®": 1572,
      "Ġà®®à®°à®®": 1573,
      "Ġy": 1574,
      "à®¤à®³à®®": 1575,
      "à®¯à®®à®Ł": 1576,
      "oldid": 1577,
      "à®ŀà®©": 1578,
      "à®ĩà®µà®°": 1579,
      "Ġà®ķà®³à®¤": 1580,
      "à®°à®°à®ļ": 1581,
      "à®¤à®¯": 1582,
      "à®ªà®³à®®": 1583,
      "??": 1584,
      "à®±à®µà®©": 1585,
      "Ġà®¤à®°à®¤": 1586,
      "Ġ90": 1587,
      "ide": 1588,
      "Ġà®®à®Łà®Ļ": 1589,
      "à®¹à®®": 1590,
      "Ġà®ªà®±à®ķ": 1591,
      "ĠCom": 1592,
      "à¯į).": 1593,
      "Ġà®ħà®ªà®°": 1594,
      "ook": 1595,
      "Ġà®īà®¯à®°à®¤": 1596,
      "ĠâĢĭâĢĭ": 1597,
      "ht": 1598,
      "à®Łà®ķà®¤": 1599,
      "à®Łà®µà®©": 1600,
      "Ġe": 1601,
      "\")": 1602,
      "Ġà®Ĳà®¯": 1603,
      "Ġà®µà®²à®¤": 1604,
      "Ġà®¨à®²à®®": 1605,
      "à®¤à®©à®¤": 1606,
      "à®¯à®°à®Ļ": 1607,
      "Ġà®īà®ķ": 1608,
      "à®Łà®¯à®Ļ": 1609,
      "26": 1610,
      "à®Łà®¯à®®": 1611,
      "Ġà®ħà®°à®ª": 1612,
      "ĠInd": 1613,
      "35": 1614,
      "Ġà®ĩà®©à®ª": 1615,
      "à¯į/": 1616,
      "Ġà®Ĵà®£": 1617,
      "ill": 1618,
      "28": 1619,
      "à®İà®ª": 1620,
      "45": 1621,
      "ram": 1622,
      "ank": 1623,
      "à®ķà®´à®ķà®®": 1624,
      "à®²à®±": 1625,
      "2020": 1626,
      "à®ªà®°à®¤": 1627,
      "Ġà®²à®ķ": 1628,
      "ipedia": 1629,
      "ity": 1630,
      "à®®à®ķà®©": 1631,
      "Ġà®µà®¯à®²": 1632,
      "à®İà®©à®ķ": 1633,
      "wikipedia": 1634,
      "Ġ2013": 1635,
      "à®µà®¯à®¤": 1636,
      "Ġà®ªà®¯à®¨": 1637,
      "Ġà®ļà®®à®®": 1638,
      "Ġà®ħà®Łà®°": 1639,
      "Ġà®®à®°à®£à®¤": 1640,
      "ĠMore": 1641,
      "Ġà®¤à®ķà®°": 1642,
      "à®ľà®¯à®ķ": 1643,
      "à®¾âĢ¦": 1644,
      "Ġà®ħà®°à®£": 1645,
      "Ġà®ªà®°à®¨": 1646,
      "Ġà®Łà®©": 1647,
      "2021": 1648,
      "à®ķà®³à®®": 1649,
      "à®µà®°à®µ": 1650,
      "Ġà®ĩà®©à®Ļ": 1651,
      "à®©à®ķà®°à®©": 1652,
      "à®´à®µ": 1653,
      "Ġ2008": 1654,
      "ell": 1655,
      "29": 1656,
      "à¯ĭ?": 1657,
      "ĠSt": 1658,
      "uth": 1659,
      "à®Łà®²à®¤": 1660,
      "are": 1661,
      "ĠLatest": 1662,
      "Ġà®ĩà®²à®µà®ļà®®": 1663,
      "ish": 1664,
      "à®¾-": 1665,
      "à®Ĩà®ķ": 1666,
      "ian": 1667,
      "à¯į_": 1668,
      "à®µà®ķà®Ļ": 1669,
      "Ø§": 1670,
      "Ġà®ªà®ķà®µ": 1671,
      "Ġà®ĩà®µà®³": 1672,
      "à®¾\"": 1673,
      "Ġà®ĩà®³à®µà®°": 1674,
      "Ġà®īà®²à®ķà®ª": 1675,
      "Ġà®ļà®°à®ķ": 1676,
      "à®²à®¸": 1677,
      "à®±à®Ł": 1678,
      "ry": 1679,
      "act": 1680,
      "ĠY": 1681,
      "end": 1682,
      "Ġà®ķà®´à®ķà®®": 1683,
      "Ġwith": 1684,
      "à®©à®ļà®°": 1685,
      "Ġ300": 1686,
      "à¯ģÂŃ": 1687,
      "Ġà®®à®©à®ª": 1688,
      "70": 1689,
      "à¯ĩ..": 1690,
      "à®İà®¤": 1691,
      "Ġà®®à®°à®£": 1692,
      "à®¸à®°": 1693,
      "Ġà®¤à®³à®Ļ": 1694,
      "Ġà®µà®³à®®": 1695,
      "ĠâĨ": 1696,
      "Ġà®ħà®°à®ļà®©": 1697,
      "à®±à®´": 1698,
      "Ġ=": 1699,
      "Ġ2012": 1700,
      "Ġà®¨à®°à®®": 1701,
      "500": 1702,
      "nd": 1703,
      "Ġà®®à®¯à®ķ": 1704,
      "âĢ¦]": 1705,
      "à®µà®²à®®": 1706,
      "à®ľà®¸": 1707,
      "Ġà®²à®£": 1708,
      "à®¤à®©à®Ļ": 1709,
      "age": 1710,
      "à®µà®°à®ª": 1711,
      "he": 1712,
      "Ġà®³": 1713,
      "Ġ2010": 1714,
      "à®¿?": 1715,
      "à®Łà®ªà®¤": 1716,
      "Ġà®ķà®ŀ": 1717,
      "à®°à®®à®®": 1718,
      "à®ħà®£": 1719,
      "36": 1720,
      "\",": 1721,
      "Ġà®¯à®¤": 1722,
      "Ġà®ĩà®´à®ķ": 1723,
      "à®ļà®®à®¯à®®": 1724,
      "à®£à®ļ": 1725,
      "Ġà®µà®¯à®ļ": 1726,
      "à®¾?âĢĿ": 1727,
      "¯Â": 1728,
      "Ġà®ªà®±à®¨": 1729,
      "Â¯Â": 1730,
      "ite": 1731,
      "Ġà®İà®©à®ļ": 1732,
      "ĠHome": 1733,
      "Ġ2006": 1734,
      "à®©à®ŀ": 1735,
      "âĢĺâĢĺ": 1736,
      "ory": 1737,
      "à¯Ī?": 1738,
      "à®¤à®°à®Ļ": 1739,
      "Ġ36": 1740,
      "ant": 1741,
      "à®°à®ķà®®": 1742,
      "à®ļà®¯": 1743,
      "ÙĴ": 1744,
      "Ġà®¨à®³": 1745,
      "Ġà®ıà®µ": 1746,
      "Ġà®ļà®Łà®Ļ": 1747,
      "ast": 1748,
      "à®°à®´": 1749,
      "Ġà®µà®£à®ķ": 1750,
      "Ġà®ķà®´à®ķ": 1751,
      "Ġà®ķà®¯": 1752,
      "ru": 1753,
      "01": 1754,
      "Ġ2007": 1755,
      "Ġà®Ĳà®Ł": 1756,
      "Ġà®¤à®®à®ķ": 1757,
      "Ġà®İà®ŀ": 1758,
      "Ġà®¨à®Łà®°": 1759,
      "Ġà®ħà®°à®ļà®°": 1760,
      "à®°à®ķà®¤": 1761,
      "à®īà®³": 1762,
      "à®·à®©à®°": 1763,
      "à®ĩà®²à®Ļ": 1764,
      "à®ķà®±à®¤": 1765,
      "ber": 1766,
      "à®ªà®¸": 1767,
      "à®¤à®ķà®°": 1768,
      "Ġà®Ĩà®µà®¤": 1769,
      "à®ĩà®Ļ": 1770,
      "][": 1771,
      "à®µà®£à®©": 1772,
      "Ġà®µà®µ": 1773,
      "ice": 1774,
      "Ġà®İà®¯": 1775,
      "à®¤à®¸": 1776,
      "90": 1777,
      "Ġà®¤à®¯à®Ļ": 1778,
      "Ġà®ĵà®ļ": 1779,
      "Ġà®µà®ļà®¨": 1780,
      "Ġà®ħà®µà®ļà®°à®®": 1781,
      "ary": 1782,
      "Ġà®ļà®ķà®²": 1783,
      "37": 1784,
      "à®©à®µà®©": 1785,
      "Ġà®Ĩà®ľà®°": 1786,
      "ee": 1787,
      "Ġà®ħà®²à®ķ": 1788,
      "à®ħà®±": 1789,
      "ard": 1790,
      "Ġà®µà®²à®®": 1791,
      "out": 1792,
      "à®®à®ķà®³": 1793,
      "nadu": 1794,
      "à®°à®µà®¤": 1795,
      "Ġ75": 1796,
      "31": 1797,
      "ect": 1798,
      "Ġ2000": 1799,
      "ff": 1800,
      "à®¿âĢĿ": 1801,
      "Ġ32": 1802,
      "à®ĩà®¤à®±": 1803,
      "Ġà®µà®©à®¤": 1804,
      "ann": 1805,
      "à®ªà®³à®µ": 1806,
      "Ġà®Īà®¸": 1807,
      "Ġà®ķà®²à®ª": 1808,
      "à®¯à®²à®®": 1809,
      "ont": 1810,
      "Ġà®Ĩà®²à®¯à®¤": 1811,
      "Ġà®¨à®²à®¤": 1812,
      "ĠTag": 1813,
      "ĠPost": 1814,
      "Ġà®īà®¤à®Ł": 1815,
      "39": 1816,
      "ĠThe": 1817,
      "à®¹à®°": 1818,
      "à¯į.\"": 1819,
      "Ġà®īà®²à®°": 1820,
      "Ġ150": 1821,
      "Ġ[âĢ¦]": 1822,
      "att": 1823,
      "Ġà®ªà®¯à®ª": 1824,
      "Ġà®ļà®®à®¯à®Ļ": 1825,
      "ial": 1826,
      "à®¾)": 1827,
      "à®®à®²à®°": 1828,
      "Ġsex": 1829,
      "à®²à®¯à®¤": 1830,
      "Ġà®ħà®µà®®": 1831,
      "ear": 1832,
      "38": 1833,
      "ah": 1834,
      "Ġà®Ĳà®®": 1835,
      "02": 1836,
      "ext": 1837,
      "à®°à®±": 1838,
      "Ġà®ķà®©à®®": 1839,
      "AA": 1840,
      "qu": 1841,
      "ail": 1842,
      "Ġà®Ĳà®¸": 1843,
      "pl": 1844,
      "75": 1845,
      "à®ªà®ķà®²": 1846,
      "Ġà®ªà®²à®ķ": 1847,
      "ÙĦ": 1848,
      "ĠRs": 1849,
      "à¯į..!": 1850,
      "ev": 1851,
      "Ġà®¨à®Łà®®": 1852,
      "à®¤à®¤à®©": 1853,
      "à®Łà®¤à®±": 1854,
      "à®²à®ķà®¤": 1855,
      "Ġà®ķà®²à®Ļ": 1856,
      "à®£à®®à®Ł": 1857,
      "iz": 1858,
      "à®¾âĢĿ": 1859,
      "gal": 1860,
      "à®¾ÂŃ": 1861,
      "Ġ;": 1862,
      "ðŁ": 1863,
      "Ġà®ħà®ķà®°": 1864,
      "Ġà®¨à®·": 1865,
      "44": 1866,
      "Ġ2005": 1867,
      "à®¯à®£à®©": 1868,
      "Ġà®®à®°à®ķ": 1869,
      "âĢį": 1870,
      "Ġà®ħà®±à®ķ": 1871,
      "Ġà®ľà®²": 1872,
      "à®ħà®ķ": 1873,
      "ood": 1874,
      "à®Łà®©à®®": 1875,
      "Ġà®²à®ŀ": 1876,
      "Ġch": 1877,
      "Ġà®ĩà®³à®Ļ": 1878,
      "Ġà®ĩà®©à®µ": 1879,
      "à®Łà®ªà®Ł": 1880,
      "Ġà®ªà®µà®°": 1881,
      "Ġà®ľà®©à®¤": 1882,
      "à®Ĩà®£": 1883,
      "à®Łà®²à®®": 1884,
      "à®¯à®²à®±": 1885,
      "05": 1886,
      ">>": 1887,
      "à®ľà®ķà®µ": 1888,
      "Ġcom": 1889,
      "ld": 1890,
      "Ġà®Łà®µ": 1891,
      "Ġà®ªà®£à®ķ": 1892,
      "ress": 1893,
      "à®³à®±": 1894,
      "à®·à®Ļ": 1895,
      "Ġà®ªà®®": 1896,
      "à®¨à®ªà®°": 1897,
      "ain": 1898,
      "à®ļà®²à®®": 1899,
      "Ġà®Ĩà®ªà®°": 1900,
      "Ġ33": 1901,
      "uk": 1902,
      "à¯ĩâĢĻ": 1903,
      "à®İà®ĥà®ª": 1904,
      "Ġà®µà®°à®ķ": 1905,
      "\":": 1906,
      "Ġà®ħà®²à®Ł": 1907,
      "Ġà®īà®ªà®ķà®°": 1908,
      "à®°à®ľ": 1909,
      "à®µà®²à®ķ": 1910,
      "Ġà®Ĳà®¤à®°": 1911,
      "à¯į]]": 1912,
      "Ġ48": 1913,
      "à®ªà®£à®®": 1914,
      "Ġà®Łà®ª": 1915,
      "Ġby": 1916,
      "à®īà®¤": 1917,
      "49": 1918,
      "Ġà®ļà®°à®¤": 1919,
      "ĠIndia": 1920,
      "ĠTamilnadu": 1921,
      "à¥": 1922,
      "Ġà®ķà®Łà®ķ": 1923,
      "Ġà®ĩà®¤à®¯à®¤": 1924,
      "à®Łà®¸": 1925,
      "Ġà®µà®°à®¤": 1926,
      "à®£à®µà®©": 1927,
      "ÙĲ": 1928,
      "Ġà®ıà®Ł": 1929,
      "pp": 1930,
      "à®ķà®¯": 1931,
      "Ġà®ħà®µà®°à®µà®°": 1932,
      "à®µà®´à®ķ": 1933,
      "ĠAn": 1934,
      "à®İà®ļ": 1935,
      "34": 1936,
      "pt": 1937,
      "à®Łà®¯à®¤": 1938,
      "à®ĩà®°à®£": 1939,
      "09": 1940,
      "à®¤à®®à®Ł": 1941,
      "à·": 1942,
      "à®®à®¯": 1943,
      "à®³à®Ł": 1944,
      "à®¨à®Łà®¤": 1945,
      "ack": 1946,
      "Ġà®ħà®ļà®²": 1947,
      "Ġà®°à®Ļ": 1948,
      "à®¯à®¤à®±": 1949,
      "à¶": 1950,
      "à®°à®¹": 1951,
      "Ġwh": 1952,
      "Ġà®¤à®°à®ķ": 1953,
      "à¯į!''": 1954,
      "Ġà®īà®²à®ķà®ķ": 1955,
      "à®Łà®£à®¤": 1956,
      "à¯įâĢ¦.": 1957,
      "Ġà®İà®®à®ķ": 1958,
      "athai": 1959,
      "Ġà®¨à®Łà®©à®®": 1960,
      "Ġ2004": 1961,
      "à®¿âĢ¦": 1962,
      "ĠComment": 1963,
      "à®Ĩà®¯": 1964,
      "à®·à®²": 1965,
      "Ġà®ªà®²à®ª": 1966,
      "ories": 1967,
      "03": 1968,
      "rom": 1969,
      "Ġà®ĩà®¤à®°": 1970,
      "à¯į}": 1971,
      "Ġ37": 1972,
      "à®īà®²à®ķ": 1973,
      "ob": 1974,
      "à®²à®¯à®®": 1975,
      "2019": 1976,
      "anch": 1977,
      "Ġ65": 1978,
      "à®ħà®µà®©": 1979,
      "à®ļà®±": 1980,
      "Ġ38": 1981,
      "Ġà®ıà®¨": 1982,
      "ĠRead": 1983,
      "Ġà®°à®ŀ": 1984,
      "07": 1985,
      "Ġ400": 1986,
      "ong": 1987,
      "à®ļà®¸": 1988,
      "08": 1989,
      "ord": 1990,
      "à®ļà®ļ": 1991,
      "Ġ34": 1992,
      "ĠÂ»": 1993,
      "à¯Ĭ.": 1994,
      "Ġ1000": 1995,
      "ass": 1996,
      "ĠPre": 1997,
      "ach": 1998,
      "ead": 1999,
      "à®©à®°à®²": 2000,
      "à¯ĪâĢ¦": 2001,
      "32": 2002,
      "Ġà®®à®ķà®¤": 2003,
      "à®ıà®©": 2004,
      "aj": 2005,
      "à®¿(": 2006,
      "à®¯à®®à®°": 2007,
      "à®°à®®à®¤": 2008,
      "Ġj": 2009,
      "Ġà®ļà®®à®¨": 2010,
      "65": 2011,
      "à®¤à®°à®¤": 2012,
      "Ġà®ªà®¯à®£à®Ļ": 2013,
      "à®Łà®µà®£": 2014,
      "Ġà®ĥà®ªà®£": 2015,
      "Ġà®ľà®µ": 2016,
      "ug": 2017,
      "à®¾?âĢĻ": 2018,
      "ef": 2019,
      "à®ķà®µà®©": 2020,
      "à®µà®²à®ķà®Ļ": 2021,
      "ue": 2022,
      "à®°à®ļà®©": 2023,
      "Ġà®īà®ªà®ķà®°à®£à®Ļ": 2024,
      "à®¾à®¾à¯į": 2025,
      "Ġà®ķà®¸": 2026,
      "Ġà®īà®²à®ķà®³": 2027,
      "ST": 2028,
      "ark": 2029,
      "à¯į.(": 2030,
      "Ġ55": 2031,
      "ated": 2032,
      "one": 2033,
      "33": 2034,
      "aking": 2035,
      "à®·à®°": 2036,
      "Ġà®¹à®µ": 2037,
      "Ġà®ħà®°à®µ": 2038,
      "Ġà®Ĵà®ķ": 2039,
      "Ġà®ļà®®à®¯": 2040,
      "Ġà®Ĩà®²à®¯à®®": 2041,
      "Ġà®ªà®ª": 2042,
      "95": 2043,
      "ure": 2044,
      "à®¿;": 2045,
      "à®²à®µà®´": 2046,
      "ĠPro": 2047,
      "Ġà®®à®µ": 2048,
      "Ġà®ĵà®¤": 2049,
      "à®£à®¯à®®": 2050,
      "à®²à®ªà®®": 2051,
      "04": 2052,
      "Ġà®ķà®²à®°": 2053,
      "à®Ĵà®¤": 2054,
      "inema": 2055,
      "Ġà®ĵà®ķ": 2056,
      "à®¤à®²à®°": 2057,
      "à®ĩà®±": 2058,
      "à®Ĩà®µà®¤": 2059,
      "06": 2060,
      "Ġà®¤à®¯à®µ": 2061,
      "Ġà®ĩà®°à®ļ": 2062,
      "à¯ĩâĢ¦": 2063,
      "Ġà®ªà®¯à®¤": 2064,
      "à®¯à®¤à®³à®¤": 2065,
      "Ġà®ħà®ļà®¤": 2066,
      "alai": 2067,
      "à®ķà®²à®©": 2068,
      "Ġà®īà®±à®Ļ": 2069,
      "à®®à®£à®°": 2070,
      "à®ªà®Łà®ª": 2071,
      "Ġà®īà®ķà®¨": 2072,
      "à®¤à®µà®±": 2073,
      "Ġà®°à®£": 2074,
      "48": 2075,
      "pd": 2076,
      "ical": 2077,
      "Ġà®īà®¨": 2078,
      "ere": 2079,
      "à®ªà®¯à®©": 2080,
      "Ġà®Ĩà®µà®²": 2081,
      "Ġà®ĵà®²": 2082,
      "Ġà®Ĭà®ļ": 2083,
      "vious": 2084,
      "Ġ....": 2085,
      "und": 2086,
      "ayat": 2087,
      "Ġà®ķà®ľ": 2088,
      "__": 2089,
      "tamil": 2090,
      "Ġà®µà®ļà®®": 2091,
      "Ġà®Ĭà®Łà®ķ": 2092,
      "Ġà®ħà®µà®ķ": 2093,
      "ran": 2094,
      "à®ħà®Ļ": 2095,
      "à®¨à®µ": 2096,
      "ĠPanch": 2097,
      "à®¿âĢĭ": 2098,
      "à®¯à®¤à®©": 2099,
      "à®Łà®ªà®®": 2100,
      "à®³à®¨": 2101,
      "Ġà®ħà®·": 2102,
      "Ġà®ĩà®ŀ": 2103,
      "à®·à®ª": 2104,
      "Vi": 2105,
      "à®¯à®ķà®ª": 2106,
      "à®ķà®Łà®µ": 2107,
      "Ġà®µà®°à®µà®´": 2108,
      "Ġbe": 2109,
      "Ġà®µà®³à®Ļ": 2110,
      "ĠGram": 2111,
      "47": 2112,
      "Ġà®Ĩà®Łà®®": 2113,
      "Ġnews": 2114,
      "Ġà®®à®ķà®°": 2115,
      "Ġà®¤à®¯à®ķ": 2116,
      "à®ľà®ª": 2117,
      "98": 2118,
      "==": 2119,
      "à®īà®©": 2120,
      "ĠPanchayat": 2121,
      "ĠQ": 2122,
      "à¯į&": 2123,
      "à®°à®¤à®¤": 2124,
      "Ġà®ħà®ķà®²": 2125,
      "ĠX": 2126,
      "à¯ĭ...": 2127,
      "Ġà®Ĭà®Łà®ķà®µ": 2128,
      "ash": 2129,
      "Ġpro": 2130,
      "ĠComments": 2131,
      "Ġà®®à®®": 2132,
      "Ġà®®à®¯à®Ļ": 2133,
      "Ġà®ĵà®ª": 2134,
      "à¯ģ(": 2135,
      "Ġà®ıà®±à®¤": 2136,
      "reaking": 2137,
      "à®¨à®ķà®°à®®": 2138,
      "à®Łà®²à®Ļ": 2139,
      "à®Ĭà®°": 2140,
      "Ġà®µà®ļà®©à®Ļ": 2141,
      "à¯ģ....": 2142,
      "ĠEn": 2143,
      "à¯įâĢĻ,": 2144,
      "ight": 2145,
      "à®°à®ķà®Ļ": 2146,
      "icle": 2147,
      "à®İà®¨": 2148,
      "Ġ\"\"": 2149,
      "Ġà®ĥ": 2150,
      "Ġà®ħà®ķà®´": 2151,
      "Ġx": 2152,
      "TC": 2153,
      "à®ªà®²à®®": 2154,
      "à®µà®µ": 2155,
      "à®µà®°à®ķ": 2156,
      "Ġà®Ĵà®¯": 2157,
      "à®°à®µà®®": 2158,
      "à®Łà®ķà®°": 2159,
      "].": 2160,
      "à®ķà®£à®®": 2161,
      "sh": 2162,
      "à®Ĩà®Ł": 2163,
      "à®¾à®¾à¯į.": 2164,
      "ĠÙ": 2165,
      "à®µà®©à®°": 2166,
      "Ġà®ļà®®à®¸": 2167,
      "www": 2168,
      "Ġà®°à®¹": 2169,
      "55": 2170,
      "ust": 2171,
      "Ġà®®à®°à®ªà®£": 2172,
      "à®İà®ķ": 2173,
      "Ġà®²à®µ": 2174,
      "Ġà®µà®ļà®©à®®": 2175,
      "ational": 2176,
      "ER": 2177,
      "port": 2178,
      "ave": 2179,
      "Ùı": 2180,
      "à®ļà®ķà®¤": 2181,
      "Ġà®ªà®¤à®ķ": 2182,
      "ĠPrevious": 2183,
      "à®°à®ªà®ŀ": 2184,
      "2018": 2185,
      "à¯Ģ.,": 2186,
      "Ġà®ļà®³": 2187,
      "ics": 2188,
      "à®°à®ªà®²à®Ļ": 2189,
      "))": 2190,
      "Ġ39": 2191,
      "à®®à®µ": 2192,
      "à®Ĩà®¤": 2193,
      "à®ªà®³à®¤": 2194,
      "à®īà®°": 2195,
      "Ġà®·à®°": 2196,
      "Ġà®ªà®°à®¤": 2197,
      "ey": 2198,
      "à®°à®ŀ": 2199,
      "à®īà®£": 2200,
      "à®ªà®¤à®®": 2201,
      "Ġà®ļà®°à®µà®£à®©": 2202,
      "log": 2203,
      "77": 2204,
      "enn": 2205,
      "**": 2206,
      "à®¯à®®à®©à®®": 2207,
      "Ġà®ħà®±à®¨": 2208,
      "2017": 2209,
      "app": 2210,
      "orld": 2211,
      "ĠAr": 2212,
      "à¯ģ''": 2213,
      "ence": 2214,
      "46": 2215,
      "à®¤à®²à®©": 2216,
      "Ġà®ªà®£à®ª": 2217,
      "Ġà®²à®¤": 2218,
      "Ġà®ĩà®£à®ķ": 2219,
      "ick": 2220,
      "Ġ$": 2221,
      "``": 2222,
      "AN": 2223,
      "à®¾:": 2224,
      "ĠâĨĳ": 2225,
      "Ġà®®à®¸": 2226,
      "Ġà®ªà®²à®µà®±": 2227,
      "II": 2228,
      "Ġsh": 2229,
      "ions": 2230,
      "à®°à®®à®Ł": 2231,
      "à®²à®µà®±": 2232,
      "Ġà®ķà®¤à®±": 2233,
      "85": 2234,
      "urai": 2235,
      "Ġà®ļà®®à®¤": 2236,
      "atan": 2237,
      "Ġ42": 2238,
      "Ġà®İà®²à®ķ": 2239,
      "Ġà®ĩà®°à®ķà®ļ": 2240,
      "Ġà®ĵà®®": 2241,
      "à¯ĩâĢĿ": 2242,
      "ĠTags": 2243,
      "Ġà®Ĩà®µà®°": 2244,
      "Ġà®ĩà®¤à®¯": 2245,
      "à®ªà®µà®±": 2246,
      "à¯į?âĢĿ": 2247,
      "Ġà®ĩà®Łà®ª": 2248,
      "à®¸à®©": 2249,
      "à®Ĩà®ª": 2250,
      "Ġà®¨à®°à®ļ": 2251,
      "à®£à®®à®²": 2252,
      "oun": 2253,
      "Ġà®ĩà®¤à®¯à®®": 2254,
      "Ġà®īà®°à®®": 2255,
      "à®°à®®à®ª": 2256,
      "Ġ46": 2257,
      "Ġà®ħà®¯à®²": 2258,
      "Ġ1990": 2259,
      "ens": 2260,
      "à®Ĵà®µ": 2261,
      "96": 2262,
      "Ġ!!": 2263,
      "Ġà®µà®±à®Ł": 2264,
      "Ġà®ıà®ķà®ª": 2265,
      "à®²à®ľ": 2266,
      "à®ħà®¤à®±": 2267,
      "à®ªà®´à®®": 2268,
      "à¯į.)": 2269,
      "à®ħà®µà®³": 2270,
      "ich": 2271,
      "ovi": 2272,
      "Ġà®Īà®ķ": 2273,
      "ĠUpd": 2274,
      "Ġan": 2275,
      "Ġà®ľà®Ł": 2276,
      "--------": 2277,
      "à®ķà®²à®¤": 2278,
      "78": 2279,
      "à®±à®µà®Ļ": 2280,
      "à®Łà®¯": 2281,
      "Ġà®ħà®¯à®°": 2282,
      "Ġà®ħà®©à®²": 2283,
      "AT": 2284,
      "ple": 2285,
      "à¯ģ),": 2286,
      "Â¯Âį": 2287,
      "Ġà¤": 2288,
      "Ġ2001": 2289,
      "uc": 2290,
      "à®¾..?": 2291,
      "âĢĶ": 2292,
      "akk": 2293,
      "ikatan": 2294,
      "olog": 2295,
      "2016": 2296,
      "à®İà®©à®µ": 2297,
      "Ġà®ĩà®Łà®Ĵà®¤": 2298,
      "à¯Ģ,": 2299,
      "à®²à®¤à®©à®®": 2300,
      "Ġkam": 2301,
      "Ġà®µà®ŀ": 2302,
      "à¯ģ.âĢĿ": 2303,
      "Ġ250": 2304,
      "ĠAl": 2305,
      "Â³": 2306,
      "86": 2307,
      "Ġare": 2308,
      "à®İà®Ł": 2309,
      "ĠNext": 2310,
      "ideo": 2311,
      "à®°à®®à®Ļ": 2312,
      "100": 2313,
      "à®·à®©à®²": 2314,
      "Ġà®¤à®µà®®": 2315,
      "à¯ĭ-": 2316,
      "Ġ47": 2317,
      "\"),": 2318,
      "à®±à®±": 2319,
      "à¯į!!": 2320,
      "Ġà®ĩà®·": 2321,
      "à¯ĭ!": 2322,
      "Ġonline": 2323,
      "à®¤à®µà®ķ": 2324,
      "à®®à®£à®©": 2325,
      "2015": 2326,
      "Ġà®İà®©à®²": 2327,
      "à¯ĪÂŃ": 2328,
      "à®ļà®¯à®¤": 2329,
      "à®ªà®²à®©": 2330,
      "Ġà®īà®·": 2331,
      "à®¤à®®à®²": 2332,
      "à®µà®¯": 2333,
      "Ġà®ħà®°à®ķ": 2334,
      "Ġà®¤à®²à®®": 2335,
      "Ġà®İà®¤à®©": 2336,
      "Ġà®Łà®®": 2337,
      "AE": 2338,
      "Ġà®¨à®Łà®µ": 2339,
      "ame": 2340,
      "Ġ||": 2341,
      "à®ĩà®Ł": 2342,
      "à®ªà®¯à®£à®®": 2343,
      "Ġà®İà®ĥà®ª": 2344,
      "à®Łà®¤à®©": 2345,
      "IN": 2346,
      "à®®à®³": 2347,
      "Ġà®ıà®ľ": 2348,
      "Ġor": 2349,
      "Ġ64": 2350,
      "Ġart": 2351,
      "ĠÃł": 2352,
      "à®ķà®Łà®®": 2353,
      "à®²à®µà®©": 2354,
      "Ġà®ĩà®°à®ķ": 2355,
      "ĠOne": 2356,
      "Ġà®Łà®ļ": 2357,
      "Ġ120": 2358,
      "Ġà®ĩà®°à®Ļ": 2359,
      "Ġat": 2360,
      "à®±à®³à®µ": 2361,
      "Ġà®¨à®ķà®²": 2362,
      "ase": 2363,
      "ana": 2364,
      "har": 2365,
      "à®Łà®Łà®®": 2366,
      "à®ļà®¯à®Ļ": 2367,
      "à®ķà®´à®ķà®Ļ": 2368,
      "AM": 2369,
      "à®Ĵà®©": 2370,
      "Ġà®Ĩà®µà®£à®ª": 2371,
      "à®²à®ŀ": 2372,
      "ond": 2373,
      "76": 2374,
      "ep": 2375,
      "ĠVikatan": 2376,
      "Ġad": 2377,
      "à¯į!âĢĿ": 2378,
      "lect": 2379,
      "Views": 2380,
      "Ġ600": 2381,
      "ÙĨ": 2382,
      "Ġà®ħà®ķà®²à®®": 2383,
      "à¯į|": 2384,
      "Ġ44": 2385,
      "ok": 2386,
      "à®®à®´": 2387,
      "à®ħà®ļ": 2388,
      "erm": 2389,
      "orm": 2390,
      "Ġ2002": 2391,
      "ult": 2392,
      "Ġex": 2393,
      "à¯į[": 2394,
      "à®®à®°à®©": 2395,
      "Ġ2003": 2396,
      "Ġà®¨à®ŀ": 2397,
      "ib": 2398,
      "uy": 2399,
      "à®Łà®Łà®Ļ": 2400,
      "amb": 2401,
      "à®Ĳà®¯": 2402,
      "ovie": 2403,
      "Ġà®ħà®ķà®®à®¤": 2404,
      "Ġà®ıà®ļ": 2405,
      "eal": 2406,
      "à®ķà®®à®±": 2407,
      "Ġà®ıà®Ļ": 2408,
      "its": 2409,
      "Ġà®Łà®ķ": 2410,
      "Ġstories": 2411,
      "Ġas": 2412,
      "Ġ49": 2413,
      "ĠPl": 2414,
      "à®¿),": 2415,
      "Ġà®İà®µà®©": 2416,
      "Ġà®ĵà®Ļ": 2417,
      "Ġ1980": 2418,
      "Ġà®£": 2419,
      "Ġà®®à®¤à®Ļ": 2420,
      "Ġà®®à®Łà®ķ": 2421,
      "à¯ĩ'": 2422,
      "âĢ¦âĢ¦": 2423,
      "à¯ģ).": 2424,
      "ver": 2425,
      "à®ķà®Łà®¤": 2426,
      "Ġà®µà®©à®ª": 2427,
      "Ġle": 2428,
      "sp": 2429,
      "adi": 2430,
      "Ġ}": 2431,
      "ĠØ": 2432,
      "ink": 2433,
      "Ġà®Īà®´": 2434,
      "aran": 2435,
      "à®¤à®µà®Ļ": 2436,
      "anka": 2437,
      "56": 2438,
      "89": 2439,
      "à®ķà®®à®³": 2440,
      "Ġà®ķà®©à®®à®´": 2441,
      "ern": 2442,
      "hy": 2443,
      "ref": 2444,
      "Ġà®ļà®°à®£à®Ł": 2445,
      "Ġà®°à®ª": 2446,
      "à®ıà®±": 2447,
      "AR": 2448,
      "view": 2449,
      "à®ĥà®ªà®°": 2450,
      "à®µà®ķà®®": 2451,
      "à®ļà®ķà®©": 2452,
      "à®Łà®Łà®¤": 2453,
      "à®ķà®²à®ª": 2454,
      "Ġà®¹à®©": 2455,
      "........": 2456,
      "42": 2457,
      "Ġà®ıà®±à®ķ": 2458,
      "Ġ--": 2459,
      "Ġ56": 2460,
      "à®¤à®©à®©": 2461,
      "Ġà®ªà®ļà®Ļ": 2462,
      "AL": 2463,
      "ree": 2464,
      "à®İà®´": 2465,
      "eng": 2466,
      "88": 2467,
      "?âĢĿ": 2468,
      "Ġà®ļà®°à®¸": 2469,
      "Ġà®®à®³": 2470,
      "à¯į,''": 2471,
      "india": 2472,
      "Ġà®ļà®ªà®°": 2473,
      "Ġyou": 2474,
      "à®Ĩà®ļ": 2475,
      "kal": 2476,
      "à¯Ī(": 2477,
      "Ġà®®à®©à®ķ": 2478,
      "43": 2479,
      "Ġà®ħà®µà®®à®¤": 2480,
      "ĠEx": 2481,
      "Ġfrom": 2482,
      "à®Łà®µà®ļà®®": 2483,
      "Ġà®®à®Łà®¤": 2484,
      "à®¾?\"": 2485,
      "Ġà®ħà®¹": 2486,
      "à¯Ĥ,": 2487,
      "Ġà®¤à®²à®Ļ": 2488,
      "ID": 2489,
      "az": 2490,
      "Ġà®ķà®£à®®": 2491,
      "uv": 2492,
      "Ġà®ķà®´à®±": 2493,
      "à¯į\",": 2494,
      "à®®à®¹": 2495,
      "Ġà®®à®¤à®µ": 2496,
      "ani": 2497,
      "à¯ģâĢĮ": 2498,
      "à®¤à®¯à®®": 2499,
      "Ġà®µà®¤à®¨": 2500,
      "à®ľà®ļ": 2501,
      "Ġà®Īà®°à®ª": 2502,
      "Ġà®µà®¤à®ķ": 2503,
      "Ġà®¹à®®": 2504,
      "2011": 2505,
      "Ġab": 2506,
      "ĠSh": 2507,
      "co": 2508,
      "à®¨à®¤": 2509,
      "à®±à®¨à®ķà®°": 2510,
      "Ġà®Īà®°à®®": 2511,
      "Ġà®ħà®°à®ļà®®": 2512,
      "à®ªà®©à®°": 2513,
      "à®´à®°à®ļ": 2514,
      "ala": 2515,
      "Ġmore": 2516,
      "à®¯à®®à®±": 2517,
      "Ġà®¹à®ľ": 2518,
      "air": 2519,
      "ci": 2520,
      "à¯į.''": 2521,
      "'s": 2522,
      "Ġà®ķà®°à®Ł": 2523,
      "ire": 2524,
      "Ġà®ĩà®³à®¨": 2525,
      "lish": 2526,
      "à®ĩà®ļ": 2527,
      "Ġ1999": 2528,
      "à®µà®¸": 2529,
      "87": 2530,
      "Ġ43": 2531,
      "à®¯à®µà®³": 2532,
      "Ġà®¹à®¤": 2533,
      "Ġà®īà®´à®µà®°": 2534,
      "own": 2535,
      "per": 2536,
      "Ġà®ĩà®µà®Ļ": 2537,
      "à®īà®Ł": 2538,
      "Ġpl": 2539,
      "Ġà®¨à®¯à®©": 2540,
      "Ġà®®à®°à®£à®®à®Ł": 2541,
      "Ġarticle": 2542,
      "à®Ĩà®Ļ": 2543,
      "Ġ52": 2544,
      "Ġ41": 2545,
      "ĠâĨĴ": 2546,
      "ĠZ": 2547,
      "Ġà®ªà®ľ": 2548,
      "à®£à®Ł": 2549,
      "ile": 2550,
      "ĠCont": 2551,
      "Ġà®ĩà®³à®µà®°à®ļ": 2552,
      "ty": 2553,
      "Ġà®Ĩà®¤à®²": 2554,
      "oll": 2555,
      "à®¤à®²à®¤": 2556,
      "Ġà®ķà®£à®ªà®¤": 2557,
      "à®¤à®°à®ķ": 2558,
      "Ġà®¤à®µà®£": 2559,
      "ĠBreaking": 2560,
      "67": 2561,
      "à®¤à®ķà®µà®²": 2562,
      "Ġà®µà®±à®£": 2563,
      "41": 2564,
      "ON": 2565,
      "Ġà®µà®´à®®": 2566,
      "ha": 2567,
      "Ġà®ļà®®à®ķ": 2568,
      "Ġ85": 2569,
      "ĠØ§": 2570,
      "à®Łà®³à®µ": 2571,
      "ons": 2572,
      "à®ªà®ŀ": 2573,
      "Ġà®ķà®ļà®ª": 2574,
      "ĠTe": 2575,
      "Ġsp": 2576,
      "Ġà®¶": 2577,
      "ox": 2578,
      "à®¯à®£à®®": 2579,
      "à®¨à®²à®®": 2580,
      "à®ĩà®ķ": 2581,
      "ĠâĢĶ": 2582,
      "Ġ72": 2583,
      "Ġhttp": 2584,
      "ĠUn": 2585,
      "Ġà®Ĳà®ļ": 2586,
      "Ġ01": 2587,
      "à®¯à®²à®ķà®¤": 2588,
      "à®ıà®ķ": 2589,
      "ĠUpdate": 2590,
      "2014": 2591,
      "57": 2592,
      "à®¤à®¯à®¤": 2593,
      "à¯Ī),": 2594,
      "ged": 2595,
      "à®µà®®à®´": 2596,
      "Ġ51": 2597,
      "à®Ĳà®Ł": 2598,
      "Read": 2599,
      "à®ªà®´à®ķ": 2600,
      "Ġà®īà®ªà®¤": 2601,
      "à®µà®³à®µà®©": 2602,
      "Ġ1996": 2603,
      "Ġà®ļà®©à®µà®°": 2604,
      "à®¿âĢĮ": 2605,
      "Ġà®Łà®°": 2606,
      "ĠQu": 2607,
      "Ġà®ħà®Łà®®": 2608,
      "92": 2609,
      "Ùĳ": 2610,
      "Ġal": 2611,
      "à¯ĩà®¾à¯į": 2612,
      "Ġ1970": 2613,
      "97": 2614,
      "à®°à®µà®©": 2615,
      "à®ªà®ķà®Ļ": 2616,
      "ings": 2617,
      "Ġà®ħà®±à®®": 2618,
      "ari": 2619,
      "66": 2620,
      "UTC": 2621,
      "ĠðŁ": 2622,
      "Ġà®ļà®®à®©": 2623,
      "Ġà®ĩà®£à®Ļ": 2624,
      "Ġà®Ĭà®°à®ķ": 2625,
      "à®ľà®¤": 2626,
      "à®¨à®Ļ": 2627,
      "Ġà®ªà®Łà®µ": 2628,
      "Ġà®Ĩà®´à®¤": 2629,
      "à®ħà®´à®ķ": 2630,
      "âĢ¦.": 2631,
      "à®ªà®µà®³": 2632,
      "able": 2633,
      "ennai": 2634,
      "à®Łà®©à®¤": 2635,
      "Ġà®ķà®°à®Ļ": 2636,
      "Ġà®Ĭà®©": 2637,
      "ĠLive": 2638,
      "94": 2639,
      "ther": 2640,
      "à¯ģâĢĻâĢĻ": 2641,
      "à®®à®¯à®®": 2642,
      "à®ªà®©à®µ": 2643,
      "olit": 2644,
      "Ġi": 2645,
      "à®µà®ļà®¤": 2646,
      "Ġà®Ĩà®¯à®¤": 2647,
      "à¯į?âĢĻ": 2648,
      "tern": 2649,
      "kai": 2650,
      "lo": 2651,
      "Ġà®ĩà®³à®µà®°à®ļà®°": 2652,
      "IC": 2653,
      "à¯ĭ..": 2654,
      "Ġam": 2655,
      "Ġà®ħà®²à®®": 2656,
      "Ġà®®à®¤à®ļ": 2657,
      "ĠSri": 2658,
      "à®ªà®²à®ª": 2659,
      "ĠâĢ¢": 2660,
      "eg": 2661,
      "à®°à®®à®ļ": 2662,
      "Ġà®ªà®´à®¤": 2663,
      "Ùħ": 2664,
      "ĠWorld": 2665,
      "58": 2666,
      "hi": 2667,
      "ace": 2668,
      "Ġà®ĵà®°à®®": 2669,
      "ED": 2670,
      "Ġà®ĩà®°à®¯": 2671,
      "Ġà®ªà®¤à®Ł": 2672,
      "Ġà®ªà®µà®©": 2673,
      "Ġthis": 2674,
      "à®©à®±": 2675,
      "Ġà®ķà®³à®Ļ": 2676,
      "Ġà®®à®¤à®ķ": 2677,
      "ĠTN": 2678,
      "à®īà®¯": 2679,
      "Ġà®¹à®ķ": 2680,
      "Ġà®Ĭà®Łà®ķà®®": 2681,
      "à®ħà®´": 2682,
      "ĠPr": 2683,
      "ĠCinema": 2684,
      "Ġ1991": 2685,
      "Ġà®Ĩà®¤à®Ļ": 2686,
      "ork": 2687,
      "Ġ95": 2688,
      "à®īà®²": 2689,
      "ĠPuth": 2690,
      "Ġà®ķà®ķ": 2691,
      "à®£à®¯à®Ļ": 2692,
      "Ġà®µà®°à®ļ": 2693,
      "Ġà®ħà®©à®¨": 2694,
      "Ġà®ķà®µà®ļà®®": 2695,
      "Ġà®ªà®Łà®°": 2696,
      "anth": 2697,
      "à®ļà®®à®Ł": 2698,
      "ading": 2699,
      "ember": 2700,
      "oss": 2701,
      "Ġthat": 2702,
      "Ġà®īà®ªà®°": 2703,
      "Ġà®ħà®²à®±": 2704,
      "ĠNadu": 2705,
      "68": 2706,
      "Ġà®²à®²": 2707,
      "à¯ģâĢĭ": 2708,
      "à®±à®©à®µ": 2709,
      "Ġà®ľà®ķ": 2710,
      "Ġà®²à®Ļ": 2711,
      "ayam": 2712,
      "ĠOneindia": 2713,
      "à®ħà®¯": 2714,
      "IS": 2715,
      "à®ľà®¯à®ª": 2716,
      "Ġà®ľà®¸": 2717,
      "à®ķà®®à®Ł": 2718,
      "à®¨à®©": 2719,
      "à®´à®Ł": 2720,
      "à¯į,âĢĿ": 2721,
      "à®ĩà®£": 2722,
      "anj": 2723,
      "Ġwww": 2724,
      "views": 2725,
      "93": 2726,
      "Ġ>>": 2727,
      "à®¯à®°à®¤": 2728,
      "Ġà®Łà®¯à®°": 2729,
      "Ġ1960": 2730,
      "à®®à®©à®¤": 2731,
      "Ġà®®à®£à®¨": 2732,
      "ology": 2733,
      "Ġà®Ĩà®²à®¯": 2734,
      "à¯į..!!": 2735,
      "Ġac": 2736,
      "à®ľà®¯à®®": 2737,
      "à®ľà®¯à®©": 2738,
      "Ġà®ļà®®à®µ": 2739,
      "Ġus": 2740,
      "à®µà®³à®°": 2741,
      "alaim": 2742,
      "à®®à®ŀ": 2743,
      "à¯įâĢĻ.": 2744,
      "Ġ800": 2745,
      "Ġun": 2746,
      "à®®à®°à®¤": 2747,
      "à®ķà®®à®²": 2748,
      "à®¤à®°à®£": 2749,
      "ge": 2750,
      "à®ķà®°à®£": 2751,
      "Ġ1989": 2752,
      "à®µà®©à®µ": 2753,
      "Ġbook": 2754,
      "Ġnot": 2755,
      "Ġcl": 2756,
      "à®Īà®°": 2757,
      "Ġà®ĩà®Łà®°": 2758,
      "Ġ04": 2759,
      "ss": 2760,
      "à®µà®©à®¨": 2761,
      "à®Łà®°à®ª": 2762,
      "Ġà®ĵà®°à®Ļ": 2763,
      "ĠTr": 2764,
      "ĠAm": 2765,
      "Ġme": 2766,
      "Ġà®Ĭà®Łà®ķà®¤": 2767,
      "84": 2768,
      "Ġit": 2769,
      "à®²à®¨à®Ł": 2770,
      "ery": 2771,
      "Ġà®ĥà®ªà®°": 2772,
      "Ġà®ħà®²à®ļ": 2773,
      "ound": 2774,
      "Ġà®®à®¤à®©": 2775,
      "Ġà®ªà®°à®£": 2776,
      "Ġà®ļà®Łà®²à®®": 2777,
      "Ġ06": 2778,
      "91": 2779,
      "Ġà®ħà®¯à®©": 2780,
      "à¯ĭâĢĻ": 2781,
      "Ġà®ħà®±à®µ": 2782,
      "ating": 2783,
      "ĠMar": 2784,
      "Ġhttps": 2785,
      "à®µà®°à®²": 2786,
      "Ġà®°à®ļà®©": 2787,
      "Ġà®Ĩà®²à®¯à®Ļ": 2788,
      "ĠCO": 2789,
      "aw": 2790,
      "à¯ĩ\"": 2791,
      "ĠÃ": 2792,
      "à®İà®£": 2793,
      "ition": 2794,
      "à®®à®µà®°": 2795,
      "anc": 2796,
      "Ġà®ķà®´à®Ł": 2797,
      "à®ªà®´à®ķà®©": 2798,
      "In": 2799,
      "The": 2800,
      "ts": 2801,
      "Ġà®®à®¯à®®": 2802,
      "à®Ĩà®²": 2803,
      "Ġà®Ĳà®¯à®°": 2804,
      ")\"": 2805,
      "à®°à®¤à®°": 2806,
      "à®¤à®ķà®Ł": 2807,
      "à®ķà®²à®Ļ": 2808,
      "à®ķà®µà®ļà®®": 2809,
      "ĠCl": 2810,
      "Ġà®īà®²à®ķà®³à®µ": 2811,
      "!!!": 2812,
      "ĠPuthiy": 2813,
      "52": 2814,
      "à®¯à®¤à®³à®®": 2815,
      "Ġà®¯à®®": 2816,
      "Ġser": 2817,
      "ages": 2818,
      "à®°à®·": 2819,
      "Ġà®ıà®²à®®": 2820,
      "Ġà®¤à®°à®µà®°": 2821,
      "Ġà®Ĳà®¯à®ª": 2822,
      "akathai": 2823,
      "à®ķà®°à®Ļ": 2824,
      "Ġà®ķà®³à®µ": 2825,
      "à®¤à®ķà®ķ": 2826,
      "ĠAd": 2827,
      "ool": 2828,
      "Ġ99": 2829,
      "pe": 2830,
      "à®¿à¯į": 2831,
      "à®®à®¤à®¤": 2832,
      "Ġà®ħà®ķà®ª": 2833,
      "à®ķà®°à®µà®°": 2834,
      "à¯į',": 2835,
      "à®²à®¯à®Ļ": 2836,
      "Ġà®ļà®¸": 2837,
      "Ġà®ķà®²à®µà®°à®¤": 2838,
      "à¯į.....": 2839,
      "PS": 2840,
      "ya": 2841,
      "à®©à®¯": 2842,
      "à¯ģ.\"": 2843,
      "Ġà®ªà®²à®µà®ķ": 2844,
      "à®©à®µà®±": 2845,
      "ET": 2846,
      "à®®à®°à®®": 2847,
      "Ġ03": 2848,
      "81": 2849,
      "Ġà®Ĩà®ķà®¤": 2850,
      "Ġ1950": 2851,
      "Ġ63": 2852,
      "à®·à®µ": 2853,
      "adh": 2854,
      "Ġ1998": 2855,
      "53": 2856,
      "âĢİ": 2857,
      "ĠSe": 2858,
      "ebs": 2859,
      "Ġà®ķà®°à®®": 2860,
      "Ġà®ĩà®©à®ķ": 2861,
      "Ġà®ªà®ķà®µà®¤": 2862,
      "Ġà®·à®Ļ": 2863,
      "ays": 2864,
      "alaimurai": 2865,
      "72": 2866,
      "à¯į]": 2867,
      "à®Ĩà®Ĩ": 2868,
      "Ġï": 2869,
      "à®µà®ŀ": 2870,
      "Ġ05": 2871,
      "à®¾?'": 2872,
      "Ġ>>>": 2873,
      "cl": 2874,
      "2013": 2875,
      "aily": 2876,
      "à®ĩà®¸": 2877,
      "ance": 2878,
      "ĠNo": 2879,
      "Ġ02": 2880,
      "ett": 2881,
      "51": 2882,
      "Ġà®ħà®ķà®©": 2883,
      "à®¯à®®à®²": 2884,
      "à®¯à®£à®ļ": 2885,
      "atri": 2886,
      "à®°à®°à®ļà®°": 2887,
      "Ġà®ķà®²à®µà®°à®®": 2888,
      "à®³à®Łà®Ļ": 2889,
      "Ġà®Ĳà®¯à®®": 2890,
      "Ġ66": 2891,
      "Ġà®ķà®³à®ŀ": 2892,
      "Ġà®Ĩà®¤à®°à®µà®³": 2893,
      "Ġ08": 2894,
      "à®Ĩà®±": 2895,
      "83": 2896,
      "Ġà®ħà®ķà®µ": 2897,
      "Ġà®ļà®¯": 2898,
      "ĠFl": 2899,
      "athalaimurai": 2900,
      "ĠPuthiyathalaimurai": 2901,
      "of": 2902,
      "à®Łà®µà®Ł": 2903,
      "à®±à®ŀ": 2904,
      "ins": 2905,
      "arl": 2906,
      "ebsite": 2907,
      "à¯įâĢĵ": 2908,
      "Ġà®Īà®ļ": 2909,
      "à®¤à®®à®±": 2910,
      "Ġà®ķà®°à®£": 2911,
      "Ġà®µà®ļà®©à®¤": 2912,
      "Ġ07": 2913,
      "ock": 2914,
      "Ġà®µà®³à®¤": 2915,
      "Ġà®ļà®®à®ļ": 2916,
      "ater": 2917,
      "à®¾(": 2918,
      "Ġà®ªà®¤à®ª": 2919,
      "à®·à®£": 2920,
      "Ġà®īà®±à®ķ": 2921,
      "ĠRel": 2922,
      "Ġà®Ĭà®®": 2923,
      "Ġyour": 2924,
      "73": 2925,
      "Tamil": 2926,
      "à®ľà®²": 2927,
      "à®ĩà®°à®µ": 2928,
      "Ġà®Ĩà®°à®ŀ": 2929,
      "à®ªà®®à®Ł": 2930,
      "Ġà®ĩà®¯à®²à®µ": 2931,
      "ealth": 2932,
      "à®¯à®°à®®": 2933,
      "Ġ54": 2934,
      "à®©à®µà®³": 2935,
      "Ġà®Łà®¯à®²": 2936,
      "Ġ\"(": 2937,
      "\".": 2938,
      "Ġà®¨à®´": 2939,
      "Ġà®ħà®ªà®ķà®°": 2940,
      "à®İà®©à®¤": 2941,
      "à®®à®£à®Ļ": 2942,
      "à®µà®ķà®¤": 2943,
      "iss": 2944,
      "71": 2945,
      "à®ªà®³à®ª": 2946,
      "Ġà®ķà®ļà®ķ": 2947,
      "à®ķà®®à®£": 2948,
      "à®±à®µà®³": 2949,
      "54": 2950,
      "oh": 2951,
      "Ġact": 2952,
      "à¯ĭ'": 2953,
      "Ġ108": 2954,
      "à¯ĩ-": 2955,
      "Ġ360": 2956,
      "Ġ53": 2957,
      "Ġabout": 2958,
      "64": 2959,
      "à¯į!âĢĻ": 2960,
      "Ġstory": 2961,
      "ortal": 2962,
      "à®©à®¤à®®": 2963,
      "à®ķà®°à®°": 2964,
      "à®ļà®²à®ª": 2965,
      "à¯įâĢĿ.": 2966,
      "Ġà®µà®¸": 2967,
      "ĠPh": 2968,
      "ism": 2969,
      ",,": 2970,
      "Ġà®īà®¤à®¯à®¨": 2971,
      "à®£à®¨": 2972,
      "Ġà®ĩà®²à®¤": 2973,
      "Ġpost": 2974,
      "AC": 2975,
      "Â²": 2976,
      "à®Łà®µà®³": 2977,
      "Ġà®īà®°à®¤": 2978,
      "ĠEd": 2979,
      "ÙĪ": 2980,
      "Ġà®ļà®¤à®®": 2981,
      "Ġà®¤à®ķà®ª": 2982,
      "Ġmar": 2983,
      "61": 2984,
      "79": 2985,
      "ĠSp": 2986,
      "Ġse": 2987,
      "Ġ:)": 2988,
      "rig": 2989,
      "ual": 2990,
      "Ġà®ħà®´à®±": 2991,
      "ates": 2992,
      "Ġ110": 2993,
      "à®²à®µà®°à®ª": 2994,
      "74": 2995,
      "Ġ58": 2996,
      "à®ĩà®®": 2997,
      "à®ķà®³à®µà®°": 2998,
      "Ġvideo": 2999,
      "AS": 3000,
      "à®°à®³à®¤": 3001,
      "Ġman": 3002,
      "Ch": 3003,
      "Ġà®ħà®°à®µà®£": 3004,
      "à®²à®ķà®Ļ": 3005,
      "Ġà®¤à®µà®±à®µ": 3006,
      "âĢĶâĢĶ": 3007,
      "ax": 3008,
      "ject": 3009,
      "Ġà®ĩà®³à®ŀ": 3010,
      "62": 3011,
      "rit": 3012,
      "Ġà®®à®©à®Ļ": 3013,
      "Ġ62": 3014,
      "asi": 3015,
      "ÙĬ": 3016,
      "à®¨à®¨": 3017,
      "à®¯à®ķà®ķ": 3018,
      "ĠEng": 3019,
      "Ġà®¤à®Łà®Ļ": 3020,
      "2012": 3021,
      "à®īà®±": 3022,
      "à¯ģâĢ¦.": 3023,
      "Ġà®°à®¸": 3024,
      "à®±à®®à®Ł": 3025,
      "Ġà®ªà®°à®¸": 3026,
      "à®µà®²à®ª": 3027,
      "Ġreading": 3028,
      "Ġà®Ĩà®µà®£à®®": 3029,
      "à®°à®ļà®Ļ": 3030,
      "ocal": 3031,
      "63": 3032,
      "à®µà®Łà®ķ": 3033,
      "int": 3034,
      "Ġà®ľà®©à®Ļ": 3035,
      "Ġ09": 3036,
      "82": 3037,
      "},": 3038,
      "esh": 3039,
      "ĠMovie": 3040,
      "à¯ģ..!": 3041,
      "69": 3042,
      "ml": 3043,
      "na": 3044,
      "Ġà®ķà®³à®ª": 3045,
      "inue": 3046,
      "ral": 3047,
      "se": 3048,
      "Ġag": 3049,
      "à®Ĥ": 3050,
      "à®¤à®µà®¤": 3051,
      "à®³à®³à®µ": 3052,
      "Ġà®ªà®¯à®©à®Ł": 3053,
      "Ġà®īà®´à®µ": 3054,
      "ake": 3055,
      "rans": 3056,
      "Ġà®Ĩà®·": 3057,
      "à®©à®°à®®": 3058,
      "Ġà®Ĩà®ŀ": 3059,
      "à¯į\".": 3060,
      "Ġ1995": 3061,
      "à®¿/": 3062,
      "Ġà®ıà®²à®¤": 3063,
      "Ġà®Īà®µ": 3064,
      "Ġ1992": 3065,
      "à®©à®®à®²à®°": 3066,
      "ĠFor": 3067,
      "http": 3068,
      "</": 3069,
      "tw": 3070,
      "Ġ\\": 3071,
      "Ġar": 3072,
      "Ġà®µà®Łà®ª": 3073,
      "Ġà®ļà®°à®®": 3074,
      "à®¯à®°à®ļà®©": 3075,
      "à®¤à®©à®ª": 3076,
      "Ġà®ªà®¤à®®": 3077,
      "Ġà®®à®£à®ª": 3078,
      "Ġà®ªà®ķà®¤": 3079,
      "Ġà®ıà®ŀ": 3080,
      "amp": 3081,
      "enc": 3082,
      "AD": 3083,
      "Ġà®Ĩà®ķà®²": 3084,
      "Ġ700": 3085,
      "ict": 3086,
      "à®ĵà®Ł": 3087,
      "300": 3088,
      "IL": 3089,
      "rick": 3090,
      "à®²à®ķà®°": 3091,
      "à®²à®ķà®²": 3092,
      "à®ļà®µà®®": 3093,
      "ĠâĢĮ": 3094,
      "atch": 3095,
      "Ġ1994": 3096,
      "à®ĥà®ķ": 3097,
      "59": 3098,
      "oy": 3099,
      "à®²à®°à®ļ": 3100,
      "Ġà®ıà®²à®ķ": 3101,
      "Ġà®®à®ķà®ļ": 3102,
      "Ġ57": 3103,
      "à®Łà®µà®±": 3104,
      "Ġ67": 3105,
      "oon": 3106,
      "à®ªà®ķà®µ": 3107,
      "Ġkathai": 3108,
      "à¯į.âĢĻâĢĻ": 3109,
      "2009": 3110,
      "gle": 3111,
      "Ġà®µà®°à®¤à®°": 3112,
      "Ġà®¤à®©à®®": 3113,
      "à®īà®¯à®°": 3114,
      "IT": 3115,
      "à®³à®ªà®Ł": 3116,
      "Ġà®ªà®´à®¨": 3117,
      "à®īà®Łà®©": 3118,
      "ĠBook": 3119,
      "ĠDaily": 3120,
      "Th": 3121,
      "io": 3122,
      "à®ĩà®¯à®±": 3123,
      "igh": 3124,
      "Ġà®ļà®®à®°à®ļà®®": 3125,
      "Ø±": 3126,
      "Ġà®¤à®ķà®Ł": 3127,
      "à®¤à®®à®°": 3128,
      "Ġà®®à®°à®£à®Ļ": 3129,
      "à®³à®©à®®": 3130,
      "à¯į.âĢĻ": 3131,
      "à®ªà®¤à®µ": 3132,
      "Ġ69": 3133,
      ".[": 3134,
      "Ġà®¤à®Łà®®": 3135,
      "à®®à®°à®ª": 3136,
      "ĠLanka": 3137,
      "ull": 3138,
      "____": 3139,
      "form": 3140,
      "les": 3141,
      "à®µà®ķà®°": 3142,
      "à¯į.'": 3143,
      "à¯į!\"": 3144,
      "à®®à®Łà®Ļ": 3145,
      "Ġà®ħà®µà®²": 3146,
      "à®ļà®°à®£": 3147,
      "Ġà®Ĳà®¤": 3148,
      "à®īà®Łà®²": 3149,
      "à®¾âĢĮ": 3150,
      "Ġà®ĩà®³à®µ": 3151,
      "à®¤à®®à®©": 3152,
      "Ġ1993": 3153,
      "ctor": 3154,
      "à®°à®ªà®°": 3155,
      "à®¯à®²à®Ł": 3156,
      "Ġ59": 3157,
      "Ġ:-": 3158,
      "Ġà®ħà®ªà®¤": 3159,
      "à®¨à®Łà®ª": 3160,
      "à¯įâĢ¦âĢĿ": 3161,
      "ĠIST": 3162,
      "ĠVi": 3163,
      "AAAA": 3164,
      "Ã¤": 3165,
      "Ġ00": 3166,
      "à¯ģ.)": 3167,
      "alan": 3168,
      "reat": 3169,
      "Â®Âķ": 3170,
      "ĠContinue": 3171,
      "à®ķà®°à®ª": 3172,
      "str": 3173,
      "Ġ<": 3174,
      "à®µà®³à®¤": 3175,
      "Ġà®®à®¤à®°": 3176,
      "ara": 3177,
      "oron": 3178,
      "à¯ģ!!": 3179,
      "me": 3180,
      "man": 3181,
      "à¯į?\"": 3182,
      "Ġ1984": 3183,
      "Ġà®ªà®£à®µ": 3184,
      "Ġwas": 3185,
      "......": 3186,
      "/-": 3187,
      "ents": 3188,
      "Ġ1947": 3189,
      "à®ªà®¯à®£à®¤": 3190,
      "Ġ1997": 3191,
      "à®Łà®£à®Ļ": 3192,
      "Ġà®ķà®Łà®ª": 3193,
      "Â®Â¿": 3194,
      "Ġ98": 3195,
      "à®¨à®ķà®°à®¤": 3196,
      "pr": 3197,
      "ĠMe": 3198,
      "te": 3199,
      "Ġà®Ĩà®¯à®°": 3200,
      "à®ķà®®à®®": 3201,
      "Ġà®īà®°à®Ļ": 3202,
      "%,": 3203,
      "à®ļà®µà®©": 3204,
      "Ġà®Ĩà®²à®®": 3205,
      "Ġ74": 3206,
      "ĠDin": 3207,
      "à¯¦": 3208,
      "à®©à®ªà®Ł": 3209,
      "Ġà®ħà®²à®°": 3210,
      "Ġà®īà®®à®°": 3211,
      "Ġà®¹à®²": 3212,
      "ĠYou": 3213,
      "à®´à®ļ": 3214,
      "à®°à®£à®ª": 3215,
      "ĠUS": 3216,
      "olitics": 3217,
      "TR": 3218,
      "à®¸à®®": 3219,
      "ĠSam": 3220,
      "Ġcon": 3221,
      ");": 3222,
      "Ġà®®à®Łà®®": 3223,
      "Ġà®ĵà®°à®¤": 3224,
      "Ġà®¹à®ļ": 3225,
      "ale": 3226,
      "à®ķà®µà®¤": 3227,
      "à®ħà®µà®°à®¤": 3228,
      "CO": 3229,
      "à®µà®²à®©": 3230,
      "Ġfl": 3231,
      "ube": 3232,
      "Ġall": 3233,
      "à®µà®²à®¤": 3234,
      "Ġà®¤à®³à®µ": 3235,
      "Ġà®ĩà®¯à®©": 3236,
      "Ġkamakathai": 3237,
      "!âĢĿ": 3238,
      "Ġ61": 3239,
      "ĠTagged": 3240,
      "====": 3241,
      "Ġà®Ĩà®¹": 3242,
      "row": 3243,
      "ĠReview": 3244,
      "EN": 3245,
      "¿½": 3246,
      "Ġà®µà®©à®µ": 3247,
      "à¯į,\"": 3248,
      "à¯ģ:-": 3249,
      "Ġà®ħà®µà®ļà®°à®ķ": 3250,
      "à®ªà®´à®Ļ": 3251,
      "Ġ1987": 3252,
      "Ġup": 3253,
      "à®ªà®²à®ķ": 3254,
      "Ġà®ĩà®²à®£": 3255,
      "Ġ68": 3256,
      "ĠPortal": 3257,
      "à¯ģ?âĢĿ": 3258,
      "ign": 3259,
      "ĠØ§ÙĦ": 3260,
      "Ġà®ªà®£à®µà®°à®µ": 3261,
      "Ġà®Ĩà®°à®µ": 3262,
      "Ġà®ħà®³à®ª": 3263,
      "Ġà®ļà®¹": 3264,
      "ural": 3265,
      "yst": 3266,
      "à®¤à®ķà®ª": 3267,
      "à®±à®¤à®±": 3268,
      "Ġà®īà®£à®µà®ķà®Ļ": 3269,
      "ĠWh": 3270,
      "ricket": 3271,
      "day": 3272,
      "à®¯à®¤à®°": 3273,
      "ise": 3274,
      "2010": 3275,
      "ĠChennai": 3276,
      "à®°à®ªà®Ł": 3277,
      "Ġ71": 3278,
      "ĠBest": 3279,
      "Â°": 3280,
      "à®ŀà®°à®£": 3281,
      "Ùĩ": 3282,
      "Ġà®ļà®ľ": 3283,
      "à®¯à®®à®©": 3284,
      "à®ıà®ª": 3285,
      "omb": 3286,
      "oogle": 3287,
      "ations": 3288,
      "Ġ1977": 3289,
      "ime": 3290,
      "Ġà®ķà®£à®¤": 3291,
      "à®¤à®ŀ": 3292,
      "à®ªà®´à®¤": 3293,
      "à®¨à®ª": 3294,
      "ĠMan": 3295,
      "url": 3296,
      "à¤¾": 3297,
      "AF": 3298,
      "ĠCol": 3299,
      "à®Ĳà®ķ": 3300,
      "Ġcinema": 3301,
      "aper": 3302,
      "Ġ1967": 3303,
      "Ġ1956": 3304,
      "Ġà®Ĭà®±à®µ": 3305,
      "à®²à®ķà®£": 3306,
      "à®¹à®²": 3307,
      "à®īà®®": 3308,
      "Ġ180": 3309,
      "ove": 3310,
      "à®µà®³à®®": 3311,
      "oday": 3312,
      "ĠRelated": 3313,
      "à¯ĩ)": 3314,
      "Ġà®¨à®²à®ķ": 3315,
      "à®ªà®°à®©": 3316,
      "ild": 3317,
      "Ġ1983": 3318,
      "à®²à®µà®°à®®": 3319,
      "Ġà®Łà®¤": 3320,
      "à®ķà®£à®¤": 3321,
      "Ġà®¨à®©à®µ": 3322,
      "Ġhe": 3323,
      "Ġ1971": 3324,
      "2008": 3325,
      "à®ªà®ķà®°à®®": 3326,
      "à¯į...'": 3327,
      "Ġ96": 3328,
      "400": 3329,
      "Ġ73": 3330,
      "à¯į...''": 3331,
      "à¯į..?": 3332,
      "Ġà¯": 3333,
      "à®°à®ľà®©": 3334,
      "à®ķà®°à®ļ": 3335,
      "Ġà®ħà®°à®Ł": 3336,
      "Ġà®ªà®ķà®Ł": 3337,
      "Ġ350": 3338,
      "Ġ5000": 3339,
      "aiy": 3340,
      "blog": 3341,
      "Ġà®Īà®ļà®©": 3342,
      "Ġà®ļà®Łà®²à®¤": 3343,
      "erv": 3344,
      "Ġ77": 3345,
      "ĠNew": 3346,
      "Ġà®ķà®©à®ķà®°": 3347,
      "à¯ģ_": 3348,
      "à®¤à®©à®ķ": 3349,
      "Ġà®®à®ľ": 3350,
      "Ġà®īà®©à®¤": 3351,
      "à¯į},": 3352,
      "à®²à®ªà®Ł": 3353,
      "cess": 3354,
      "à®¨à®²à®ķ": 3355,
      "à®¤à®²à®Ļ": 3356,
      "à®Ĩà®¸": 3357,
      "Ġà®®à®©à®¨à®²": 3358,
      "RE": 3359,
      "à®£à®ļà®ª": 3360,
      "à®µà®ļà®Ļ": 3361,
      "ĠPol": 3362,
      "umb": 3363,
      "load": 3364,
      "irst": 3365,
      "%)": 3366,
      "rou": 3367,
      "à®©à®¤à®²": 3368,
      "ĠTV": 3369,
      "à¯į!'": 3370,
      "Ġ1985": 3371,
      "à®°à®¤à®ª": 3372,
      "ines": 3373,
      "mer": 3374,
      "à®£à®¯à®¤": 3375,
      "Ġà®ħà®µà®²à®®": 3376,
      "à®°à®ļà®µ": 3377,
      "Ġà®ªà®³à®ªà®³à®ª": 3378,
      "Ġà®ķà®´à®ķà®Ļ": 3379,
      "ĠPlus": 3380,
      "à®²à®¤à®©à®¤": 3381,
      "ada": 3382,
      "ally": 3383,
      "ka": 3384,
      "Ġà®¨à®µà®°": 3385,
      "à®¹à®©": 3386,
      "Ġà®Īà®´à®®": 3387,
      "alar": 3388,
      "oice": 3389,
      "à®ľà®¤à®¨": 3390,
      "adan": 3391,
      "Ġ@": 3392,
      "à¯į,'": 3393,
      "alk": 3394,
      "ĠWebsite": 3395,
      "ĠÂ°": 3396,
      "ife": 3397,
      "ĠPosted": 3398,
      "à®ķà®¤à®°": 3399,
      "Ġà®ļà®ķà®ľà®®": 3400,
      "ĠAnd": 3401,
      "à¯ģ!''": 3402,
      "akaran": 3403,
      "Ġlatest": 3404,
      "An": 3405,
      "Äģ": 3406,
      "Ġ3000": 3407,
      "ilm": 3408,
      "aram": 3409,
      "Ġà®Ĵà®ļ": 3410,
      "à®®à®°à®ķ": 3411,
      "han": 3412,
      "à¯į.!": 3413,
      "à®ĩà®¯à®ķ": 3414,
      "à®Ĩà®°à®®": 3415,
      "ike": 3416,
      "anjil": 3417,
      "ium": 3418,
      "odel": 3419,
      "cip": 3420,
      "Ġà®ħà®ķà®®": 3421,
      "à®¨à®®à®¤": 3422,
      "Ġà®īà®®à®¤": 3423,
      "Ġ130": 3424,
      "cri": 3425,
      "à¯Ĥà®¾à¯į": 3426,
      "à®Ĳà®ª": 3427,
      "Ġà®Ĩà®µà®£": 3428,
      "à®µà®£à®ķ": 3429,
      "ction": 3430,
      "cience": 3431,
      "VID": 3432,
      "ne": 3433,
      "ott": 3434,
      "Ġro": 3435,
      "à®¿_": 3436,
      "Ġà®°à®ķà®®": 3437,
      "à®İà®µ": 3438,
      "Ġ1986": 3439,
      "}}": 3440,
      "Ġà®Īà®®": 3441,
      "Ġ78": 3442,
      "ement": 3443,
      "âģ": 3444,
      "à®µà®©à®ª": 3445,
      "ĠOff": 3446,
      "Ġwill": 3447,
      "chn": 3448,
      "Ġ1988": 3449,
      "Ġà®īà®²à®µ": 3450,
      "ĠLe": 3451,
      "iya": 3452,
      "à®ªà®±à®®": 3453,
      "Ġà®ķà®©à®°": 3454,
      "Ġà®īà®°à®ļ": 3455,
      "Ġà®Ĩà®µà®£à®¤": 3456,
      "ĠThir": 3457,
      "rics": 3458,
      "ix": 3459,
      "à®°à®®à®©": 3460,
      "ower": 3461,
      ".âĢĿ": 3462,
      "à¯ģ/": 3463,
      "à®¨à®ķ": 3464,
      "à®±à®®à®³": 3465,
      "Ġ>": 3466,
      "à®³à®µà®©": 3467,
      "à®·à®ķ": 3468,
      "Ġà®Īà®´à®ª": 3469,
      "Ġà®īà®¤à®±": 3470,
      "ĠIN": 3471,
      "ĠIm": 3472,
      "rist": 3473,
      "ateg": 3474,
      "Ġim": 3475,
      "à®ªà®£à®¤": 3476,
      "Ġ\"@": 3477,
      "ade": 3478,
      "ÙĳÙİ": 3479,
      "à¦": 3480,
      "à®ªà®©à®®": 3481,
      "Ġà®¨à®µà®ķ": 3482,
      "à®¯à®¤à®³": 3483,
      "Ġà®ľà®°": 3484,
      "Ġà®ĩà®Łà®®à®³": 3485,
      "IA": 3486,
      "à®©à®ķà®¤": 3487,
      "Ġà®µà®¯à®°": 3488,
      "inist": 3489,
      "à®¹à®¤": 3490,
      "Ġà®īà®¤à®¯à®ķ": 3491,
      "à®īà®©à®ķ": 3492,
      "Ġpr": 3493,
      "Ġ1948": 3494,
      "Ġà®īà®®à®ķ": 3495,
      "ans": 3496,
      "Ġà®®à®²à®ļ": 3497,
      "zh": 3498,
      "Ġà®µà®°à®Ł": 3499,
      "Ġà®®à®©à®µ": 3500,
      "Ġde": 3501,
      "ution": 3502,
      "à®¾....": 3503,
      "à®¯à®£à®¤": 3504,
      "à®£à®±à®²": 3505,
      "ĠToday": 3506,
      "à®ıà®´": 3507,
      "ivers": 3508,
      "ION": 3509,
      "Ġà®ķà®©à®ķ": 3510,
      "600": 3511,
      "à®¤à®°à®ļ": 3512,
      "à®ĩà®³": 3513,
      "à®°à®ļà®µà®®": 3514,
      "els": 3515,
      "ode": 3516,
      "af": 3517,
      "à®ªà®ķà®ª": 3518,
      "Ġà®īà®°à®ķ": 3519,
      "à®İà®°": 3520,
      "à®°à®ļà®µà®¤": 3521,
      "Ġà®īà®¤à®¯": 3522,
      "Ġà®īà®£à®°à®µ": 3523,
      "à®ıà®¤": 3524,
      "ĠBl": 3525,
      "ific": 3526,
      "Ġà®ĩà®³à®µà®°à®ļà®©": 3527,
      "âģ´": 3528,
      ".)": 3529,
      "bp": 3530,
      "oor": 3531,
      "à®ļà®µà®°": 3532,
      "Ġà®®à®£à®ķ": 3533,
      "ternational": 3534,
      "à®¿à®¾à¯į": 3535,
      "à¯ĭ\"": 3536,
      "à®¯à®²à®ķ": 3537,
      "Ġ125": 3538,
      "ĠFeb": 3539,
      "ung": 3540,
      "Ġ%": 3541,
      "Ġà®¤à®®à®©": 3542,
      "à®µà®ļà®ª": 3543,
      "Ġ160": 3544,
      "ĠQuest": 3545,
      "?\"": 3546,
      "xx": 3547,
      "Ġà®¨à®¯": 3548,
      "à®īà®ļ": 3549,
      "Ġà®īà®ªà®¨": 3550,
      "Ġà®°à®ķà®Ļ": 3551,
      "à®Łà®°à®²": 3552,
      "à®¯à®°à®ļà®°": 3553,
      "à®īà®¤à®µ": 3554,
      "Ġ84": 3555,
      "à®Ĩà®©à®¨": 3556,
      "à¯Ī''": 3557,
      "à®©à®¤à®±": 3558,
      "ina": 3559,
      "Ġà®Ĩà®ªà®°à®£à®Ļ": 3560,
      "DF": 3561,
      "à²": 3562,
      "Ġà®ļà®²à®µ": 3563,
      "Ġà®Ĩà®ķà®ķ": 3564,
      "à®¤à®µà®®": 3565,
      "Ġ92": 3566,
      "à®ĵà®°": 3567,
      "2007": 3568,
      "à®µà®°à®ļ": 3569,
      "à®ľà®©à®¤": 3570,
      "Â¯Âģ": 3571,
      "à¯Ģ-": 3572,
      "à®ľà®¯à®¤": 3573,
      "à®¯à®©à®µ": 3574,
      "Ġ76": 3575,
      "Ġà®īà®£à®µà®ķà®¤": 3576,
      "WS": 3577,
      "jay": 3578,
      "press": 3579,
      "Ġà®´": 3580,
      "à®©à®ļà®®": 3581,
      "à¯į.//": 3582,
      "à®´à®µà®©": 3583,
      "à®ĩà®¯": 3584,
      "à®¾?''": 3585,
      "Ġname": 3586,
      "999": 3587,
      "):": 3588,
      "eop": 3589,
      "yl": 3590,
      "à®¯à®´": 3591,
      "----------------": 3592,
      "aan": 3593,
      "Ġ]": 3594,
      "à®ķà®Łà®Ļ": 3595,
      "Ġà®®à®²à®®": 3596,
      "Ġà®īà®¸": 3597,
      "Ġà®ķà®°à®©": 3598,
      "Ġcricket": 3599,
      "ĠDec": 3600,
      "riv": 3601,
      "St": 3602,
      "à®·à®¯": 3603,
      "à®ĩà®²à®ķ": 3604,
      "ĠPM": 3605,
      "ital": 3606,
      "800": 3607,
      "Ġà®ĩà®¤à®®": 3608,
      "Ġà®ªà®¯à®©à®±": 3609,
      "ors": 3610,
      "Ġ1972": 3611,
      "ose": 3612,
      "Ġà®¨à®Łà®©à®¤": 3613,
      "ie": 3614,
      "yrics": 3615,
      "à®¾),": 3616,
      "ats": 3617,
      "ĠAc": 3618,
      "à¯įâĢį": 3619,
      "à®ªà®´à®©": 3620,
      "Ġ1930": 3621,
      "à¯į:-": 3622,
      "à®¨à®ķà®°à®Ļ": 3623,
      "ownload": 3624,
      "OR": 3625,
      "ĠTop": 3626,
      "à¯į..âĢĿ": 3627,
      "Ġ1500": 3628,
      "à´": 3629,
      "à®¾à¯į,": 3630,
      "à¯ĭâĢ¦": 3631,
      "Ġà®ħà®®à®°à®°": 3632,
      "Ġà®ªà®´à®ļ": 3633,
      "Ġ81": 3634,
      "emple": 3635,
      "ĠIndian": 3636,
      "ĪĴ": 3637,
      "à®ļà®©à®²": 3638,
      "ĠâĢľâĢĿ": 3639,
      "ĠPer": 3640,
      "à®Ĵà®Ł": 3641,
      "Ġper": 3642,
      "urn": 3643,
      "à®ĥà®¤": 3644,
      "Ġ1964": 3645,
      "arth": 3646,
      "ĠRes": 3647,
      "angu": 3648,
      "?âĢĻ": 3649,
      "br": 3650,
      "rol": 3651,
      "à®¿&": 3652,
      "Ġà®¨à®Ļ": 3653,
      "à®¯à®ķà®°à®®": 3654,
      "athi": 3655,
      "ports": 3656,
      "Ù°": 3657,
      "à®©à®Łà®®": 3658,
      "Ġà®ħà®©à®°": 3659,
      "Ġ1965": 3660,
      "à®ªà®¤à®¤": 3661,
      "Ġà®¸à®²": 3662,
      "ener": 3663,
      "ĠCan": 3664,
      "Ġbuy": 3665,
      "overn": 3666,
      "mail": 3667,
      "to": 3668,
      "..!": 3669,
      "ĠâĢİ": 3670,
      "Ġà®µà®ļà®ª": 3671,
      "Ġ83": 3672,
      "ĠAM": 3673,
      "Ġà®Ĭà®Łà®ķà®ª": 3674,
      "à¯ĪâĢĭ": 3675,
      "à¯ĩ;": 3676,
      "Ġhave": 3677,
      "»¿": 3678,
      "Ġà®®à®ķà®ª": 3679,
      "ĠâĢĺâĢĻ": 3680,
      "à¯įâĢĿ,": 3681,
      "Ġ97": 3682,
      "ES": 3683,
      "à®ķà®ľ": 3684,
      "Ġà®¤à®²à®¤": 3685,
      "à®ľà®©à®®": 3686,
      "à®¤à®®à®¤": 3687,
      "à®¤à®©à®µ": 3688,
      "Ġà®ļà®°à®µ": 3689,
      "Ġtr": 3690,
      "elv": 3691,
      "Ġ144": 3692,
      "Ġ......": 3693,
      "****": 3694,
      "à®°à®ªà®¤": 3695,
      "à®¯à®ļà®ª": 3696,
      "à®°à®¤à®Ļ": 3697,
      "Ġà®ªà®²à®¤à®°à®ª": 3698,
      "à®Ĵà®³": 3699,
      "Ġpolitics": 3700,
      "Ġà®ļà®µà®°à®©": 3701,
      "à¯Ģà®¾à¯į": 3702,
      "Ġà®µà®°à®¤à®Ł": 3703,
      "à®¯à®®à®Ļ": 3704,
      "Ġà®¤à®°à®²": 3705,
      "ream": 3706,
      "Ġind": 3707,
      "ayan": 3708,
      "Ġqu": 3709,
      "à®ªà®±à®µ": 3710,
      "enef": 3711,
      "Ġ88": 3712,
      "Ġà®ħà®µà®¤à®°": 3713,
      "Ġwhich": 3714,
      "Ġà®µà®°à®£": 3715,
      "orn": 3716,
      "ĠRating": 3717,
      "Ġ1975": 3718,
      "ute": 3719,
      "odi": 3720,
      "Øª": 3721,
      "Ġà®ıà®£": 3722,
      "à®Ĳà®¨": 3723,
      "à®ªà®¯à®£": 3724,
      "anni": 3725,
      "IG": 3726,
      "fer": 3727,
      "Ġà®¤à®µà®³": 3728,
      "Ġpre": 3729,
      "à¥į": 3730,
      "so": 3731,
      "Ġ~": 3732,
      "à®²à®Łà®®": 3733,
      "angal": 3734,
      "à®©à®´": 3735,
      "Ġà®ķà®®à®°": 3736,
      "à®©à®®à®£": 3737,
      "à®®à®°à®Ļ": 3738,
      "à®īà®£à®µ": 3739,
      "Ġà®īà®£à®µà®ķà®®": 3740,
      "ips": 3741,
      "||": 3742,
      "à®ķà®³à®©": 3743,
      "Ġà®ıà®²": 3744,
      "Ġà®Ĭà®©à®®": 3745,
      "ĠPatri": 3746,
      "Ġ900": 3747,
      "Ar": 3748,
      "ym": 3749,
      "à®ķà®ŀ": 3750,
      "Ġà®ķà®©à®¤": 3751,
      "Ġà®®à®£à®µ": 3752,
      "Ġ89": 3753,
      "à®ıà®°": 3754,
      "avan": 3755,
      "Ġ1978": 3756,
      "à®Łà®ķà®ķ": 3757,
      "Ġ(+": 3758,
      "ali": 3759,
      "Ġ94": 3760,
      "tain": 3761,
      "rain": 3762,
      "MS": 3763,
      "Ġà®®à®¤à®ª": 3764,
      "à®ļà®ķà®Ł": 3765,
      "à®¸à®¸": 3766,
      "ĠIP": 3767,
      "ĠIt": 3768,
      "ush": 3769,
      "ble": 3770,
      "à®¾à®¿": 3771,
      "Ġà®°à®ļà®®": 3772,
      "Ġ1969": 3773,
      "ĠDinakaran": 3774,
      "we": 3775,
      "à®¾;": 3776,
      "à®¯à®¯": 3777,
      "Ġà®ķà®²à®µà®°à®Ļ": 3778,
      "ata": 3779,
      "Ġ82": 3780,
      "Ġnew": 3781,
      "Ġ1957": 3782,
      "earch": 3783,
      "ukk": 3784,
      "ĠReviewed": 3785,
      "oth": 3786,
      "ï¿½": 3787,
      "à¯Ī/": 3788,
      "Ġà®ªà®·": 3789,
      "à®¯à®©à®®": 3790,
      "istric": 3791,
      "Ġà®®à®´à®²": 3792,
      "olly": 3793,
      "Ġapp": 3794,
      "eople": 3795,
      "Cl": 3796,
      "wood": 3797,
      "Ġà®ħà®±à®Ļ": 3798,
      "itt": 3799,
      "Ġtop": 3800,
      "2000": 3801,
      "à¯įâĢľ": 3802,
      "à®ļà®ªà®ķ": 3803,
      "ĠBuy": 3804,
      "ĠInter": 3805,
      "2006": 3806,
      "spot": 3807,
      "gan": 3808,
      "Ġà®ķà®ªà®Ł": 3809,
      "à®īà®²à®ķà®®": 3810,
      "Ġher": 3811,
      "Ġreviews": 3812,
      "ystem": 3813,
      "eer": 3814,
      "à®ļà®ķà®Ļ": 3815,
      "à®ľà®µ": 3816,
      "Ġà®¤à®°à®¨": 3817,
      "Ġà®¤à®°à®Ļ": 3818,
      "ĠNE": 3819,
      "ĠRaj": 3820,
      "rap": 3821,
      "à®¨à®£": 3822,
      "Ġà®İà®ľà®®": 3823,
      "Ġà®ħà®¤à®°": 3824,
      "Ġà®µà®°à®©": 3825,
      "à®ªà®°à®µ": 3826,
      "Ġà®īà®£à®°à®ª": 3827,
      "Ġà®µà®²à®ª": 3828,
      "ĠJan": 3829,
      "Ġà®ħà®µà®ļà®°à®ª": 3830,
      "du": 3831,
      "ng": 3832,
      "Ġeng": 3833,
      "Ġà®Ļ": 3834,
      "à®³à®¯": 3835,
      "Ġà®ħà®ļà®®": 3836,
      "Ġà®µà®Łà®ļ": 3837,
      "arm": 3838,
      "à¯į!!!": 3839,
      "à¯į!âĢĻâĢĻ": 3840,
      "à¯į'.": 3841,
      "Ġà®ħà®µà®ļà®°à®¤": 3842,
      "ira": 3843,
      "type": 3844,
      "EL": 3845,
      "Ġent": 3846,
      "Ġà®ħà®ľà®¯": 3847,
      "à¯ĩà®¾,": 3848,
      "à¯Ģ)": 3849,
      "à®¾.,": 3850,
      "ret": 3851,
      "Ġkn": 3852,
      "Ġ1982": 3853,
      "AI": 3854,
      "red": 3855,
      "à®Ĳà®°": 3856,
      "Ġlocal": 3857,
      "à®Łà®±à®¤": 3858,
      "Ġà®ħà®±à®¤": 3859,
      "Ġà®İà®ĥà®ķ": 3860,
      "à¯į.*": 3861,
      "à¯į?'": 3862,
      "utt": 3863,
      "à°": 3864,
      "à¯ģ[": 3865,
      "Ġà®ªà®¤à®¤": 3866,
      "Ġà®ļà®®à®°à®ļ": 3867,
      "à®°à®ķà®Łà®©": 3868,
      "Ġ87": 3869,
      "Ġà®¨à®Łà®©à®ķ": 3870,
      "ruary": 3871,
      "Ġcomment": 3872,
      "Ġà®ķà®©à®°à®ķ": 3873,
      "RO": 3874,
      "gy": 3875,
      "à®£à®£": 3876,
      "Ġà®ļà®©à®¤": 3877,
      "à®¤à®°à®ķà®¤": 3878,
      "ini": 3879,
      "à®īà®£à®°": 3880,
      "Ġbl": 3881,
      "ĠLyrics": 3882,
      "Ġà®ļà®©à®¨": 3883,
      "Ġed": 3884,
      "à®¤à®Łà®¤": 3885,
      "à®¤à®£à®°": 3886,
      "Ġà®Ĳà®µà®°": 3887,
      "ĠIs": 3888,
      "Ġone": 3889,
      "Ġà®¹à®ª": 3890,
      "Ġà®ħà®ļà®Ł": 3891,
      "Ġ93": 3892,
      "avu": 3893,
      "blogspot": 3894,
      "Ġà®Ĩà®°à®£": 3895,
      "à®¾?.": 3896,
      "Ġà®¨à®ķà®°à®ª": 3897,
      "Ġ86": 3898,
      "Ġà®Ĩà®¤à®°à®µà®±": 3899,
      "Ġcol": 3900,
      "à®¯à®¨à®²à®®": 3901,
      "Ġ1974": 3902,
      "Ġà®®à®£à®®à®ķà®©": 3903,
      "Ġwho": 3904,
      "enefits": 3905,
      "As": 3906,
      "à®°à®¯à®®": 3907,
      "à®©à®Łà®¤": 3908,
      "à®®à®¤à®ª": 3909,
      "Ġà®ħà®ļà®°": 3910,
      "Ġà®īà®¤à®¯à®®": 3911,
      "arn": 3912,
      "uram": 3913,
      "Ġdo": 3914,
      "ĠCOVID": 3915,
      "Ġà®¨à®ķà®Ļ": 3916,
      "à®ķà®¤à®µ": 3917,
      ".....": 3918,
      "ane": 3919,
      "Ġ1940": 3920,
      "Ġà®ħà®³à®¨": 3921,
      "ĠJun": 3922,
      "ĠPatrikai": 3923,
      "à¯Ī).": 3924,
      "Ġà®īà®µà®®": 3925,
      "Ġà®Ĩà®ķà®®": 3926,
      "Ġà®°à®®à®£": 3927,
      "ĠScience": 3928,
      "à¯ģ?âĢĻ": 3929,
      "Ġ1981": 3930,
      "ebook": 3931,
      "oin": 3932,
      "Ã©": 3933,
      "à®¤à®Łà®Ļ": 3934,
      "à®ķà®µà®´à®ķ": 3935,
      "Ġà®ħà®³à®ķ": 3936,
      "ĠSub": 3937,
      "Ġph": 3938,
      "Ġ1979": 3939,
      "à®°à®ªà®°à®£": 3940,
      "AP": 3941,
      "à¯Ī....": 3942,
      "à®ķà®²à®µ": 3943,
      "Ġà®¤à®ķà®µà®²à®±": 3944,
      "Ġte": 3945,
      "ĠIS": 3946,
      "à®¤à®®à®®": 3947,
      "Ġpric": 3948,
      "Ġ140": 3949,
      "ount": 3950,
      "right": 3951,
      "CC": 3952,
      "à®ªà®²à®¤": 3953,
      "à®¯à®±à®¤": 3954,
      "Ġà®ıà®¯": 3955,
      "Ġà®¨à®®à®¸": 3956,
      "Ġà®īà®£à®µà®³": 3957,
      "ĠSer": 3958,
      "Ġà®·à®®": 3959,
      "ĠBS": 3960,
      "istory": 3961,
      "à®±à®¤à®©": 3962,
      "Ġà®ĵà®ªà®©": 3963,
      "Ġà®Īà®©": 3964,
      "ĠAg": 3965,
      "Ġ1962": 3966,
      "Ġcomp": 3967,
      "à®°à®ļà®®": 3968,
      "ĠTo": 3969,
      "agar": 3970,
      "à®¶": 3971,
      "à®Łà®µà®®": 3972,
      "Ġà®¤à®¸": 3973,
      "Ġà®ªà®²à®°à®¤": 3974,
      "à¯Ī.âĢĿ": 3975,
      "tha": 3976,
      "Ġà®¤à®ķà®©à®®": 3977,
      "à®®à®£à®ª": 3978,
      "Ġà®ļà®®à®£": 3979,
      "Ġà®¤à®©à®ª": 3980,
      "Ġà®¸à®®": 3981,
      "Ġcart": 3982,
      "Â®Â¤": 3983,
      "ae": 3984,
      "Ġen": 3985,
      "à®ªà®©à®¤": 3986,
      "à®ķà®³à®ķ": 3987,
      "à®ļà®µà®Ļ": 3988,
      "à®¯à®¤à®³à®Ļ": 3989,
      "Ġà®ħà®´à®ķà®°": 3990,
      "à®ķà®ļà®ª": 3991,
      "eli": 3992,
      "Ġà®ļà®²à®ļà®²à®ª": 3993,
      "Ġres": 3994,
      "!)": 3995,
      "à®°à®ķà®©": 3996,
      "à®ļà®ªà®Ł": 3997,
      "à®ļà®®à®¯à®¤": 3998,
      "à®¹à®µ": 3999,
      "Ġà®¤à®µà®´": 4000,
      "ĠCon": 4001,
      "acebook": 4002,
      "????": 4003,
      "ĠÙĪ": 4004,
      "Im": 4005,
      "lic": 4006,
      "ĠMed": 4007,
      "ĠII": 4008,
      "Ġbreaking": 4009,
      "ĠVir": 4010,
      "à¯įâĢĮ.": 4011,
      "2004": 4012,
      "ĠComm": 4013,
      "News": 4014,
      "UR": 4015,
      "à®²à®¤à®©": 4016,
      "Ġà®ªà®°à®Ļ": 4017,
      "Ġà®ªà®¯à®©à®³": 4018,
      "Ġà®ħà®ķà®¨": 4019,
      "GB": 4020,
      "news": 4021,
      "à®¾âĢĭ": 4022,
      "Ġà®®à®Łà®²": 4023,
      "Ġà®ħà®¤à®©à®Ł": 4024,
      "à¯į...!": 4025,
      "reen": 4026,
      "ending": 4027,
      "Ġbooks": 4028,
      "ĠFebruary": 4029,
      "à®®à®©à®®": 4030,
      "à®Ĩà®³": 4031,
      "thu": 4032,
      "ĠOr": 4033,
      "Ġà®¤à®µà®¤": 4034,
      "à®Ĩà®µ": 4035,
      "Ġ1920": 4036,
      "Ġ91": 4037,
      "Ġcont": 4038,
      "ĠDr": 4039,
      "2005": 4040,
      "à®Łà®ķà®ª": 4041,
      "à¯ĭ)": 4042,
      "à®µà®®à®±": 4043,
      "ðŁĺ": 4044,
      "Ġacid": 4045,
      "lim": 4046,
      "à®ħà®¸": 4047,
      "ĠRam": 4048,
      "Ġcan": 4049,
      "aigal": 4050,
      "ĠThis": 4051,
      "ollywood": 4052,
      "land": 4053,
      "Ġà®ªà®±à®ª": 4054,
      "Ġà®²à®¯": 4055,
      "inal": 4056,
      "Ġhind": 4057,
      "umar": 4058,
      "athu": 4059,
      "ĠRev": 4060,
      "Ġgr": 4061,
      "Ġcartoon": 4062,
      "OS": 4063,
      "be": 4064,
      "Âª": 4065,
      "Ġà®Łà®¯": 4066,
      "Ġà®ħà®µà®¸": 4067,
      "Ġ\"||": 4068,
      "Ġ2022": 4069,
      "itter": 4070,
      "lease": 4071,
      "à®¯à®¨à®²": 4072,
      "Ġ1952": 4073,
      "eek": 4074,
      "Ġ\"||\"": 4075,
      "HA": 4076,
      "à®µà®©à®ķ": 4077,
      "à®ħà®³à®µ": 4078,
      "à®¤à®ķà®©": 4079,
      "Ġà®¹à®¸": 4080,
      "à®°à®ķà®Łà®©à®®": 4081,
      "lection": 4082,
      "TN": 4083,
      "eed": 4084,
      "à¯ģ]]": 4085,
      "Ġà®Īà®±": 4086,
      "Ġ79": 4087,
      "ĠNov": 4088,
      "ĠCTR": 4089,
      "ĠAct": 4090,
      "outh": 4091,
      "ives": 4092,
      "700": 4093,
      "Ġà®Ķ": 4094,
      "à®¨à®®à®ķ": 4095,
      "à®¯à®²à®ķà®®": 4096,
      "à®Ĵà®´": 4097,
      "ets": 4098,
      "Ġ1973": 4099,
      "Ġgold": 4100,
      "overnment": 4101,
      "istrict": 4102,
      "Ġà®Ĩà®µà®Ł": 4103,
      "à®¯à®®à®©à®¤": 4104,
      "Ġà®ħà®ķà®¸": 4105,
      "Ġà®ĵà®Łà®µ": 4106,
      "Ġmovie": 4107,
      "à¯įâĢ¦..": 4108,
      "Ġhas": 4109,
      "Ġà®īà®²à®ķà®®à®¯à®®": 4110,
      "à¯ĩ?âĢĿ": 4111,
      "Ġà®Ĳà®¤à®°à®ļà®©": 4112,
      "ron": 4113,
      "Ġà®ļà®·": 4114,
      "à®ķà®©à®Ł": 4115,
      "ĠHD": 4116,
      "oci": 4117,
      "Ġ1945": 4118,
      "upp": 4119,
      "à®ķà®³à®ŀ": 4120,
      "arb": 4121,
      "ĠMP": 4122,
      "ĠBe": 4123,
      "aya": 4124,
      "EC": 4125,
      "à¯ĭà®¾à¯į": 4126,
      "Ġà®Ĩà®ķà®ª": 4127,
      "Ġà®Ĩà®°à®¤": 4128,
      "Ġmy": 4129,
      "ows": 4130,
      "à®¯à®¤à®²": 4131,
      "Ġà®ªà®¯à®ķ": 4132,
      "Ġà®ªà®¯à®±": 4133,
      "Ġà®ļà®¯à®©": 4134,
      "aik": 4135,
      "ÂªÃł": 4136,
      "Ġà¶": 4137,
      "Ġà®¨à®ľ": 4138,
      "ĠSong": 4139,
      "html": 4140,
      "outube": 4141,
      "orona": 4142,
      "Sp": 4143,
      "ole": 4144,
      "Ġ),": 4145,
      "Ġà®ªà®¹": 4146,
      "Ġà®ªà®²à®¨": 4147,
      "à®±à®®à®±": 4148,
      "à¯į...âĢĻ": 4149,
      "à®®à®£à®²": 4150,
      "Ġ1976": 4151,
      "OL": 4152,
      "Â¾": 4153,
      "êŀ": 4154,
      "à®¯à®µà®´": 4155,
      "itor": 4156,
      "Ġmodel": 4157,
      "ipp": 4158,
      "ular": 4159,
      "êŀī": 4160,
      "yn": 4161,
      "à®¿....": 4162,
      "à®®à®²à®¤": 4163,
      "à®ķà®³à®Ļ": 4164,
      "ĠDev": 4165,
      "riend": 4166,
      "ĠÂ«": 4167,
      "US": 4168,
      "à®±à®¯": 4169,
      "Ġà®®à®²à®ª": 4170,
      "à®ķà®²à®ķ": 4171,
      "ĠKal": 4172,
      "ĠEnglish": 4173,
      "IP": 4174,
      "hp": 4175,
      "ps": 4176,
      "à®ĵà®¯": 4177,
      "à®¿âĢĻ,": 4178,
      "Ġkamakathaikal": 4179,
      "Ġà®¨à®¸": 4180,
      "à®¯à®ķà®Ļ": 4181,
      "ĠNational": 4182,
      "à¤°": 4183,
      "ĠCanada": 4184,
      "Ind": 4185,
      "der": 4186,
      "doc": 4187,
      "Ġour": 4188,
      "à®ķà®ķà®³": 4189,
      "à®ķà®³à®±": 4190,
      "Ġà®Ĩà®Łà®²": 4191,
      "à®°à®®à®²": 4192,
      "Ġà®Łà®µà®°": 4193,
      "à®ªà®ķà®±": 4194,
      "à®īà®ª": 4195,
      "ĠApp": 4196,
      "ument": 4197,
      "ĠInternational": 4198,
      "utamil": 4199,
      "izh": 4200,
      "Ġà®ľà®µà®¹à®°": 4201,
      "cript": 4202,
      "fl": 4203,
      "yle": 4204,
      "à®°à®³à®®": 4205,
      "à®®à®ľ": 4206,
      "à®ªà®¯à®Ļ": 4207,
      "à®ıà®µ": 4208,
      "Â®Â°": 4209,
      "gh": 4210,
      "pro": 4211,
      "uary": 4212,
      "à®ķà®¹": 4213,
      "Ġà®ªà®¯à®²": 4214,
      "Ġà®Ĩà®²à®Ļ": 4215,
      "iness": 4216,
      "Ġà®Ĳà®¯à®©": 4217,
      "Ġ1958": 4218,
      "iversity": 4219,
      "?)": 4220,
      "CL": 4221,
      "more": 4222,
      "à®¿]]": 4223,
      "Ġà®¤à®³à®ª": 4224,
      "à¯ģ.,": 4225,
      "à®ħà®ŀ": 4226,
      "ative": 4227,
      "ĠCent": 4228,
      "à¯ģ!âĢĿ": 4229,
      "à¯ģ..!!": 4230,
      "ikk": 4231,
      "udi": 4232,
      "iyar": 4233,
      "ĠFlash": 4234,
      "ĠSamayam": 4235,
      "Ġà®ļà®Łà®²à®Ļ": 4236,
      "âĢ¢": 4237,
      "à®ķà®°à®ļà®°": 4238,
      "Ġà®¤à®°à®ķà®°": 4239,
      "Ġà®Īà®ª": 4240,
      "ĠAir": 4241,
      "Ġ128": 4242,
      "Ġà®®à®©à®¤à®³à®µ": 4243,
      "irus": 4244,
      "eck": 4245,
      "Al": 4246,
      "à®¤à®°à®ķà®®": 4247,
      "à®Ĩà®¨": 4248,
      "ert": 4249,
      "à®Ĵà®ª": 4250,
      "iry": 4251,
      "ission": 4252,
      "NL": 4253,
      "gov": 4254,
      "rum": 4255,
      "à®ļà®²à®¤": 4256,
      "Ġà®ļà®ªà®¤à®®": 4257,
      "Ġ220": 4258,
      "Ġà®ķà®²à®ķà®²à®ª": 4259,
      "à®ĩà®µà®©": 4260,
      "Ġ720": 4261,
      "ĠNot": 4262,
      "à®Ĳà®ļ": 4263,
      "Ġà®ĩà®®à®¯à®®à®²": 4264,
      "ĠVideo": 4265,
      "Ġoff": 4266,
      "ĠâĤ": 4267,
      "ruit": 4268,
      "formation": 4269,
      "=\"": 4270,
      "con": 4271,
      "sex": 4272,
      "à®²à®Łà®ķ": 4273,
      "à®ļà®Łà®Ļ": 4274,
      "Ġà®ļà®ķà®¤": 4275,
      "Ġà®īà®²à®®": 4276,
      "Ġpm": 4277,
      "Ġ1946": 4278,
      "Home": 4279,
      "à®°à®®à®±": 4280,
      "à®Łà®°à®µ": 4281,
      "Ġà®ªà®¯à®£à®ª": 4282,
      "ars": 4283,
      "atha": 4284,
      "à®¤à®³à®ªà®¤": 4285,
      "à¯ĪâĢĻâĢĻ": 4286,
      "ideos": 4287,
      "à®ĩà®µà®±": 4288,
      "asam": 4289,
      "Ġà®ªà®°à®®à®ķ": 4290,
      "Ġ1951": 4291,
      "à®Ĭà®Ł": 4292,
      "attu": 4293,
      "à®ªà®¤à®²": 4294,
      "Ġà®Ĭà®ŀ": 4295,
      "à®Ĩà®ķà®µ": 4296,
      "à¯į...\"": 4297,
      "aiv": 4298,
      "imes": 4299,
      "Ø¨": 4300,
      "à®©à®ķà®°": 4301,
      "Ġà®®à®±à®¤": 4302,
      "à®ķà®³à®°": 4303,
      "à¯ĭâĢĿ": 4304,
      "à¯Ĥ-": 4305,
      "à®¤à®¤à®¤": 4306,
      "Ġ450": 4307,
      "ĠAss": 4308,
      "ely": 4309,
      "Ġhis": 4310,
      "imer": 4311,
      "ĠTechn": 4312,
      "iction": 4313,
      "à®ªà®¤à®ķ": 4314,
      "Ġà®¯à®ļ": 4315,
      "Ġà®ĵà®©": 4316,
      "à¯į;.": 4317,
      "Ġ1954": 4318,
      "\"\"": 4319,
      "BS": 4320,
      "MK": 4321,
      "aut": 4322,
      "date": 4323,
      "à®¤à®Łà®®": 4324,
      "à®°à®¤à®©": 4325,
      "Ġà®Łà®Ł": 4326,
      "à®ļà®©à®ª": 4327,
      "Ġà®īà®ªà®ļà®°": 4328,
      "ĠLED": 4329,
      "Ġna": 4330,
      "ency": 4331,
      "ombai": 4332,
      "Ġhindutamil": 4333,
      "IR": 4334,
      "Ġà®ķà®£à®Ļ": 4335,
      "Ġà®¸à®°": 4336,
      "à®°à®£à®ķ": 4337,
      "à®µà®ļà®ķ": 4338,
      "ĠSports": 4339,
      "!!!!": 4340,
      "ĠInst": 4341,
      "2001": 4342,
      ".(": 4343,
      "Ġout": 4344,
      "à®£à®®à®¯à®®": 4345,
      "Ġà®¨à®°à®ķà®¤": 4346,
      "Ġvar": 4347,
      "à®°à®ķà®Łà®©à®ª": 4348,
      "min": 4349,
      "à¯ģ,''": 4350,
      "Ġà®ĩà®¤à®¯à®Ļ": 4351,
      "à®µà®©à®Ł": 4352,
      "Ġpeople": 4353,
      "à®Īà®Ł": 4354,
      "Ġyear": 4355,
      "atti": 4356,
      "akka": 4357,
      "Ġà®īà®Łà®¨": 4358,
      "à®°à®ªà®¨": 4359,
      "Ġ1949": 4360,
      "ublic": 4361,
      "ward": 4362,
      "à®±à®£": 4363,
      "Ġà®µà®©à®®": 4364,
      "à®²à®®à®©": 4365,
      "Ġà®ħà®±à®ª": 4366,
      "aid": 4367,
      "ublish": 4368,
      "uper": 4369,
      "go": 4370,
      "ober": 4371,
      "à®¯à®ļà®°": 4372,
      "à®ļà®£à®®": 4373,
      "Ġà®ĵà®¨": 4374,
      "ited": 4375,
      "Ġwe": 4376,
      "ĠGoogle": 4377,
      "IV": 4378,
      "MP": 4379,
      "à®¨à®Łà®°": 4380,
      "Ġà®ªà®Łà®²à®®": 4381,
      "à®ĩà®³à®®": 4382,
      "ality": 4383,
      "à®µà®ļà®¨": 4384,
      "ĠChrist": 4385,
      "ĠTrending": 4386,
      "anguage": 4387,
      "pen": 4388,
      "Ġz": 4389,
      "à®¾]]": 4390,
      "Ġà®ªà®ľà®©": 4391,
      "Ġà®¨à®µà®¨": 4392,
      "Ġà®Ĵà®®": 4393,
      "ĠAs": 4394,
      "Ġbenefits": 4395,
      "Ġhealth": 4396,
      "à®ķà®¨à®²": 4397,
      "à¯įâĢĮ,": 4398,
      "Ġà®®à®¹à®°": 4399,
      "Ġ1955": 4400,
      "ouse": 4401,
      "\",\"": 4402,
      "aff": 4403,
      "Ġà®ľà®Ļ": 4404,
      "âĢ¦)": 4405,
      "chool": 4406,
      "à®Łà®¨à®®": 4407,
      "Ġtoday": 4408,
      "ulam": 4409,
      "Ġ1961": 4410,
      "Ġ1959": 4411,
      "kin": 4412,
      "Ġà®īà®³à®±": 4413,
      "Ġmon": 4414,
      "Ġ},": 4415,
      "Sh": 4416,
      "à®ªà®¹": 4417,
      "à®¨à®²à®¤": 4418,
      "à®ľà®©à®µà®°": 4419,
      "à®ªà®°à®ļ": 4420,
      "à®Łà®²à®Ł": 4421,
      "à®³à®©à®µ": 4422,
      "oot": 4423,
      "use": 4424,
      "Ġà®ªà®°à®®à®ļ": 4425,
      ".\"": 4426,
      "way": 4427,
      "Ø³": 4428,
      "Ġà®ıà®µà®ª": 4429,
      "als": 4430,
      "à®°à®µà®£à®ķ": 4431,
      "Ġà®·à®ķ": 4432,
      "ĠKollywood": 4433,
      "emb": 4434,
      "ĠâĢ¦.": 4435,
      "work": 4436,
      "Ġav": 4437,
      "à®Łà®Łà®ķ": 4438,
      "à®ļà®°à®ķ": 4439,
      "à®ļà®°à®¸": 4440,
      "inews": 4441,
      "ames": 4442,
      "ident": 4443,
      "à®ľà®¯à®¨à®ķà®°": 4444,
      "Ġdis": 4445,
      "Ġday": 4446,
      "Â®Â®": 4447,
      "ody": 4448,
      "à®¾âĢ¦.": 4449,
      "CH": 4450,
      "gs": 4451,
      "ĠÎ": 4452,
      "Ġvi": 4453,
      "à®ļà®ŀ": 4454,
      "Ġà®Ĵà®¸": 4455,
      "Ġà®¹à®Ł": 4456,
      "ama": 4457,
      "ature": 4458,
      "à®¾??": 4459,
      "à¯į?.": 4460,
      "ĠCo": 4461,
      "à®µà®´à®Ļ": 4462,
      "Ġ1944": 4463,
      "inister": 4464,
      "tn": 4465,
      "Ġà®Ĩà®ļà®©à®Ļ": 4466,
      "à®Łà®©à®Ļ": 4467,
      "à®ľà®¯à®²à®Ł": 4468,
      "Ġà®ħà®ķà®²à®¤": 4469,
      "araj": 4470,
      "âĢ¦..": 4471,
      "olution": 4472,
      "Ġmag": 4473,
      "Ġfr": 4474,
      "undh": 4475,
      "Ġà®ķà®²à®®": 4476,
      "à®ķà®²à®¨": 4477,
      "Ġà®ļà®®à®¯à®ª": 4478,
      "ĠTest": 4479,
      "ĠPri": 4480,
      "Ġpart": 4481,
      "Ġà®®à®£à®®à®ķà®³": 4482,
      "],": 4483,
      "à¸": 4484,
      "à¯į*": 4485,
      "à¯įâĢĺ": 4486,
      "Ġà®Łà®²": 4487,
      "à®¤à®µà®£": 4488,
      "Ġà®®à®£à®¤": 4489,
      "Ġà®ĩà®Łà®µà®ļà®¤": 4490,
      "ĠSex": 4491,
      "ould": 4492,
      "Ġmin": 4493,
      "Ġ2500": 4494,
      "ĠBooks": 4495,
      "ĠâĤ¹": 4496,
      "ele": 4497,
      "mi": 4498,
      "à®°à®³à®µ": 4499,
      "à®Ļà®©à®®": 4500,
      "à®¤à®®à®Ļ": 4501,
      "Ġà®Ĩà®ķà®£": 4502,
      "Ġ1931": 4503,
      "ĠTir": 4504,
      "ĠEm": 4505,
      "UN": 4506,
      "à¯ģ|": 4507,
      "à¯ĩ....": 4508,
      "à®¨à®²à®©": 4509,
      "Ġà®Ĩà®³à®ª": 4510,
      "Ġà®ıà®´à®°": 4511,
      "à®¯à®©à®Ļ": 4512,
      "Ġà®¤à®°à®£": 4513,
      "Ġà®Ĳà®¯à®Ļ": 4514,
      "thi": 4515,
      "à®ĵà®®": 4516,
      "erson": 4517,
      "ection": 4518,
      "logo": 4519,
      "Ġalso": 4520,
      "Ġà®µà®¹": 4521,
      "à¯ģ,âĢĿ": 4522,
      "à®ĩà®µà®°à®¤": 4523,
      "Ġà®¨à®²à®ļ": 4524,
      "Ġà®µà®Łà®¨": 4525,
      "ati": 4526,
      "Ġà®ħà®ļà®¨": 4527,
      "à®ıà®¯": 4528,
      "ied": 4529,
      "rite": 4530,
      "à®ªà®¯à®°": 4531,
      "Ġà®ķà®°à®¤": 4532,
      "Ġà®ĵà®´": 4533,
      "à®ķà®©à®ª": 4534,
      "Ġ1937": 4535,
      "250": 4536,
      "BC": 4537,
      "uch": 4538,
      "à¯ĪâĢĮ": 4539,
      "à®ľà®¨": 4540,
      "Ġ105": 4541,
      "à¯į?''": 4542,
      "ĠGold": 4543,
      "Ġà®ªà®²à®©à®³": 4544,
      "Ġlike": 4545,
      "Ġ1966": 4546,
      "ization": 4547,
      "1000": 4548,
      "SS": 4549,
      "ren": 4550,
      "ï»¿": 4551,
      "Ġà®¤à®Łà®¤": 4552,
      "Ġà®ļà®©à®®": 4553,
      "Ġà®ħà®µà®²à®Ļ": 4554,
      "Ġà®ªà®°à®²": 4555,
      "à®ķà®´à®µ": 4556,
      "Ġà®®à®²à®Ł": 4557,
      "Ġvs": 4558,
      "ours": 4559,
      "wiki": 4560,
      "???": 4561,
      "?'": 4562,
      "à®ķà®³à®²": 4563,
      "à¯ĩ:": 4564,
      "à®¸à®ª": 4565,
      "Ġà®¯à®Ł": 4566,
      "Ġà®ªà®°à®ļ": 4567,
      "eri": 4568,
      "Ġà®ªà®©à®Ļ": 4569,
      "Ġpol": 4570,
      "ĠJanuary": 4571,
      "iryani": 4572,
      "RI": 4573,
      "ys": 4574,
      "Ġà®īà®£à®°à®®": 4575,
      "than": 4576,
      "edic": 4577,
      "Ġà®ªà®¯à®£à®ķ": 4578,
      "Ġ170": 4579,
      "Ġnadan": 4580,
      "Ġ1953": 4581,
      "under": 4582,
      "roup": 4583,
      "Ġentry": 4584,
      "à®¨à®µà®®": 4585,
      "Ġà®ĩà®¯à®°": 4586,
      "Ġà®ħà®°à®ļà®µ": 4587,
      "à®Ĵà®²": 4588,
      "ĠLank": 4589,
      "Ġà®ķà®µà®©à®ķ": 4590,
      "ocial": 4591,
      "ĠComp": 4592,
      "Ġev": 4593,
      "à·Ĭ": 4594,
      "ĠÙħ": 4595,
      "TE": 4596,
      "[[": 4597,
      "ms": 4598,
      "Ø¯": 4599,
      "Ġà®ķà®¤à®°": 4600,
      "à¯ģ.'": 4601,
      "Ġà®īà®£à®°à®²": 4602,
      "Ġà®ļà®°à®³à®®": 4603,
      "à®ķà®´à®ª": 4604,
      "ĠHigh": 4605,
      "Ġ1968": 4606,
      "iyam": 4607,
      "ĠArt": 4608,
      "âĢĶâĢĶâĢĶâĢĶ": 4609,
      "PA": 4610,
      "eel": 4611,
      "rc": 4612,
      "à®®à®ķà®¤": 4613,
      "à¯Ī_": 4614,
      "à®Łà®®à®°": 4615,
      "Ġà®Ĳà®İà®¸": 4616,
      "à¯į...âĢĿ": 4617,
      "ĠCateg": 4618,
      "Ġ1200": 4619,
      "otos": 4620,
      "Ġ1963": 4621,
      "à¯į]],": 4622,
      "azh": 4623,
      "gram": 4624,
      "li": 4625,
      "tr": 4626,
      "à¯ĭà¯į": 4627,
      "à®ķà®°à®Ł": 4628,
      "à®¤à®°à®ķà®°": 4629,
      "Ġà®²à®¯à®©": 4630,
      "Ġ370": 4631,
      "Ġà®īà®²à®ķà®¨": 4632,
      "Ġtrans": 4633,
      "ures": 4634,
      "eep": 4635,
      "Ġmarundh": 4636,
      "{{": 4637,
      "á¹": 4638,
      "Ġà®Łà®¯à®Ł": 4639,
      "Ġà®²à®·": 4640,
      "Ġà®Ĳà®©": 4641,
      "Ġà®Ĳà®Ĳà®Ł": 4642,
      "Ġ1939": 4643,
      "Ġà®Ĩà®²à®©": 4644,
      "ĠMag": 4645,
      "Ġtime": 4646,
      "à¯ģâĢĻ,": 4647,
      "Ġcomm": 4648,
      "à®¨à®¯": 4649,
      "Ġà®İà®´à®µ": 4650,
      "à®ªà®®à®£": 4651,
      "Ġ4000": 4652,
      "Ġfirst": 4653,
      "ags": 4654,
      "Ġà®ªà®°à®µà®ļà®®": 4655,
      "wn": 4656,
      "à®®à®Łà®®": 4657,
      "Ġà®¯à®ķ": 4658,
      "any": 4659,
      "à®©à®µà®Ļ": 4660,
      "gmail": 4661,
      "Â§": 4662,
      "à®µà®ķà®ļ": 4663,
      "à®©à®¤à®©": 4664,
      "à®ħà®µà®±": 4665,
      "alam": 4666,
      "à¯Įà®¿": 4667,
      "à¯ĩ!)": 4668,
      "IM": 4669,
      "kkai": 4670,
      "à®°à®¯à®¤": 4671,
      "à®ªà®ªà®Ł": 4672,
      "à®ķà®µà®®": 4673,
      "Ġ(=": 4674,
      "à®ķà®©à®©": 4675,
      "Ġà®µà®²à®¯à®¤": 4676,
      "Ġ104": 4677,
      "Ġà®ķà®©à®ħà®Ł": 4678,
      "à¤¿": 4679,
      "play": 4680,
      "bject": 4681,
      "Ùĥ": 4682,
      "à®²à®¤à®²": 4683,
      "à®ļà®°à®¤": 4684,
      "Ġà®¤à®Łà®ķà®³": 4685,
      "ĠTR": 4686,
      "Ġà®µà®³à®°à®µ": 4687,
      "Ġ750": 4688,
      "ope": 4689,
      "ĠAll": 4690,
      "Ġadd": 4691,
      "irector": 4692,
      "ĠPolimer": 4693,
      "900": 4694,
      "LA": 4695,
      "Pro": 4696,
      "TM": 4697,
      "oph": 4698,
      "ti": 4699,
      "Ġà®µà®³à®ª": 4700,
      "Ġà®¨à®°à®ķ": 4701,
      "à®Łà®®à®³": 4702,
      "ĠMark": 4703,
      "Ġsc": 4704,
      "ask": 4705,
      "à¥ĩ": 4706,
      "ING": 4707,
      "ossip": 4708,
      "Ph": 4709,
      "ek": 4710,
      "à¯ģâĢį": 4711,
      "à®®à®ķà®°": 4712,
      "Ġà®µà®ļà®©": 4713,
      "Ġà®ĩà®³à®ķ": 4714,
      "à¯į.-": 4715,
      "à¯ģ.(": 4716,
      "à®ľà®ľ": 4717,
      "Ġà®ķà®£à®µ": 4718,
      "à®ĩà®Łà®®": 4719,
      "Ġà®¨à®ķà®°à®ļà®ª": 4720,
      "ĠSec": 4721,
      "ica": 4722,
      "Ġmat": 4723,
      "roid": 4724,
      "usiness": 4725,
      "annel": 4726,
      "PSC": 4727,
      "BG": 4728,
      "OT": 4729,
      "au": 4730,
      "fter": 4731,
      "à¯į//": 4732,
      "à®°à®ķà®°": 4733,
      "Ġà®ħà®®à®®": 4734,
      "à®ħà®µà®Ļ": 4735,
      "Ġhere": 4736,
      "à®°à®ªà®²à®®à®Ł": 4737,
      "ĠStud": 4738,
      "ffect": 4739,
      "ATION": 4740,
      "Ġposted": 4741,
      "ĠDecember": 4742,
      "à®¤à®¤à®²": 4743,
      "à®¤à®Łà®µ": 4744,
      "Ġà®ħà®¤à®Ł": 4745,
      "à®¯à®®à®©à®Ļ": 4746,
      "anam": 4747,
      "Ġà®īà®²à®ķà®Ļ": 4748,
      "andard": 4749,
      "ĠYarl": 4750,
      "aa": 4751,
      "à®¯à®°à®³à®µ": 4752,
      "à®¹à®¸": 4753,
      "ĠMay": 4754,
      "eld": 4755,
      "Ġà®ķà®µà®©à®¯": 4756,
      "Ex": 4757,
      "por": 4758,
      "ror": 4759,
      "Â·": 4760,
      "Ġà®¤à®Łà®¯à®Ļ": 4761,
      "ĠHealth": 4762,
      "à®ĥà®ĥ": 4763,
      "ĠRec": 4764,
      "à®¿..!": 4765,
      "ĠInteract": 4766,
      "à®ªà®²à®°": 4767,
      "Ġà®ķà®¯à®²": 4768,
      "à®ļà®µà®¤": 4769,
      "Ġà®Ĵà®Ļ": 4770,
      "Ġ119": 4771,
      "à®Ĩà®ķà®¸": 4772,
      "à®ªà®©à®µà®±": 4773,
      "à®īà®²à®ķà®¤": 4774,
      "elop": 4775,
      "Ġword": 4776,
      "à¯ģ..?": 4777,
      "eat": 4778,
      "vest": 4779,
      "à®ļà®°à®®": 4780,
      "Ġà®ĩà®ķà®´": 4781,
      "à¯į!)": 4782,
      "ĠAb": 4783,
      "Ġ1800": 4784,
      "ision": 4785,
      "ĠGr": 4786,
      "etail": 4787,
      "Ġ).": 4788,
      "à®¿).": 4789,
      "Â®Â¯": 4790,
      "Â®ÂŁ": 4791,
      "à®Ĭà®°à®Łà®Ļ": 4792,
      "Ġactress": 4793,
      "TV": 4794,
      "ness": 4795,
      "rest": 4796,
      "à®ªà®ķà®°": 4797,
      "à®ľà®ķà®®": 4798,
      "Ġà®ħà®®à®°à®µ": 4799,
      "..?": 4800,
      "Ġà®ķà®°à®ķ": 4801,
      "à®ĩà®Łà®¤": 4802,
      "ĠCream": 4803,
      "ĠDistrict": 4804,
      "ury": 4805,
      "ĠFilm": 4806,
      "à¯ĩ!âĢĿ": 4807,
      "ĠKam": 4808,
      "ource": 4809,
      "plet": 4810,
      "On": 4811,
      "ho": 4812,
      "ier": 4813,
      "à®®à®Łà®¤": 4814,
      "à®µà®¯à®²": 4815,
      "à®ľà®¯à®°": 4816,
      "à®ķà®²à®Ł": 4817,
      "Ġà®ķà®²à®©": 4818,
      "arg": 4819,
      "Ġ6000": 4820,
      "à¯į\")": 4821,
      "ety": 4822,
      "à®ĵà®ļ": 4823,
      "Ġà®¤à®°à®®à®±": 4824,
      "Ġ.....": 4825,
      "ange": 4826,
      "à¯Ī..!": 4827,
      "à®Ĭà®¤": 4828,
      "150": 4829,
      "BI": 4830,
      "TU": 4831,
      "dis": 4832,
      "ior": 4833,
      "paper": 4834,
      "à§": 4835,
      "à®°à®µà®²": 4836,
      "à¯Ī!!": 4837,
      "à®¨à®±": 4838,
      "Ġà®ĩà®µà®©à®¤": 4839,
      "à®Łà®°à®Ļ": 4840,
      "Ġà®®à®°à®ļ": 4841,
      "Ġà®ĵà®©à®°": 4842,
      "Ġà®ħà®³à®µà®±": 4843,
      "à®°à®µà®Ļ": 4844,
      "Ġtemple": 4845,
      "Ġserkkai": 4846,
      "ĠChristian": 4847,
      "cle": 4848,
      "other": 4849,
      "Ġ_": 4850,
      "à®¿à¯ĩ": 4851,
      "à®¹à®ª": 4852,
      "amm": 4853,
      "à¯į......": 4854,
      "ita": 4855,
      "ĠRE": 4856,
      "Ġwork": 4857,
      "urr": 4858,
      "rib": 4859,
      "SC": 4860,
      "res": 4861,
      "âĪĴ": 4862,
      "à®¯à®©à®°": 4863,
      "à®´à®ķà®°": 4864,
      "à®ķà®ªà®²à®®": 4865,
      "à®Łà®®à®Ł": 4866,
      "Ġà®ľà®¯à®ļ": 4867,
      "à®İà®³": 4868,
      "arch": 4869,
      "ĠNe": 4870,
      "Ġà®·à®Ł": 4871,
      "âĢĭâĢĭ": 4872,
      "avith": 4873,
      "à®¨à®Łà®µà®Ł": 4874,
      "Ġ{{": 4875,
      "Ġ1942": 4876,
      "obs": 4877,
      "========": 4878,
      "ĠQuestions": 4879,
      "Com": 4880,
      "à¯ģà¯į": 4881,
      "à®³à®©à®¤": 4882,
      "Ġà®°à®Ł": 4883,
      "Ġà®¯à®ª": 4884,
      "à®ĩà®³à®Ļ": 4885,
      "amy": 4886,
      "ĠTH": 4887,
      "ĠTam": 4888,
      "agam": 4889,
      "ĠHot": 4890,
      "elling": 4891,
      "Ġà®®à®ķà®°à®¨": 4892,
      "UM": 4893,
      "YM": 4894,
      "ll": 4895,
      "Ġem": 4896,
      "à¯Ī]]": 4897,
      "Ġà®®à®²à®ķ": 4898,
      "à®¨à®Łà®¨": 4899,
      "Ġà®¤à®°à®ļ": 4900,
      "Ġà®®à®°à®ķà®¤": 4901,
      "Ġ1938": 4902,
      "ering": 4903,
      "Ġà®µà®³à®°à®ķ": 4904,
      "à®°à®ķà®£à®®": 4905,
      "Ġ103": 4906,
      "ĠPa": 4907,
      "à¯į..\"": 4908,
      "1990": 4909,
      "à®¯à®¨à®²à®¤": 4910,
      "ĠVig": 4911,
      "aksh": 4912,
      "ve": 4913,
      "à®¾''": 4914,
      "Ġà®Ĩà®µà®¤à®±": 4915,
      "à¯ģ.''": 4916,
      "à®®à®©à®ļ": 4917,
      "era": 4918,
      "ĠAug": 4919,
      "adurai": 4920,
      "à®ľà®©à®¨": 4921,
      "Ġà®ªà®¯à®£à®ļ": 4922,
      "ĠKombai": 4923,
      "unn": 4924,
      "No": 4925,
      "à®¨à®²à®µ": 4926,
      "Ġà®īà®µ": 4927,
      "Ġà®ıà®ķà®¤": 4928,
      "à®Łà®©à®µ": 4929,
      "Ġà®¨à®²à®µ": 4930,
      "oud": 4931,
      "asan": 4932,
      "ĠBy": 4933,
      "ĠOct": 4934,
      "ize": 4935,
      "Ġprot": 4936,
      "ĠMarch": 4937,
      "cipe": 4938,
      "document": 4939,
      "Ġnaanjil": 4940,
      "write": 4941,
      "à®µà®¤à®®": 4942,
      "Ġà®ľà®¨": 4943,
      "à®ªà®°à®¸": 4944,
      "à®³à®µà®±": 4945,
      "Ġà®¨à®®à®ļ": 4946,
      "Ġà®Ĩà®Łà®µà®°": 4947,
      "à®īà®±à®µ": 4948,
      "à®¤à®±à®Ł": 4949,
      "à¯ģ.....": 4950,
      "etwork": 4951,
      "Ġdes": 4952,
      "Ġdel": 4953,
      "akam": 4954,
      "uman": 4955,
      "2003": 4956,
      "richy": 4957,
      "oic": 4958,
      "à®¤à®ķà®µ": 4959,
      "à®µà®ķà®ª": 4960,
      "à®µà®ķà®©": 4961,
      "Ġà®µà®³à®µ": 4962,
      "à®ļà®ķà®µ": 4963,
      "à®Łà®ªà®Ļ": 4964,
      "inn": 4965,
      "Ġ1935": 4966,
      "à®ķà®£à®Ļ": 4967,
      "Ġà®ĩà®ļà®Ł": 4968,
      "asp": 4969,
      "ently": 4970,
      "ooth": 4971,
      "Ġ234": 4972,
      "Ġform": 4973,
      "ounc": 4974,
      "________": 4975,
      "!''": 4976,
      "EE": 4977,
      "NA": 4978,
      "de": 4979,
      "Ġits": 4980,
      "à®©à®²à®®": 4981,
      "à®¾?âĢĻâĢĻ": 4982,
      "à®ķà®¨à®ªà®°": 4983,
      "wikinews": 4984,
      "Ġir": 4985,
      "à®©à®ķà®®": 4986,
      "à®®à®ķà®µ": 4987,
      "Ġà®µà®ľ": 4988,
      "à®µà®°à®¤à®°": 4989,
      "..âĢĿ": 4990,
      "ĠAD": 4991,
      "aves": 4992,
      "uly": 4993,
      "igg": 4994,
      "Ġà®®à®©à®¨à®²à®®": 4995,
      "Ġà®İà®®à®©": 4996,
      "à®ªà®Łà®ļ": 4997,
      "Ġà®ľà®²à®¤": 4998,
      "à®ªà®°à®ļà®©": 4999,
      "Ġà®®à®£à®±": 5000,
      "ator": 5001,
      "Ġ101": 5002,
      "ĠPDF": 5003,
      "itol": 5004,
      "ĠAth": 5005,
      "ĠFacebook": 5006,
      "irl": 5007,
      "Ġnear": 5008,
      "Ġnanjil": 5009,
      "ĠEv": 5010,
      "2002": 5011,
      "Ġà®®à®£à®®à®ķ": 5012,
      "obile": 5013,
      "tion": 5014,
      "à¯ĩ},": 5015,
      "Ġà®ıà®³à®©à®®": 5016,
      "Ġà®ķà®²à®ķà®®": 5017,
      "Ġà®ħà®²à®±à®²": 5018,
      "âĢĻ,": 5019,
      "ilk": 5020,
      "ility": 5021,
      "à®°à®µà®ª": 5022,
      "ĠCar": 5023,
      "à®ıà®ļ": 5024,
      "Ġsw": 5025,
      "ĠDI": 5026,
      "ĠHead": 5027,
      "ĠFre": 5028,
      "En": 5029,
      "oint": 5030,
      "ton": 5031,
      "à®°à®ķà®²": 5032,
      "à®Łà®®à®®": 5033,
      "à®ķà®°à®ķ": 5034,
      "Ġà®īà®³à®®": 5035,
      "Ġà®ħà®µà®²à®¤": 5036,
      "Ġà®Ĩà®©à®µà®°": 5037,
      "atic": 5038,
      "à¯į'...": 5039,
      "à®°à®ķà®Łà®©à®¤": 5040,
      "Ġsl": 5041,
      "ĠVar": 5042,
      "ava": 5043,
      "indows": 5044,
      "ĠReviews": 5045,
      "ourt": 5046,
      "Ã¤Ã¤": 5047,
      "ten": 5048,
      "win": 5049,
      "Ø¹": 5050,
      "à®²à®ļà®¨": 5051,
      "à®ļà®¯à®©": 5052,
      "à¯Ĥ.,": 5053,
      "Ġà®ªà®Łà®ªà®Łà®ª": 5054,
      "Ġà®ħà®ķà®Ļ": 5055,
      "ĠAv": 5056,
      "idd": 5057,
      "ager": 5058,
      "ura": 5059,
      "Ġhot": 5060,
      "Ġno": 5061,
      "ĠVoice": 5062,
      "à¯ģâĢ¦âĢĿ": 5063,
      "icken": 5064,
      "bs": 5065,
      "Ġà®İà®®à®°": 5066,
      "Ġà®Łà®ľà®©": 5067,
      "Ġà®Ĩà®©à®µ": 5068,
      "à¯į...âĢĻâĢĻ": 5069,
      "ĠPalan": 5070,
      "Ġcr": 5071,
      "Ġfree": 5072,
      "uthor": 5073,
      "Ġ:-)": 5074,
      "à¯ģ&": 5075,
      "Ġà®Ĩà®´à®ª": 5076,
      "à®ľà®Ļ": 5077,
      "Ġà®ªà®²à®¸": 5078,
      "à®ªà®°à®²": 5079,
      "Ġà®ļà®®à®£à®°": 5080,
      "à®©à®®à®Ł": 5081,
      "Ġ1936": 5082,
      "ĠFood": 5083,
      "à®Īà®´à®¤": 5084,
      "Ġ1943": 5085,
      "ants": 5086,
      "à®ķà®Łà®ª": 5087,
      "à®ªà®³à®ķ": 5088,
      "à®ķà®®à®Ļ": 5089,
      "Ġà®ªà®²à®µà®¨": 5090,
      "Ġà®ħà®µà®¨à®®": 5091,
      "Ġà®ļà®®à®¯à®ķ": 5092,
      "Ġà®®à®©à®¸": 5093,
      "à®ļà®©à®ķ": 5094,
      "Ġà®¹à®ļà®©": 5095,
      "à®ķà®ļà®Ļ": 5096,
      "à®Ĵà®¯": 5097,
      "ley": 5098,
      "Ġà®¨à®°à®ķà®®": 5099,
      "ourn": 5100,
      "AMIL": 5101,
      "%),": 5102,
      "ze": 5103,
      "à®Łà®¯à®ª": 5104,
      "Ġà®ħà®ĥà®¤": 5105,
      "à¯ĭ:": 5106,
      "Ġà®īà®µà®°": 5107,
      "Ġà®®à®±à®ª": 5108,
      "Ġà®ħà®°à®µà®ķ": 5109,
      "à®ªà®°à®µà®²": 5110,
      "Ġà®¯à®Ļ": 5111,
      "Ġà®²à®®": 5112,
      "Ġà®Īà®°à®¤": 5113,
      "aning": 5114,
      "alin": 5115,
      "Ġà®ľà®©à®©": 5116,
      "icial": 5117,
      "Ġinc": 5118,
      "à¯ģ?\"": 5119,
      "ather": 5120,
      "à®¾..!": 5121,
      "Ġ1941": 5122,
      "Ġengine": 5123,
      "ĠSeries": 5124,
      "\">": 5125,
      "SP": 5126,
      "rish": 5127,
      "Ġà®İà®©à®°": 5128,
      "à®ķà®®à®©": 5129,
      "Ġà®ķà®£à®©": 5130,
      "Ġà®Ĩà®£à®µà®®": 5131,
      "Ġà®Ĭà®ļà®²": 5132,
      "ional": 5133,
      "ased": 5134,
      "Ġwater": 5135,
      "rim": 5136,
      "ula": 5137,
      "Ġà®ķà®®à®²à®¹": 5138,
      "Ġstr": 5139,
      "Ġxxx": 5140,
      "Ã¼": 5141,
      "à®¤à®±à®²": 5142,
      "à®´à®µà®°": 5143,
      "Ġà®īà®¤à®µà®ķ": 5144,
      "orth": 5145,
      "à®ķà®£à®µà®©": 5146,
      "Ġ650": 5147,
      "Ġsm": 5148,
      "indu": 5149,
      "à®¾âĢĻ,": 5150,
      "Ġà®©à®°": 5151,
      "Ġrel": 5152,
      "Ġà®ĩà®³à®µà®¯à®¤": 5153,
      "ĠNEWS": 5154,
      "JP": 5155,
      "aun": 5156,
      "ious": 5157,
      "Â¢": 5158,
      "à®Łà®¤à®Ł": 5159,
      "Ġà®ªà®°à®¤à®©": 5160,
      "Ġà®ªà®°à®ŀ": 5161,
      "à®ķà®Łà®±": 5162,
      "...''": 5163,
      "à®ıà®®": 5164,
      "ĠMess": 5165,
      "Ġsays": 5166,
      "Ġcall": 5167,
      "Ġà®ķà®µà®°à®ª": 5168,
      "Ġgo": 5169,
      "1600": 5170,
      "udh": 5171,
      "III": 5172,
      "ĠTNPSC": 5173,
      "ĠRevitol": 5174,
      "aen": 5175,
      "my": 5176,
      "à®µà®Łà®®": 5177,
      "Ġà®¨à®¯à®®": 5178,
      "à®±à®¤à®²": 5179,
      "à®Ĩà®´": 5180,
      "Ġà®īà®¤à®¯à®ļ": 5181,
      "à®ªà®µà®°à®¤": 5182,
      "Ġà®ħà®ķà®°à®®": 5183,
      "ĠBr": 5184,
      "Ġfriend": 5185,
      "oto": 5186,
      "Ġrem": 5187,
      "EO": 5188,
      "gn": 5189,
      "à®£à®µà®¤": 5190,
      "à®¤à®°à®ļà®©": 5191,
      "ami": 5192,
      "Ġ1914": 5193,
      "...\"": 5194,
      "ĠTw": 5195,
      "ese": 5196,
      "Ġsec": 5197,
      "unelv": 5198,
      "Ġkar": 5199,
      "ote": 5200,
      "ĠInt": 5201,
      "à®ĥà®µ": 5202,
      "ecial": 5203,
      "unelveli": 5204,
      "120": 5205,
      "MA": 5206,
      "hat": 5207,
      "ief": 5208,
      "ky": 5209,
      "Ġunder": 5210,
      "Ġà®µà®¸à®²": 5211,
      "Ġà®Ĵà®³à®µ": 5212,
      "à®ľà®²à®Ł": 5213,
      "à¯Ī.)": 5214,
      "Ġà®Ĩà®¤à®µà®©": 5215,
      "à®®à®£à®ķ": 5216,
      "ĠRasi": 5217,
      "ĠDo": 5218,
      "à®ļà®¨à®²": 5219,
      "ĠGu": 5220,
      "Ġred": 5221,
      "Ġà®®à®°à®£à®¤à®£": 5222,
      "ĠUpdates": 5223,
      "oz": 5224,
      "yd": 5225,
      "à®³à®±à®µ": 5226,
      "Ġà®ĩà®Łà®ķ": 5227,
      "à¯ĨâĢĮ": 5228,
      "à®ĩà®¯à®²": 5229,
      "à®¤à®µà®²": 5230,
      "à®¤à®µà®°à®®": 5231,
      "Ġ1928": 5232,
      "à¯į..,": 5233,
      "ĠSing": 5234,
      "omen": 5235,
      "Ġdog": 5236,
      "Image": 5237,
      "HO": 5238,
      "Hz": 5239,
      "Le": 5240,
      "RX": 5241,
      "jp": 5242,
      "oard": 5243,
      "Ùī": 5244,
      "Ġà®µà®Łà®¤": 5245,
      "à®Łà®®à®£": 5246,
      "à®ļà®®à®®": 5247,
      "Ġ->": 5248,
      "Ġà®¨à®²à®ª": 5249,
      "Ġ102": 5250,
      "ĠPar": 5251,
      "Ġpalan": 5252,
      "Ġ:))": 5253,
      "Ġà®µà®©à®ļ": 5254,
      "ĠDis": 5255,
      "à¯ģ!âĢĻ": 5256,
      "ĠHow": 5257,
      "Ġthey": 5258,
      "à¯ĪâĢĻ,": 5259,
      "ĠEduc": 5260,
      "Ġagain": 5261,
      "ĠQuestion": 5262,
      ")-": 5263,
      "Ti": 5264,
      "gl": 5265,
      "iam": 5266,
      "ÃĹ": 5267,
      "Ġà®Łà®¸": 5268,
      "Ġ1900": 5269,
      "Ġ107": 5270,
      "à®ıà®İà®¸": 5271,
      "Ġà®µà®°à®²à®Ł": 5272,
      "ady": 5273,
      "lear": 5274,
      "ĠRed": 5275,
      "Ġ112": 5276,
      "elf": 5277,
      "ĠDay": 5278,
      "ĠDep": 5279,
      "idth": 5280,
      "Ġhand": 5281,
      "à¯ĩ?âĢĻ": 5282,
      "à·Ĵ": 5283,
      "Ġexplet": 5284,
      "ohn": 5285,
      "Ġknow": 5286,
      "ĠJune": 5287,
      "lines": 5288,
      "à®°à®´à®ķ": 5289,
      "à¯į,(": 5290,
      "Ġà®¸à®©": 5291,
      "rey": 5292,
      "Ġcc": 5293,
      "ĠBer": 5294,
      "Ġ240": 5295,
      "ĠWeek": 5296,
      "à®Īà®Ī": 5297,
      "rail": 5298,
      "que": 5299,
      "affna": 5300,
      "Ad": 5301,
      "LL": 5302,
      "png": 5303,
      "à®©à®³": 5304,
      "à®¯à®ľ": 5305,
      "à®¯à®ļà®®": 5306,
      "à¯į,,": 5307,
      "à®µà®¤à®°": 5308,
      "Ġà®ªà®Łà®²": 5309,
      "à®°à®¤à®ļ": 5310,
      "Ġà®īà®£à®µà®°": 5311,
      "à®İà®®à®¤": 5312,
      "Ġà®Īà®¤": 5313,
      "âĢ¦âĢĿ": 5314,
      "1996": 5315,
      "ĠDel": 5316,
      "ĠLink": 5317,
      "à¤¤": 5318,
      "ĠAng": 5319,
      "ĠBSNL": 5320,
      "PP": 5321,
      "ser": 5322,
      "ycl": 5323,
      "à®°à®·à®°": 5324,
      "Ġà®°à®ĥà®ª": 5325,
      "ĠMath": 5326,
      "ĠVanni": 5327,
      "athy": 5328,
      "à®Īà®¸": 5329,
      "ption": 5330,
      "ptember": 5331,
      "ship": 5332,
      "ACH": 5333,
      "ĠSongs": 5334,
      "ĠTirunelveli": 5335,
      "CE": 5336,
      "VF": 5337,
      "vid": 5338,
      "Ġà¥": 5339,
      "à®¨à®³": 5340,
      "à®¸à®¤": 5341,
      "à®Łà®¤à®²": 5342,
      "à®ķà®®à®°": 5343,
      "ĠSw": 5344,
      "---": 5345,
      "Ġlanguage": 5346,
      "ĠUth": 5347,
      "opy": 5348,
      "aste": 5349,
      "Ġjew": 5350,
      "lam": 5351,
      "nadan": 5352,
      "Ø©": 5353,
      "à®®à®¤à®©": 5354,
      "à®ªà®ľà®©": 5355,
      "Ġà®ļà®ĥà®ª": 5356,
      "à®¯à®µà®Ļ": 5357,
      "anm": 5358,
      "Ġ1917": 5359,
      "ene": 5360,
      "Ġà®īà®²à®ķà®ļ": 5361,
      "ĠMus": 5362,
      "Ġinter": 5363,
      "à¯ģ?'": 5364,
      "âĢĺ`": 5365,
      "agged": 5366,
      "avirus": 5367,
      "à¯ģ\".": 5368,
      "à®¾...?": 5369,
      "Ġtamilnadu": 5370,
      "ĠUniversity": 5371,
      "ĠOctober": 5372,
      "SL": 5373,
      "Âµ": 5374,
      "Ġatt": 5375,
      "à®Łà®Īà®Ł": 5376,
      "Ġà®ķà®´à®©": 5377,
      "ĠPaper": 5378,
      "Ġover": 5379,
      "Ġother": 5380,
      "ayal": 5381,
      "Ġtheir": 5382,
      "à®ĵà®ķ": 5383,
      "over": 5384,
      "alli": 5385,
      "olitical": 5386,
      "reatment": 5387,
      "Ġexpletive": 5388,
      "net": 5389,
      "yV": 5390,
      "Â´": 5391,
      "à®¾},": 5392,
      "à®ªà®ķà®Ł": 5393,
      "à®ļà®µà®°à®®": 5394,
      "Ġà®ıà®ķà®®": 5395,
      "Ġ210": 5396,
      "Ġà®ľà®ķà®¤": 5397,
      "à®ªà®°à®£": 5398,
      "Ġà®ªà®£à®¯à®®": 5399,
      "Ġà®īà®¤à®µà®²": 5400,
      "ĠPart": 5401,
      "iter": 5402,
      "ĠMah": 5403,
      "oman": 5404,
      "ĠDe": 5405,
      "Ġback": 5406,
      "Ġhel": 5407,
      "ĠChannel": 5408,
      "aster": 5409,
      "ense": 5410,
      "oronavirus": 5411,
      "nic": 5412,
      "ras": 5413,
      "à®¿''": 5414,
      "à®¯à®©à®¤": 5415,
      "Ġà®ħà®ķà®ļ": 5416,
      "Ġà®ľà®¹": 5417,
      "ĠâĢĺ`": 5418,
      "Ġ1923": 5419,
      "Ġ1934": 5420,
      "à¯į!.": 5421,
      "ĠRem": 5422,
      "aga": 5423,
      "rop": 5424,
      "uss": 5425,
      "Ġafter": 5426,
      "à¤¨": 5427,
      "ograp": 5428,
      "Ġà®ħà®¹à®®à®¤": 5429,
      "ðŁĺŃ": 5430,
      "HQ": 5431,
      "PM": 5432,
      "TH": 5433,
      "à®²à®±à®®": 5434,
      "Ġ1929": 5435,
      "ĠTalk": 5436,
      "à®ªà®µà®ª": 5437,
      "ities": 5438,
      "ĠAI": 5439,
      "Ġbut": 5440,
      "////": 5441,
      "ider": 5442,
      "Ġweb": 5443,
      "apuram": 5444,
      "à¯Ī!''": 5445,
      "Ġrasi": 5446,
      "ude": 5447,
      "ĠExpress": 5448,
      "Ġago": 5449,
      "Ġà®µà®Łà®ªà®ķ": 5450,
      "pril": 5451,
      "ĠLeave": 5452,
      "ĠIND": 5453,
      "AV": 5454,
      "width": 5455,
      "à®¤à®¯à®Ļ": 5456,
      "à®©à®³à®µ": 5457,
      "à®ªà®²à®µ": 5458,
      "Ġà®µà®¯à®¨": 5459,
      "à®ħà®®à®°": 5460,
      "à®µà®²à®Ļ": 5461,
      "à®ķà®Łà®ļ": 5462,
      "Ġ1924": 5463,
      "ĠLocal": 5464,
      "Ġà®ªà®°à®µà®ļà®¤": 5465,
      "ĠGl": 5466,
      "à®ĵà®µ": 5467,
      "759": 5468,
      "ĠView": 5469,
      "elopment": 5470,
      "aenoic": 5471,
      "TS": 5472,
      "ft": 5473,
      "Ġ()": 5474,
      "à®ªà®°à®ķ": 5475,
      "Ġà®Īà®°à®²": 5476,
      "Ġà®īà®Łà®²à®®": 5477,
      "ilanka": 5478,
      "ĠSur": 5479,
      "à¯į\"\"": 5480,
      "ĠMedia": 5481,
      "ĠAp": 5482,
      "Ġbr": 5483,
      "ĠLab": 5484,
      "ĠHer": 5485,
      "umber": 5486,
      "à®¿âĢĻ.": 5487,
      "Â®Â©": 5488,
      "ÂµÃł": 5489,
      "NE": 5490,
      "Object": 5491,
      "à®²à®ķà®ª": 5492,
      "Ġà®īà®ªà®ķ": 5493,
      "à®¯à®²à®£": 5494,
      "à¯Ī.\"": 5495,
      "à®ħà®ľ": 5496,
      "Ġà®ļà®°à®µà®£": 5497,
      "Ġ'''": 5498,
      "ĠNa": 5499,
      "ĠPad": 5500,
      "ĠSir": 5501,
      "ĠMy": 5502,
      "Ġ123": 5503,
      "ĠWord": 5504,
      "ots": 5505,
      "pdf": 5506,
      "Ġ!!!": 5507,
      "ible": 5508,
      "ollow": 5509,
      "Ġacc": 5510,
      "Cp": 5511,
      "IF": 5512,
      "Ic": 5513,
      "Mb": 5514,
      "mark": 5515,
      "yA": 5516,
      "à®©à®ķà®²": 5517,
      "Ġà®ļà®¤à®Ļ": 5518,
      "à®µà®¤à®²": 5519,
      "Ġà®Ĩà®©à®ª": 5520,
      "amma": 5521,
      "Ġ1921": 5522,
      "ĠCap": 5523,
      "ĠMinister": 5524,
      "Ġtw": 5525,
      "Ġfilm": 5526,
      "ĠOf": 5527,
      "Ġworld": 5528,
      "avar": 5529,
      "Ġlink": 5530,
      "Ġvir": 5531,
      "osp": 5532,
      "ĠNovember": 5533,
      "Online": 5534,
      "##": 5535,
      "Un": 5536,
      "xK": 5537,
      "ÙĤ": 5538,
      "à¯Ī]": 5539,
      "à®¯à®ķà®²": 5540,
      "à®µà®£à®Ļ": 5541,
      "Ġà®µà®²à®ķ": 5542,
      "à®¸à®Ł": 5543,
      "Ġà®°à®ķà®¤": 5544,
      "à®ķà®µà®©à®®": 5545,
      "Ġà®Īà®·": 5546,
      "à®°à®ªà®²à®ª": 5547,
      "amily": 5548,
      "Ġà®ĩà®ļà®ķ": 5549,
      "1980": 5550,
      "avi": 5551,
      "avid": 5552,
      "à¯ĩ?\"": 5553,
      "ictionary": 5554,
      "Ġmonth": 5555,
      ";;": 5556,
      "DA": 5557,
      "Hh": 5558,
      "UV": 5559,
      "Uf": 5560,
      "Xq": 5561,
      "ye": 5562,
      "à®¤à®±à®¤": 5563,
      "à®¯à®Łà®ķ": 5564,
      "Ġà®ķà®²à®¤": 5565,
      "Ġà®Ĩà®¤à®®": 5566,
      "à®·à®ªà®®": 5567,
      "à®³à®°à®Ļ": 5568,
      "Ġà®¯à®©": 5569,
      "Ġà®Ĳà®Ļ": 5570,
      "à®¹à®°à®©": 5571,
      "à¯į.......": 5572,
      "Ġ106": 5573,
      "itute": 5574,
      "Ġà®īà®ªà®ļ": 5575,
      "à®ļà®¯à®®à®±": 5576,
      "ĠHe": 5577,
      "ĠVal": 5578,
      "à®ĥà®®": 5579,
      "itha": 5580,
      "Ġà®¨à®Łà®©à®Ļ": 5581,
      "ĠâĪĴ": 5582,
      "ever": 5583,
      "Ġà®ªà®°à®¤à®¨": 5584,
      "adio": 5585,
      "Ġ......[": 5586,
      "Ġmatrum": 5587,
      "Bbp": 5588,
      "DP": 5589,
      "Fo": 5590,
      "GxK": 5591,
      "MI": 5592,
      "QCL": 5593,
      "YHQ": 5594,
      "ZyV": 5595,
      "ZCp": 5596,
      "cBG": 5597,
      "lk": 5598,
      "pII": 5599,
      "sc": 5600,
      "sw": 5601,
      "à®®à®Łà®²": 5602,
      "Ġà®ļà®®à®ª": 5603,
      "ĠSc": 5604,
      "ĠSm": 5605,
      "lex": 5606,
      "1998": 5607,
      "eta": 5608,
      "Ġà®ħà®µà®ļà®°à®ļ": 5609,
      "opp": 5610,
      "udd": 5611,
      "ĠStandard": 5612,
      "height": 5613,
      "ukVF": 5614,
      "à¥Ģ": 5615,
      "mlGxK": 5616,
      "twIG": 5617,
      "ĠVijay": 5618,
      "AAAAAAAA": 5619,
      "à®ķà®µà®¤à®°": 5620,
      "AsYHQ": 5621,
      "goZCp": 5622,
      "YMtwIG": 5623,
      "ImageObject": 5624,
      "TiQCL": 5625,
      "ðŁĺŃðŁĺŃ": 5626,
      "IcmlGxK": 5627,
      "MbQ": 5628,
      "UfYMtwIG": 5629,
      "BbpX": 5630,
      "ZyVgoZCp": 5631,
      "cBGAsYHQ": 5632,
      "ukVFZyVgoZCp": 5633,
      "AAAAAAAAMbQ": 5634,
      "TiQCLcBGAsYHQ": 5635,
      "UfYMtwIGIcmlGxK": 5636,
      "ukVFZyVgoZCpUfYMtwIGIcmlGxK": 5637,
      "('": 5638,
      "OC": 5639,
      "mon": 5640,
      "à®°à®ķà®ķ": 5641,
      "à®²à®µà®°à®¤": 5642,
      "à¯ĨÂŃ": 5643,
      "à¯Ĩ.,": 5644,
      "à¯ģ.âĢĻ": 5645,
      "à®©à®°à®ļ": 5646,
      "à®·à®£à®®": 5647,
      "Ġà®Łà®Ļ": 5648,
      "à®ªà®°à®¨": 5649,
      "à®ĩà®±à®¨": 5650,
      "Ġ1915": 5651,
      "Ġà®µà®²à®¯à®®": 5652,
      "Ġà®īà®¤à®µà®µ": 5653,
      "à¯ĩ.,": 5654,
      "Ġà®ķà®µà®ļà®¤": 5655,
      "ĠCC": 5656,
      "Ġsu": 5657,
      "Ġà®ªà®£à®®à®¤": 5658,
      "ĠDownload": 5659,
      "à¯ģâĢĿ.": 5660,
      "ĠJuly": 5661,
      "Â®Âļ": 5662,
      "uthu": 5663,
      "ized": 5664,
      "à¯¦à¯¦": 5665,
      "ield": 5666,
      "lor": 5667,
      "pm": 5668,
      "à®°à®ķà®ª": 5669,
      "à®®à®ļà®Ļ": 5670,
      "Ġà®ıà®µà®²": 5671,
      "à®³à®¤à®®": 5672,
      "Ġà®ļà®®à®°à®µ": 5673,
      "à®ªà®®à®¯à®®": 5674,
      "Ġ1927": 5675,
      "the": 5676,
      "edy": 5677,
      "Ġwebsite": 5678,
      "acc": 5679,
      "ĠKa": 5680,
      "Ġxossip": 5681,
      "ĠEngine": 5682,
      "hol": 5683,
      "la": 5684,
      "à®¨à®¯à®®": 5685,
      "Ġà®¤à®ļà®°": 5686,
      "à®²à®®à®Ł": 5687,
      "Ġà®ªà®°à®ķ": 5688,
      "Ġ2030": 5689,
      "à®±à®µà®´": 5690,
      "à¯įâĢ¦!": 5691,
      "Ġ{\\": 5692,
      "ERS": 5693,
      "ĠSeptember": 5694,
      "oft": 5695,
      "ublisher": 5696,
      "ĠTamizh": 5697,
      "ĠVigRX": 5698,
      "Pre": 5699,
      "TP": 5700,
      "ii": 5701,
      "Ġà®ħà®ĥà®ª": 5702,
      "Ġ230": 5703,
      "Ġà®¤à®©à®ŀ": 5704,
      "à®ħà®³": 5705,
      "Ġ1932": 5706,
      "Ġ1933": 5707,
      "à®ļà®²à®Ł": 5708,
      "ille": 5709,
      "à®¾???": 5710,
      "Ġ109": 5711,
      "ĠSal": 5712,
      "Ġpar": 5713,
      "Ġ117": 5714,
      "Ġbre": 5715,
      "Ġask": 5716,
      "Ġà®µà®Łà®ªà®´à®©": 5717,
      "ĠWeekly": 5718,
      "bhp": 5719,
      "ugal": 5720,
      "Ùģ": 5721,
      "à®¿!!": 5722,
      "Ġà®ķà®ĥà®ª": 5723,
      "Ġà®µà®¤à®®": 5724,
      "à®´à®°à®ļà®©": 5725,
      "à¯ģ.//": 5726,
      "Ġà®¤à®©à®ļ": 5727,
      "Ġà®¸à®¨": 5728,
      "erc": 5729,
      "ĠTrans": 5730,
      "ĠTAMIL": 5731,
      "Ġà®ħà®ķà®£": 5732,
      "âĢĮ.": 5733,
      "à¯ģ...!": 5734,
      "eter": 5735,
      "Ġà®ļà®²à®©à®®": 5736,
      "à®ĵà®ª": 5737,
      "ĠWeb": 5738,
      "à¯ģ\",": 5739,
      "Ġstud": 5740,
      "ĠJaffna": 5741,
      "ender": 5742,
      "anced": 5743,
      "Ġkathaigal": 5744,
      "Ġà®Ĩà®²à®®à®°à®¤": 5745,
      "duct": 5746,
      "etails": 5747,
      "AB": 5748,
      "Ġif": 5749,
      "ĠÙĦ": 5750,
      "Ġà®ļà®©à®Ļ": 5751,
      "à®´à®ķà®ķ": 5752,
      "à®µà®°à®£": 5753,
      "Ġà®Ĩà®ľ": 5754,
      "Ġà®Ĩà®ķà®ļ": 5755,
      "Ġà®¯à®¨": 5756,
      "Ġà®ļà®°à®³": 5757,
      "Ġ---": 5758,
      "à®¯à®µà®ķ": 5759,
      "ones": 5760,
      "Ġà®·à®ª": 5761,
      "asri": 5762,
      "à¯ģ!\"": 5763,
      "Ġdi": 5764,
      "rik": 5765,
      "Ġrest": 5766,
      "udan": 5767,
      "Ġà®µà®Łà®®à®°": 5768,
      "âĢ¦âĢ¦âĢ¦âĢ¦": 5769,
      "Ġprice": 5770,
      "display": 5771,
      "Ġass": 5772,
      "à®µà®¯à®®": 5773,
      "à®ļà®©à®°": 5774,
      "à¯ģ.âĢĻâĢĻ": 5775,
      "Ġà®°à®ķà®³": 5776,
      "à®ķà®°à®¨": 5777,
      "Ġà®ķà®°à®ª": 5778,
      "à®®à®¤à®Ļ": 5779,
      "à®Łà®ķà®©": 5780,
      "Ġà®¹à®Ļ": 5781,
      "ĠNan": 5782,
      "ĠPay": 5783,
      "ices": 5784,
      "Ġclick": 5785,
      "CR": 5786,
      "DI": 5787,
      "Ġà®Ĩà®ļà®©": 5788,
      "à®³à®°à®¤": 5789,
      "Ġà®ļà®®à®·": 5790,
      "Ġà®Ĩà®ķà®Ł": 5791,
      "Ġà®ļà®°à®ļ": 5792,
      "à®°à®ļà®ª": 5793,
      "à®Ĩà®¹": 5794,
      "Ġ1919": 5795,
      "à®ķà®£à®µà®°": 5796,
      "Ġsong": 5797,
      "Ġco": 5798,
      "Ġcent": 5799,
      "Ġcome": 5800,
      "ries": 5801,
      "ppadi": 5802,
      "ĠÙĬ": 5803,
      "Ġà¤ķ": 5804,
      "Ġkama": 5805,
      "ĠAugust": 5806,
      "displayst": 5807,
      "Or": 5808,
      "RC": 5809,
      "fo": 5810,
      "à¯ĩâĢĮ": 5811,
      "à®ªà®Łà®²à®®": 5812,
      "à®¤à®²à®ķ": 5813,
      "à®·à®ķà®®": 5814,
      "à®°à®£à®°": 5815,
      "Ġà®Ĩà®ļà®©à®¤": 5816,
      "à®²à®°à®Ļ": 5817,
      "Ġà®¨à®ķà®°à®ļ": 5818,
      "ĠAt": 5819,
      "ĠRo": 5820,
      "Ġ115": 5821,
      "ĠWatch": 5822,
      "Ġvis": 5823,
      "Ġstart": 5824,
      "Ġrec": 5825,
      "Ġà®°à®®à®´": 5826,
      "ĠTamizhakam": 5827,
      "AG": 5828,
      "EM": 5829,
      "OM": 5830,
      "Pl": 5831,
      "ule": 5832,
      "Â¨": 5833,
      "Ġu": 5834,
      "Ġà®µà®¯à®ª": 5835,
      "à®¸à®µ": 5836,
      "Ġà®ĵà®®à®¨": 5837,
      "Ġà®¨à®ķà®°à®µ": 5838,
      "icro": 5839,
      "ĠAN": 5840,
      "1987": 5841,
      "ĠBusiness": 5842,
      "anda": 5843,
      "à¯ģ..âĢĿ": 5844,
      "akes": 5845,
      "come": 5846,
      "Ġget": 5847,
      "à®¾!âĢĿ": 5848,
      "à·ı": 5849,
      "oney": 5850,
      "Ġamma": 5851,
      "Ġseries": 5852,
      "ĠLankasri": 5853,
      "Ah": 5854,
      "à®µà®ľ": 5855,
      "à®¨à®ļ": 5856,
      "Ġà®ļà®µà®°": 5857,
      "à¯ĤâĢĻ": 5858,
      "Ġà®ħà®±à®µà®´": 5859,
      "à®¿.)": 5860,
      "Ġà®ħà®´à®ķà®ª": 5861,
      "Ġ\",": 5862,
      "à®±à®µà®ķ": 5863,
      "ĠTable": 5864,
      "uru": 5865,
      "Ġ175": 5866,
      "ird": 5867,
      "akh": 5868,
      "à¤¸": 5869,
      "Ġà®±à®¤": 5870,
      "ukal": 5871,
      "ĠArch": 5872,
      "uck": 5873,
      "ĠØ¨": 5874,
      "strology": 5875,
      "ĠHeadlines": 5876,
      "son": 5877,
      "à®®à®±à®¨": 5878,
      "à¯ĩÂŃ": 5879,
      "à¯į,.": 5880,
      "Ġà®ľà®ªà®®": 5881,
      "Ġà®ħà®µà®ª": 5882,
      "ĠTimes": 5883,
      "à®¾?,": 5884,
      "adai": 5885,
      "ĠBi": 5886,
      "ĠBit": 5887,
      "Ġ135": 5888,
      "Ġhistory": 5889,
      "ĠGB": 5890,
      "osah": 5891,
      "uter": 5892,
      "ĠChar": 5893,
      "Ġrice": 5894,
      "ailable": 5895,
      "plic": 5896,
      "Ġarrest": 5897,
      "ĠAndroid": 5898,
      "ification": 5899,
      "osahex": 5900,
      "à®²à®µà®°à®Ļ": 5901,
      "à®´à®ķà®ª": 5902,
      "Ġà®İà®©à®ªà®¤": 5903,
      "à®©à®°à®¤": 5904,
      "à¯ģ,\"": 5905,
      "à®¤à®°à®²": 5906,
      "Ġà®ªà®¤à®ŀ": 5907,
      "Ġà®ķà®°à®¨": 5908,
      "Ġ190": 5909,
      "...'": 5910,
      "ĠSouth": 5911,
      "icles": 5912,
      "editor": 5913,
      "ases": 5914,
      "Ġ142": 5915,
      "ĠWe": 5916,
      "Ġlove": 5917,
      "Ġonly": 5918,
      "ĠReg": 5919,
      "Ġchennai": 5920,
      "à·Ģ": 5921,
      "hys": 5922,
      "ĠAdv": 5923,
      "ĠIPL": 5924,
      "!âĢĻ": 5925,
      "TJ": 5926,
      "rin": 5927,
      "à¯į+": 5928,
      "à®¯à®µà®¤": 5929,
      "à¯į.--": 5930,
      "à®¯à®®à®³": 5931,
      "à®³à®¤à®©": 5932,
      "à®µà®©à®µà®±": 5933,
      "à®³à®°à®µ": 5934,
      "à®¤à®°à®ķà®£": 5935,
      "Ġà®ĵà®¹": 5936,
      "Ġ1918": 5937,
      "Ġsub": 5938,
      "Ġsup": 5939,
      "Ġ126": 5940,
      "ĠHair": 5941,
      "à¯ģ...'": 5942,
      "à¯ĩ!âĢĻ": 5943,
      "imb": 5944,
      "à®īà®¤à®¯à®ķ": 5945,
      "ĠEner": 5946,
      "Ġexam": 5947,
      "eneral": 5948,
      ",''": 5949,
      "Bl": 5950,
      "SE": 5951,
      "uel": 5952,
      "à®²à®±à®¤": 5953,
      "Ġà®ªà®¯à®°": 5954,
      "Ġà®ķà®µà®ļ": 5955,
      "à®Łà®°à®ļ": 5956,
      "Ġà®®à®©à®ħà®´": 5957,
      "à®ĩà®²à®µ": 5958,
      "à®ĩà®°à®Ł": 5959,
      "arai": 5960,
      "à®Łà®µà®Ļ": 5961,
      "ĠApril": 5962,
      "Ġsystem": 5963,
      "1999": 5964,
      "Ġperm": 5965,
      "ĠOrig": 5966,
      "ĠGood": 5967,
      "à¯ģâĢĻ.": 5968,
      "à®ļà®°à®µà®£à®©": 5969,
      "ellery": 5970,
      "Ġà®Ĩà®ªà®°à®£à®®": 5971,
      "ulture": 5972,
      "displaystyle": 5973,
      "bit": 5974,
      "hu": 5975,
      "ĠÐ": 5976,
      "à¯ģ]": 5977,
      "à®Łà®´": 5978,
      "à®²à®ķà®µ": 5979,
      "Ġà®µà®¤à®±": 5980,
      "Ġà®®à®²à®¤": 5981,
      "à¯ĢâĢĻ": 5982,
      "Ġà®īà®ľ": 5983,
      "Ġà®Ĩà®³à®µ": 5984,
      "Ġà®¯à®®à®¹": 5985,
      "Ġà®ļà®°à®£à®®": 5986,
      "Ġà®Ĳà®ıà®İà®¸": 5987,
      "à®¹à®³": 5988,
      "ĠNetwork": 5989,
      "Ġà®İà®µà®±": 5990,
      "lege": 5991,
      "Ġcond": 5992,
      "ĠBre": 5993,
      "Ġmay": 5994,
      "agu": 5995,
      "ĠGreen": 5996,
      "order": 5997,
      "................": 5998,
      "cient": 5999,
      "ĠCategories": 6000,
      "osahexaenoic": 6001,
      "kam": 6002,
      "lation": 6003,
      "à®ªà®ľ": 6004,
      "à¯Ī}": 6005,
      "Ġà®Ĩà®µà®©": 6006,
      "Ġà®ħà®®à®³": 6007,
      "Ġà®®à®©à®®à®ķ": 6008,
      "Ġ1925": 6009,
      "ald": 6010,
      "Ġ944": 6011,
      "Ġcase": 6012,
      "Ġcons": 6013,
      "Ġ124": 6014,
      "ĠDi": 6015,
      "Ġhome": 6016,
      "ĠFull": 6017,
      "à¯ĩ!!": 6018,
      "Ġdownload": 6019,
      "ika": 6020,
      "Ġlife": 6021,
      "ists": 6022,
      "à®Ĭà®´à®²": 6023,
      "Â¯ÂĪ": 6024,
      "à®¿âĢ¦.": 6025,
      "ruitment": 6026,
      "',": 6027,
      "-)": 6028,
      "EG": 6029,
      "Te": 6030,
      "cent": 6031,
      "gr": 6032,
      "xy": 6033,
      "à®ļà®¤à®®": 6034,
      "à¯į,...": 6035,
      "Ġà®Ĩà®±à®µ": 6036,
      "Ġà®ĩà®©à®µà®´": 6037,
      "Ġà®²à®ª": 6038,
      "à®¤à®µà®ª": 6039,
      "Ġà®ªà®°à®µà®¤": 6040,
      "Ġà®ĵà®®à®²": 6041,
      "Ġ1912": 6042,
      "Ġ1926": 6043,
      "olar": 6044,
      "ĠIC": 6045,
      "Ġfood": 6046,
      "ĠKavith": 6047,
      "Ġ??": 6048,
      "à¯ĪâĢ¦.": 6049,
      "ĠÙģ": 6050,
      "Ġuse": 6051,
      "à®¯à®´à®ķà®©": 6052,
      "Me": 6053,
      "WD": 6054,
      "bl": 6055,
      "frey": 6056,
      "ght": 6057,
      "war": 6058,
      "Ġet": 6059,
      "à®¿]": 6060,
      "à®ķà®ļà®®": 6061,
      "Ġà®ªà®¤à®©": 6062,
      "Ġà®ķà®µà®ļà®Ļ": 6063,
      "à®ªà®Łà®±": 6064,
      "à¯Ģ..": 6065,
      "à®ķà®²à®°": 6066,
      "ĠTemple": 6067,
      "ĠST": 6068,
      "à®ıà®£": 6069,
      "Ġcook": 6070,
      "Ġwere": 6071,
      "Ġ145": 6072,
      "ĠGo": 6073,
      "ĠEl": 6074,
      "à®¾âĢ¦âĢĿ": 6075,
      "Ġ365": 6076,
      "ANK": 6077,
      "Ġmeet": 6078,
      "ĠClass": 6079,
      "bet": 6080,
      "Ġur": 6081,
      "à®°à®ķà®ļ": 6082,
      "Ġà®¨à®³à®©": 6083,
      "Ġà®ħà®®à®°à®ļ": 6084,
      "Ġà®ĵà®ķà®¸": 6085,
      "ĠTrail": 6086,
      "Ġtn": 6087,
      "Ġsur": 6088,
      "Ġ155": 6089,
      "asu": 6090,
      "ĠIII": 6091,
      "ĠBen": 6092,
      "Ġmadh": 6093,
      "Ġ113": 6094,
      "Ġinformation": 6095,
      "ĠDes": 6096,
      "ĠDog": 6097,
      "iram": 6098,
      "ĠVideos": 6099,
      "ulation": 6100,
      "ills": 6101,
      "à¯ĩâĢ¦.": 6102,
      "Ġbeen": 6103,
      "azine": 6104,
      "ĠSubeditor": 6105,
      "ĠMessages": 6106,
      "Ġagainst": 6107,
      "++": 6108,
      "Co": 6109,
      "FC": 6110,
      "LC": 6111,
      "ration": 6112,
      "ues": 6113,
      "à®²à®ļà®®à®¯à®®": 6114,
      "Ġà®®à®©à®°": 6115,
      "Ġà®ļà®ķà®µ": 6116,
      "à®ľà®ķà®¤": 6117,
      "Ġà®ĩà®²à®ŀ": 6118,
      "à®¯à®©à®µà®±": 6119,
      "Ġà®ħà®²à®ļà®²": 6120,
      "à®ĩà®°à®¤": 6121,
      "à®¾.''": 6122,
      "ĠTamilwin": 6123,
      "1991": 6124,
      "ĠBlog": 6125,
      "acy": 6126,
      "ĠGroup": 6127,
      "unity": 6128,
      "Ġkm": 6129,
      "Ġket": 6130,
      "ems": 6131,
      "ithi": 6132,
      "ovid": 6133,
      "Ġ;)": 6134,
      "à·ĥ": 6135,
      "ological": 6136,
      "very": 6137,
      "ĠTeach": 6138,
      "ĠInstitute": 6139,
      "jpg": 6140,
      "App": 6141,
      "hin": 6142,
      "ved": 6143,
      "à®£à®µà®®": 6144,
      "Ġà®¤à®ļà®®": 6145,
      "Ġà®®à®±à®µ": 6146,
      "à®Łà®°à®Ł": 6147,
      "Ġà®ħà®Łà®Ł": 6148,
      "Ġà®ħà®°à®ļà®ķ": 6149,
      "à®ļà®®à®°": 6150,
      "Ġà®¤à®µà®ļ": 6151,
      "Ġ1910": 6152,
      "...âĢĿ": 6153,
      "à®īà®´": 6154,
      "adum": 6155,
      "ough": 6156,
      "Ġ111": 6157,
      "Ġbel": 6158,
      "ĠOther": 6159,
      "Ġhigh": 6160,
      "ĠFree": 6161,
      "ĠGovernment": 6162,
      "ĠWith": 6163,
      "à¤ķ": 6164,
      "Ġgovernment": 6165,
      "oco": 6166,
      "Ġwhen": 6167,
      "twitter": 6168,
      "Art": 6169,
      "BN": 6170,
      "Mar": 6171,
      "cite": 6172,
      "vir": 6173,
      "à®¾/": 6174,
      "Ġà®ķà®±à®¨": 6175,
      "Ġà®µà®¤à®Ļ": 6176,
      "à®Łà®¤à®Ļ": 6177,
      "à®İà®¤à®±": 6178,
      "Ġà®īà®¤à®¯à®©": 6179,
      "à¯į--": 6180,
      "à¯į??": 6181,
      "ĠSch": 6182,
      "ĠCal": 6183,
      "ĠCor": 6184,
      "Ġ152": 6185,
      "ĠRet": 6186,
      "Ġcur": 6187,
      "ĠOF": 6188,
      "à¯ģ...\"": 6189,
      "aka": 6190,
      "à®ĥà®ªà®©": 6191,
      "Ġany": 6192,
      "ĠØ¹": 6193,
      "coal": 6194,
      "ĠðŁĻ": 6195,
      "--------------------------------": 6196,
      "Indian": 6197,
      "ĠFrequ": 6198,
      "ournal": 6199,
      "ĠTalkies": 6200,
      "%.": 6201,
      "LK": 6202,
      "OH": 6203,
      "get": 6204,
      "mk": 6205,
      "rs": 6206,
      "vent": 6207,
      "ØŃ": 6208,
      "à®ķà®±à®µà®Ļ": 6209,
      "à®¯à®£à®°": 6210,
      "Ġà®ªà®ķà®°": 6211,
      "Ġà®®à®ķà®°à®®": 6212,
      "Ġà®Ĭà®³": 6213,
      "Ġà®ĵà®²à®®": 6214,
      "à®¤à®ķà®ļ": 6215,
      "à®°à®£à®µ": 6216,
      "Ġà®ĩà®¤à®©à®Ł": 6217,
      "erala": 6218,
      "ĠAC": 6219,
      "ĠNewspaper": 6220,
      "1997": 6221,
      "Ġins": 6222,
      "ĠDig": 6223,
      "Ġbiryani": 6224,
      "Ġdev": 6225,
      "Ġdirector": 6226,
      "à®¿',": 6227,
      "à¯ĩ...''": 6228,
      "Ġà®ħà®ķà®²à®ª": 6229,
      "ĠÃĤ": 6230,
      "Ġactor": 6231,
      "fr": 6232,
      "par": 6233,
      "Ġà¯ĩ": 6234,
      "à¯ģâĢĵ": 6235,
      "à®³à®ķà®°": 6236,
      "à®ªà®Łà®Ł": 6237,
      "à®¯à®²à®Ļ": 6238,
      "Ġà®®à®°à®µà®³": 6239,
      "âĢĿ.": 6240,
      "Ġ1905": 6241,
      "ĠSev": 6242,
      "Ġà®ĥà®ªà®µ": 6243,
      "ĠMa": 6244,
      "à®Ĵà®±": 6245,
      "Ġ114": 6246,
      "à¯ģ...''": 6247,
      "Ġhow": 6248,
      "irth": 6249,
      "Ġvery": 6250,
      "à¤®": 6251,
      "osit": 6252,
      "Ġreg": 6253,
      "ustral": 6254,
      "ĠPhotos": 6255,
      "Ġindia": 6256,
      "Leave": 6257,
      "BE": 6258,
      "VI": 6259,
      "med": 6260,
      "td": 6261,
      "à®²à®Łà®Ļ": 6262,
      "Ġà®ķà®Łà®ķà®®": 6263,
      "à®¤à®®à®³": 6264,
      "à®İà®¯": 6265,
      "à®µà®®à®Ł": 6266,
      "à®ļà®°à®©": 6267,
      "à®ķà®©à®ķ": 6268,
      "atural": 6269,
      "onn": 6270,
      "ony": 6271,
      "Ġà®ļà®ķà®¸": 6272,
      "Ġcor": 6273,
      "ason": 6274,
      "Ġmedic": 6275,
      "Ġ1400": 6276,
      "athan": 6277,
      "ival": 6278,
      "ĠChief": 6279,
      "Ġà®ħà®µà®ļà®°à®¨": 6280,
      "à®°à®°à®ļà®©": 6281,
      "cohol": 6282,
      ".........": 6283,
      "iod": 6284,
      "ji": 6285,
      "kapp": 6286,
      "Ġà¯Ĩ": 6287,
      "Ġann": 6288,
      "à®°à®ĥà®ª": 6289,
      "Ġà®¨à®µà®°à®¤": 6290,
      "à¯į,âĢĻ": 6291,
      "Ġà®ķà®²à®ķà®¤": 6292,
      "Ġà®¯à®°": 6293,
      "inc": 6294,
      "anings": 6295,
      "Ġ1922": 6296,
      "ĠTE": 6297,
      "ĠPal": 6298,
      "Ġtagged": 6299,
      "1989": 6300,
      "elvi": 6301,
      "à¯ģ!'": 6302,
      "Ġ133": 6303,
      "iva": 6304,
      "à¯ģâĢĿ,": 6305,
      "ĠStories": 6306,
      "Ġà®ļà®ķà®²à®°": 6307,
      "à¥ĭ": 6308,
      "ĠAmb": 6309,
      "rive": 6310,
      "Ġà®ļà®°à®µà®£à®ª": 6311,
      "Ġavailable": 6312,
      "gm": 6313,
      "gen": 6314,
      "publisher": 6315,
      "à®²à®¯à®©": 6316,
      "à®ªà®°à®°": 6317,
      "Ġà®ķà®°à®µ": 6318,
      "à®¹à®ķ": 6319,
      "Ġà®īà®¤à®¯à®¤": 6320,
      "thy": 6321,
      "ĠSP": 6322,
      "ĠSystem": 6323,
      "Ġà®·à®°à®¤": 6324,
      "ĠMal": 6325,
      "ĠIl": 6326,
      "ĠBJP": 6327,
      "ĠList": 6328,
      "à¯ģ!!!": 6329,
      "Ġ143": 6330,
      "iving": 6331,
      "Ġà®µà®Łà®®à®¤": 6332,
      "Ġwhat": 6333,
      "à®Ĩà®Ĩà®Ĩà®Ĩ": 6334,
      "cipes": 6335,
      "ĠResearch": 6336,
      "âĶ": 6337,
      "Ĥ¾": 6338,
      "à®³à®£": 6339,
      "à®³à®®à®©": 6340,
      "Ġà®®à®ķà®®": 6341,
      "à®£à®¯à®ķ": 6342,
      "Ġà®Ĭà®µ": 6343,
      "à®ªà®©à®Ļ": 6344,
      "enb": 6345,
      "Ġà®Ĩà®²à®¨": 6346,
      "à¯į?âĢĻâĢĻ": 6347,
      "ĠSar": 6348,
      "ĠCM": 6349,
      "icon": 6350,
      "à®¨à®ķà®°à®ª": 6351,
      "Ġ158": 6352,
      "asa": 6353,
      "ĠDru": 6354,
      "Ġ1600": 6355,
      "à®®à®¨à®ªà®°": 6356,
      "avy": 6357,
      "ĠWel": 6358,
      "ĠWindows": 6359,
      "ĠUl": 6360,
      "Ġgood": 6361,
      "Ġeppadi": 6362,
      "berry": 6363,
      "Ġclass": 6364,
      "ĠINDIA": 6365,
      "ĠNanayam": 6366,
      ".!": 6367,
      "TT": 6368,
      "kar": 6369,
      "à®ķà®·": 6370,
      "Ġà®µà®Łà®²": 6371,
      "à®ļà®ªà®¤": 6372,
      "à®ļà®£à®¤": 6373,
      "Ġà®ļà®¤à®¤": 6374,
      "Ġà®®à®±à®µà®°": 6375,
      "à®ķà®°à®²": 6376,
      "Ġà®ļà®®à®±": 6377,
      "Ġà®¤à®©à®²à®Ł": 6378,
      "Ġà®ĵà®Łà®¤": 6379,
      "à®ķà®´à®ķà®ª": 6380,
      "Ġà®Ĩà®Łà®µ": 6381,
      "amin": 6382,
      "ĠTit": 6383,
      "Ġà®ªà®´à®µ": 6384,
      "Ġà®ķà®´à®ķà®ª": 6385,
      "ĠSuper": 6386,
      "stru": 6387,
      "ĠMax": 6388,
      "Ġtest": 6389,
      "Ġso": 6390,
      "Ġthan": 6391,
      "Ġwell": 6392,
      "ĠFirst": 6393,
      "ĠGod": 6394,
      "ĠVis": 6395,
      "iver": 6396,
      "Ġ270": 6397,
      "ments": 6398,
      "ift": 6399,
      "Ø§ÙĦ": 6400,
      "Ġmany": 6401,
      "Ġbuyers": 6402,
      "Ġmagan": 6403,
      "ĠPrime": 6404,
      "ĠRecruitment": 6405,
      "book": 6406,
      "cc": 6407,
      "ger": 6408,
      "pa": 6409,
      "ÃŃ": 6410,
      "à³": 6411,
      "Ġà®®à®ª": 6412,
      "Ġà®¤à®µà®°": 6413,
      "Ġà®¤à®ķà®µà®®": 6414,
      "Ġà®ĩà®¹": 6415,
      "Ġà®¨à®ķà®®": 6416,
      "Ġà®ĩà®°à®µà®²": 6417,
      "à®¯à®°à®©": 6418,
      "Ġ('": 6419,
      "amalar": 6420,
      "à®®à®°à®°": 6421,
      "à¯į)&": 6422,
      "âĢĮâĢĮ": 6423,
      "ĠPU": 6424,
      "ĠCorona": 6425,
      "ĠMB": 6426,
      "ĠMS": 6427,
      "ĠMi": 6428,
      "Ġsis": 6429,
      "à®¨à®ķà®°à®ļà®ª": 6430,
      "Ġcorona": 6431,
      "Ġà®µà®³à®µà®©": 6432,
      "ĠBh": 6433,
      "Ġ:(": 6434,
      "Ġthere": 6435,
      "Ġopen": 6436,
      "urug": 6437,
      "inet": 6438,
      "Ġdec": 6439,
      "ĠKet": 6440,
      "à®¾..âĢĿ": 6441,
      "à¤µ": 6442,
      "aby": 6443,
      "Â®Â±": 6444,
      "raz": 6445,
      "à¶º": 6446,
      "ĠQuality": 6447,
      "Ġï»¿": 6448,
      "ĠThiruv": 6449,
      "ĠAcc": 6450,
      "ĠUthayan": 6451,
      "?''": 6452,
      "OO": 6453,
      "ful": 6454,
      "mm": 6455,
      "nam": 6456,
      "youtube": 6457,
      "à®ķà®©à®°": 6458,
      "Ġà®ķà®±à®µ": 6459,
      "à¯į.âĢĭ": 6460,
      "âĢı": 6461,
      "Ġà®īà®³à®°": 6462,
      "Ġà®ĩà®©à®ļ": 6463,
      "Ġà®¸à®¤": 6464,
      "à®ķà®´à®²": 6465,
      "à®²à®ķà®©": 6466,
      "Ġ1913": 6467,
      "Ġà®Ĩà®ļà®©à®®": 6468,
      "à¯į):": 6469,
      "ĠCD": 6470,
      "eds": 6471,
      "ĠModel": 6472,
      "Ġsaid": 6473,
      "Ġcap": 6474,
      "ĠBank": 6475,
      "ĠHistory": 6476,
      "ross": 6477,
      "ocosahexaenoic": 6478,
      "Ġà®ĩà®²à®µà®ļà®Ļ": 6479,
      "iffer": 6480,
      "actor": 6481,
      "ĠProf": 6482,
      "portant": 6483,
      "ĠAmer": 6484,
      ".-": 6485,
      "ause": 6486,
      "duc": 6487,
      "ees": 6488,
      "led": 6489,
      "sk": 6490,
      "Ø°": 6491,
      "àµ": 6492,
      "Ġer": 6493,
      "à®³à®³": 6494,
      "à®ļà®ªà®°": 6495,
      "Ġà®Ĩà®²à®ª": 6496,
      "0000": 6497,
      "à®µà®®à®£": 6498,
      "aman": 6499,
      "Ġ1908": 6500,
      "à®°à®ªà®²à®¤": 6501,
      "Ġà®µà®Łà®ķà®°": 6502,
      "ĠServ": 6503,
      "Ġà®ĩà®³à®ļ": 6504,
      "Ġsal": 6505,
      "Ġ1857": 6506,
      "asy": 6507,
      "Ġinto": 6508,
      "ĠFast": 6509,
      "Ġthem": 6510,
      "Ġrecipe": 6511,
      "ovt": 6512,
      "Ġà®Ĩà®ªà®°à®£à®¤": 6513,
      "ancy": 6514,
      "Ġserv": 6515,
      "Ġï¿½": 6516,
      "********": 6517,
      "ĠDevelopment": 6518,
      "ĠKalvi": 6519,
      "ĠVanniOnline": 6520,
      "ospital": 6521,
      "110": 6522,
      "GH": 6523,
      "Post": 6524,
      "ham": 6525,
      "oid": 6526,
      "va": 6527,
      "á¸": 6528,
      "à®´à®£": 6529,
      "à®¯à®®à®£": 6530,
      "à®¯à®®à®¯à®®": 6531,
      "Ġà®ħà®Łà®²": 6532,
      "à®¯à®©à®ª": 6533,
      "Ġà®Ĩà®£à®µà®¤": 6534,
      "Ġà®īà®£à®°à®¤": 6535,
      "à®ĩà®ĩ": 6536,
      "Ġà®ªà®°à®µà®ļ": 6537,
      "Ġà®ħà®´à®ķà®©": 6538,
      "Ġà®Ĳà®¯à®¤": 6539,
      "à®¹à®¨": 6540,
      "Ġà®µà®²à®¯à®Ļ": 6541,
      "à®¾?!": 6542,
      "à¯įâĢĻ...": 6543,
      "ĠSocial": 6544,
      "Ġpal": 6545,
      "Ġpatri": 6546,
      "Ġ121": 6547,
      "Ġmost": 6548,
      "ĠLim": 6549,
      "Ġdef": 6550,
      "char": 6551,
      "ump": 6552,
      "umari": 6553,
      "averi": 6554,
      "Ġà®ªà®²à®®à®Łà®Ļ": 6555,
      "Ġà®³à®¤": 6556,
      "Ġused": 6557,
      "ĠBlack": 6558,
      "Ġpriced": 6559,
      "auty": 6560,
      "Ġasked": 6561,
      "ĠTablet": 6562,
      ",_": 6563,
      "Tube": 6564,
      "aug": 6565,
      "bi": 6566,
      "ney": 6567,
      "ris": 6568,
      "~~": 6569,
      "à±": 6570,
      "Ġà®ªà®ļà®²": 6571,
      "Ġà®ĩà®ĥà®¤": 6572,
      "Ġà®Ĩà®ĥà®ªà®°": 6573,
      "à¯ģ.!": 6574,
      "à®·à®¸": 6575,
      "Ġ(âĢľ": 6576,
      "à¯Ī.[": 6577,
      "Ġà®ªà®¤à®Ļ": 6578,
      "à®±à®©à®±": 6579,
      "à®³à®®à®¯à®®": 6580,
      "alink": 6581,
      "Ġà®ļà®ķà®²à®¤": 6582,
      "à®īà®ķ": 6583,
      "omy": 6584,
      "Ġpic": 6585,
      "Ġpage": 6586,
      "Ġ1890": 6587,
      "Ġ129": 6588,
      "Ġ165": 6589,
      "ĠElect": 6590,
      "ulthan": 6591,
      "igal": 6592,
      "Ġvideos": 6593,
      "à¯ģâĢ¦..": 6594,
      "Ġrain": 6595,
      "astic": 6596,
      "à¶±": 6597,
      ",,,,": 6598,
      "Ġà¯¨": 6599,
      "EA": 6600,
      "\\\\": 6601,
      "Ġright": 6602,
      "ĢâĶ": 6603,
      "à®°à®ļà®°": 6604,
      "à®²à®ķà®ķ": 6605,
      "Ġà®µà®©à®Ļ": 6606,
      "à¯į.âĢľ": 6607,
      "à¯Ģ...": 6608,
      "à®ķà®µà®¨": 6609,
      "à®ķà®µà®Ļ": 6610,
      "Ġà®ıà®®à®©": 6611,
      "à®°à®¤à®ķ": 6612,
      "à®µà®²à®ķà®ª": 6613,
      "à®²à®ķà®µà®¤": 6614,
      "à®²à®µà®ķ": 6615,
      "erry": 6616,
      "ena": 6617,
      "Ġà®īà®²à®ķà®±": 6618,
      "à¯į...?": 6619,
      "ĠSo": 6620,
      "ican": 6621,
      "Ġà®ķà®©à®²": 6622,
      "à®ıà®ı": 6623,
      "ĠMon": 6624,
      "à®Ĳà®İà®¸": 6625,
      "ads": 6626,
      "1984": 6627,
      "aith": 6628,
      "Ġ127": 6629,
      "à¯įâĢ¦âĢ¦": 6630,
      "uring": 6631,
      "ĠEro": 6632,
      "ĠKar": 6633,
      "à®¾!âĢĻ": 6634,
      "à®¾âĢ¦?": 6635,
      "à¯ĩ..!": 6636,
      "à·Ķ": 6637,
      "à¶»": 6638,
      "ambi": 6639,
      "ĠPres": 6640,
      "tainment": 6641,
      "ĠViral": 6642,
      "Ġpolice": 6643,
      "ĠMagazine": 6644,
      "Ġsisulthan": 6645,
      "OP": 6646,
      "yan": 6647,
      "à®¿âĢĵ": 6648,
      "à®¤à®³à®ª": 6649,
      "à®©à®®à®²": 6650,
      "à®¯à®ķà®µ": 6651,
      "à¯Ĩ,": 6652,
      "à®Łà®¤à®ķ": 6653,
      "Ġà®µà®°à®Ļ": 6654,
      "Ġà®ªà®Łà®²à®¤": 6655,
      "à®ĩà®µà®³": 6656,
      "Ġà®ļà®°à®ª": 6657,
      "Ġà®µà®²à®ļ": 6658,
      "ĠSF": 6659,
      "ĠCur": 6660,
      "ĠAuthor": 6661,
      "1960": 6662,
      "ĠITU": 6663,
      "Ġint": 6664,
      "Ġbest": 6665,
      "agement": 6666,
      "à®©à®ķà®°à®®": 6667,
      "ĠHar": 6668,
      "à¯ĩ!\"": 6669,
      "ircle": 6670,
      "Ġà®ļà®£à®²": 6671,
      "à®ĵà®µà®°": 6672,
      "Ġ225": 6673,
      "à¤¯": 6674,
      "osis": 6675,
      "Â®Â¨": 6676,
      "990": 6677,
      "à®¿..!!": 6678,
      "à¯Ī\",": 6679,
      "à®¿\",": 6680,
      "ĠâĢĻâĢĻ": 6681,
      "raj": 6682,
      "ploy": 6683,
      "Ġproble": 6684,
      "ĠDelhi": 6685,
      "ĠEnergy": 6686,
      "ĢâĶĢâĶ": 6687,
      "750": 6688,
      "CD": 6689,
      "Sc": 6690,
      "Â½": 6691,
      "à¨": 6692,
      "à®ķà®ķà®®": 6693,
      "à®¤à®³à®°": 6694,
      "Ġà®ļà®µà®ª": 6695,
      "à¯į.!!": 6696,
      "ĠâĢĽ": 6697,
      "Ġà®ªà®²à®ļ": 6698,
      "Ġà®ķà®²à®ļà®¤": 6699,
      "à®Łà®ķà®ļ": 6700,
      "à®ķà®ļà®ķ": 6701,
      "à®°à®µà®³": 6702,
      "ĠAf": 6703,
      "à®Ĵà®£": 6704,
      "Ġpur": 6705,
      "Ġperson": 6706,
      "ĠID": 6707,
      "Ġmake": 6708,
      "à¯įâĢ¦âĢĻ": 6709,
      "ĠOld": 6710,
      "Ġhouse": 6711,
      "à®ªà®¯à®©à®°": 6712,
      "ĠÂ´": 6713,
      "Ġ260": 6714,
      "image": 6715,
      "Ġreview": 6716,
      "Ġà®ľà®µà®ķà®°": 6717,
      "Ġï¼": 6718,
      "ĠMeanings": 6719,
      "Ġyears": 6720,
      "aunch": 6721,
      "130": 6722,
      "uf": 6723,
      "Ã¡": 6724,
      "âĨ": 6725,
      "Ġà¯į": 6726,
      "à®¤à®ªà®¤": 6727,
      "à®±à®ķà®Ł": 6728,
      "Ġà®ķà®¤à®®": 6729,
      "à®ļà®ķà®ª": 6730,
      "à®ļà®¸à®°": 6731,
      "Ġà®ļà®²à®©": 6732,
      "Ġà®¨à®ķà®¤": 6733,
      "à®ħà®µà®ļ": 6734,
      "inally": 6735,
      "Ġ192": 6736,
      "Ġà®īà®£à®°à®ķ": 6737,
      "ĠCS": 6738,
      "Ġà®ĥà®ªà®ķ": 6739,
      "Ġtips": 6740,
      "Ġsim": 6741,
      "Ġsome": 6742,
      "ĠDhan": 6743,
      "ĠOut": 6744,
      "Ġoil": 6745,
      "Ġ256": 6746,
      "unt": 6747,
      "ĠWork": 6748,
      "Ġgl": 6749,
      "ovil": 6750,
      "ified": 6751,
      "View": 6752,
      "Ġadikk": 6753,
      "Ġleaves": 6754,
      "Ġplay": 6755,
      "ĠBookmark": 6756,
      "ĠImages": 6757,
      "Ġdeath": 6758,
      "armers": 6759,
      "ĠDrugs": 6760,
      "National": 6761,
      "Press": 6762,
      "back": 6763,
      "ks": 6764,
      "mar": 6765,
      "uff": 6766,
      "Î¼": 6767,
      "à®¾!!": 6768,
      "à®²à®°à®¤": 6769,
      "Ġà®¨à®µà®¤": 6770,
      "à®ªà®¤à®°": 6771,
      "Ġà®°à®ļà®²": 6772,
      "à®ľà®Ł": 6773,
      "Ġà®ħà®©à®ķ": 6774,
      "Ġà®ĵà®¸": 6775,
      "Ġà®¸à®¹": 6776,
      "à®¹à®®à®Ł": 6777,
      "Ġ1916": 6778,
      "ĠSiy": 6779,
      "ĠSchool": 6780,
      "ĠCons": 6781,
      "à®Ĳà®ı": 6782,
      "lean": 6783,
      "1950": 6784,
      "Ġcar": 6785,
      "Ġ122": 6786,
      "Ġà®µà®©à®ķ": 6787,
      "ĠDMK": 6788,
      "à¯ģ?.": 6789,
      "à¯ģ?''": 6790,
      "ĠLife": 6791,
      "Ġfound": 6792,
      "ĠHindu": 6793,
      "108": 6794,
      "Ġkelvi": 6795,
      "Ġlist": 6796,
      "à¤Ĥ": 6797,
      "ĠChap": 6798,
      "Ġeffect": 6799,
      "ells": 6800,
      "Ġà®ªà®¯à®ªà®ķ": 6801,
      "aint": 6802,
      "aiyin": 6803,
      "ganization": 6804,
      "Ġà®Ķà®µ": 6805,
      "à§·": 6806,
      "ĠFrequently": 6807,
      "LE": 6808,
      "PR": 6809,
      "kor": 6810,
      "rome": 6811,
      "word": 6812,
      "à®¿|": 6813,
      "à®®à®ļà®ª": 6814,
      "à®ªà®¯à®²": 6815,
      "Ġà®ªà®©à®®": 6816,
      "à®ķà®°à®±": 6817,
      "à®¯à®²à®µ": 6818,
      "Ġ(''": 6819,
      "à®ļà®®à®±": 6820,
      "Ġà®Ĵà®©à®ķ": 6821,
      "Ġ320": 6822,
      "Ġ550": 6823,
      "ila": 6824,
      "à¯į'''": 6825,
      "ĠNar": 6826,
      "à®īà®³à®µ": 6827,
      "ĠCR": 6828,
      "ĠAR": 6829,
      "ĠRasp": 6830,
      "Ġ118": 6831,
      "Ġbet": 6832,
      "ĠFr": 6833,
      "unthu": 6834,
      "Ġ?âĢĿ": 6835,
      "à®¾...''": 6836,
      "à®¾âĢĻâĢĻ": 6837,
      "maz": 6838,
      "Ġ///": 6839,
      "Ġelection": 6840,
      "earn": 6841,
      "aham": 6842,
      "}}</": 6843,
      "ĠAssoci": 6844,
      "Ġhelp": 6845,
      "Ġketkapp": 6846,
      "Ġadikkadi": 6847,
      "Ġkelvigal": 6848,
      "Ġketkappadum": 6849,
      "Se": 6850,
      "UK": 6851,
      "];": 6852,
      "by": 6853,
      "pons": 6854,
      "ÃĢ": 6855,
      "ĠÂŃ": 6856,
      "à®ļà®±à®¤": 6857,
      "Ġà®¤à®ľ": 6858,
      "Ġà®ļà®ķà®Ł": 6859,
      "à¯į,âĢĭâĢĭ": 6860,
      "Ġà®īà®´à®²": 6861,
      "à¯ģ.*": 6862,
      "Ġà®ĩà®°à®ª": 6863,
      "à®¤à®®à®ª": 6864,
      "Ġà®®à®©à®µà®°": 6865,
      "Ġà®ªà®°à®µà®ķ": 6866,
      "âĢĻ.": 6867,
      "iles": 6868,
      "Ġ639": 6869,
      "ĠPR": 6870,
      "ĠSlim": 6871,
      "1995": 6872,
      "Ġà®µà®³à®¨": 6873,
      "Ġmade": 6874,
      "Ġ139": 6875,
      "atham": 6876,
      "ĠInformation": 6877,
      "Ġâľ": 6878,
      "main": 6879,
      "ĠAnti": 6880,
      "Ġshould": 6881,
      "Ġkamak": 6882,
      "oke": 6883,
      "ength": 6884,
      "pert": 6885,
      "ĠÃĹ": 6886,
      "weet": 6887,
      "ĠNotes": 6888,
      "ĠInteraction": 6889,
      "ĠSevere": 6890,
      "ĠSiyane": 6891,
      "Kan": 6892,
      "google": 6893,
      "var": 6894,
      "à¯į`": 6895,
      "à®ķà®ķà®¤": 6896,
      "à¯ĭÂŃ": 6897,
      "Ġà®İà®Łà®¤": 6898,
      "Ġà®Ĵà®°à®¤": 6899,
      "Ġà®°à®ļà®¤": 6900,
      "à®¤à®®à®£": 6901,
      "à®ħà®¹": 6902,
      "à®ħà®°à®ª": 6903,
      "à®ħà®°à®µ": 6904,
      "à®Ĩà®ĥà®ª": 6905,
      "Ġà®ĩà®Łà®µ": 6906,
      "Ġ1911": 6907,
      "ĠTips": 6908,
      "à®ķà®£à®ªà®¤": 6909,
      "à®£à®µà®°à®£": 6910,
      "ĠPC": 6911,
      "ĠSL": 6912,
      "Ġà®·à®¤": 6913,
      "ĠCine": 6914,
      "story": 6915,
      "ĠMad": 6916,
      "1992": 6917,
      "Ġ132": 6918,
      "ĠGall": 6919,
      "Ġà®ªà®µà®³à®ª": 6920,
      "Ġap": 6921,
      "ĠThooth": 6922,
      "Ġref": 6923,
      "ĠâĢ¦..": 6924,
      "iyan": 6925,
      "à®¿?âĢĿ": 6926,
      "Ġchild": 6927,
      "ĠReading": 6928,
      "irect": 6929,
      "ĠïĤ¾": 6930,
      "Ġconf": 6931,
      "urns": 6932,
      "ĠRaspberry": 6933,
      "DS": 6934,
      "Next": 6935,
      "OW": 6936,
      "Of": 6937,
      "band": 6938,
      "for": 6939,
      "à®°à®ķà®µ": 6940,
      "à®²à®ļà®®": 6941,
      "à®ªà®¯à®®": 6942,
      "à®ļà®®à®²": 6943,
      "à®£à®ķà®¤": 6944,
      "à¯į.<": 6945,
      "Ġà®īà®µà®ķ": 6946,
      "Ġà®īà®ªà®µ": 6947,
      "à®¸à®¨": 6948,
      "à®°à®®à®°à®£à®®": 6949,
      "Ġà®ĩà®²à®µà®Ļ": 6950,
      "Ġà®ļà®®à®¯à®ļ": 6951,
      "à®ĩà®±à®ª": 6952,
      "à®İà®µà®°": 6953,
      "Ġà®ĵà®°à®£": 6954,
      "à®©à®®à®±": 6955,
      "Ġ1901": 6956,
      "ĠMain": 6957,
      "1993": 6958,
      "Ġpira": 6959,
      "Ġ1280": 6960,
      "Ġ116": 6961,
      "Ġà®ķà®ªà®ļ": 6962,
      "ĠHere": 6963,
      "akthi": 6964,
      "à®µà®´à®ķà®©": 6965,
      "ume": 6966,
      "à®±à®°à®ļà®°": 6967,
      "à®¾...'": 6968,
      "utes": 6969,
      "ĠJobs": 6970,
      "ister": 6971,
      "illed": 6972,
      "ights": 6973,
      "ĠWhat": 6974,
      "ĠPolice": 6975,
      "aanath": 6976,
      "Ġcalled": 6977,
      "!\"": 6978,
      "140": 6979,
      "350": 6980,
      "UL": 6981,
      "less": 6982,
      "ux": 6983,
      "vers": 6984,
      "à®°à®µà®²à®°": 6985,
      "à®®à®¯à®ķ": 6986,
      "à®¯à®ŀ": 6987,
      "âĢ²": 6988,
      "Ġà®Ĵà®°à®³à®µ": 6989,
      "à®Łà®®à®²": 6990,
      "à®ķà®¤à®®": 6991,
      "Ġà®ħà®²à®ª": 6992,
      "Ġà®¯à®®à®©": 6993,
      "Ġà®²à®¸": 6994,
      "à®Łà®²à®ķ": 6995,
      "Ġà®īà®°à®²": 6996,
      "Ġà®Īà®²": 6997,
      "à®°à®£à®®à®²": 6998,
      "eries": 6999,
      "eni": 7000,
      "enk": 7001,
      "ĠAk": 7002,
      "ĠAy": 7003,
      "Ġsign": 7004,
      "Ġ185": 7005,
      "Ġbody": 7006,
      "ĠGe": 7007,
      "etic": 7008,
      "Ġtheev": 7009,
      "ĠKing": 7010,
      "igation": 7011,
      "osc": 7012,
      "ĠReal": 7013,
      "angulam": 7014,
      "iance": 7015,
      "ĠYoutube": 7016,
      "à¶¸": 7017,
      "ĠAlcohol": 7018,
      "Ġadmin": 7019,
      "ĠPlay": 7020,
      "ÙĳÙĲ": 7021,
      "ternet": 7022,
      "Ġmeaning": 7023,
      "itional": 7024,
      "à®īà®Łà®©à®Ł": 7025,
      "ĠYouTube": 7026,
      "Ġà®ļà®®à®°à®ļà®¤": 7027,
      "Ġmarundhukal": 7028,
      "Ġpermalink": 7029,
      "Ġtheevira": 7030,
      "Ġmarundhukaludan": 7031,
      "%-": 7032,
      "450": 7033,
      "5759": 7034,
      "Dec": 7035,
      "UP": 7036,
      "ja": 7037,
      "Ġold": 7038,
      "à¯į>": 7039,
      "à®ķà®¤à®²": 7040,
      "à®¯à®£à®ª": 7041,
      "Ġà®ªà®ĥà®ª": 7042,
      "à®£à®°à®¤": 7043,
      "à®ķà®®à®ķ": 7044,
      "à®ķà®¤à®ķ": 7045,
      "à®ķà®°à®µà®£": 7046,
      "à®¯à®°à®Ł": 7047,
      "Ġà®ªà®²à®ªà®Ł": 7048,
      "à®²à®®à®²": 7049,
      "Ġà®ľà®¤": 7050,
      "Ġà®²à®ļ": 7051,
      "ination": 7052,
      "...]": 7053,
      "à®ķà®£à®ª": 7054,
      "à¯į..âĢĻ": 7055,
      "ĠMach": 7056,
      "à®Ĳà®¤à®°": 7057,
      "adal": 7058,
      "Ġshe": 7059,
      "ola": 7060,
      "olv": 7061,
      "Ġpass": 7062,
      "à®¯à®ļà®ķ": 7063,
      "uri": 7064,
      "Ġnow": 7065,
      "utral": 7066,
      "ĠJohn": 7067,
      "à®Ĭà®´": 7068,
      "Ġchicken": 7069,
      "ptions": 7070,
      "oung": 7071,
      "Ġunavu": 7072,
      "ettings": 7073,
      "ĠWhats": 7074,
      "Ġenglish": 7075,
      "ociety": 7076,
      "Ġ7205759": 7077,
      "ĠBerita": 7078,
      "ĠMaths": 7079,
      "Ġarrested": 7080,
      "ĠTrailer": 7081,
      "Ġ720575940": 7082,
      "(\"": 7083,
      "AK": 7084,
      "name": 7085,
      "Â¡": 7086,
      "à®¨à®°à®ļ": 7087,
      "à®µà®¤à®¤": 7088,
      "à¯ģ,'": 7089,
      "à®ľà®¹": 7090,
      "Ġà®¸à®ª": 7091,
      "à®ķà®©à®ļ": 7092,
      "à®°à®µà®¸": 7093,
      "Ġà®ķà®®à®£": 7094,
      "ĠPress": 7095,
      "ĠPlease": 7096,
      "ĠSE": 7097,
      "ĠCH": 7098,
      "Ġ8000": 7099,
      "à®ıà®ľ": 7100,
      "1970": 7101,
      "ais": 7102,
      "Ġ1886": 7103,
      "Ġ1889": 7104,
      "Ġblog": 7105,
      "Ġ147": 7106,
      "Ġ148": 7107,
      "Ġ137": 7108,
      "ĠFrom": 7109,
      "Ġdist": 7110,
      "ĠKan": 7111,
      "unction": 7112,
      "cture": 7113,
      "à®¾...âĢĻ": 7114,
      "ĠUN": 7115,
      "utch": 7116,
      "ĠJew": 7117,
      "Ġraj": 7118,
      "ops": 7119,
      "artment": 7120,
      "ĠAnn": 7121,
      "ĠProt": 7122,
      "ISO": 7123,
      "adhu": 7124,
      "ences": 7125,
      "ouncil": 7126,
      "opping": 7127,
      "HS": 7128,
      "We": 7129,
      "World": 7130,
      "dy": 7131,
      "eet": 7132,
      "patti": 7133,
      "Ø¬": 7134,
      "Ġext": 7135,
      "Ġviews": 7136,
      "à¯įÂ": 7137,
      "à®ķà®±à®ª": 7138,
      "Ġà®ķà®¤à®ķ": 7139,
      "Ġà®ķà®±à®ķ": 7140,
      "Ġà®ħà®ļà®©": 7141,
      "à¯ĩ''": 7142,
      "Ġà®¤à®Łà®ª": 7143,
      "Ġà®İà®©à®±": 7144,
      "..\"": 7145,
      "à®©à®®à®¯à®®": 7146,
      "Ġ330": 7147,
      "Ġà®ķà®¤à®±à®²": 7148,
      "Ġà®ĩà®Łà®±": 7149,
      "ĠPower": 7150,
      "ĠSr": 7151,
      "itch": 7152,
      "Ġsee": 7153,
      "Ġthir": 7154,
      "andhi": 7155,
      "Ġà®īà®´à®µà®©": 7156,
      "Ġ136": 7157,
      "ĠFact": 7158,
      "ĠGet": 7159,
      "ĠKumar": 7160,
      "ester": 7161,
      "udana": 7162,
      "ubaanath": 7163,
      "ĠEnter": 7164,
      "))))": 7165,
      "oftw": 7166,
      "Ġà®Ĩà®²à®®à®°à®®": 7167,
      "ushk": 7168,
      "ukku": 7169,
      "ĠCommission": 7170,
      "ĠTRB": 7171,
      "ĠInteractions": 7172,
      "ĠREAD": 7173,
      "Ġmadhubaanath": 7174,
      "udanaana": 7175,
      "Ġmadhubaanathudanaana": 7176,
      "');": 7177,
      "NG": 7178,
      "TA": 7179,
      "lab": 7180,
      "Ġid": 7181,
      "à®¿}": 7182,
      "à®²à®ªà®¤": 7183,
      "Ġà®ļà®ķà®ª": 7184,
      "Ġà®ļà®Łà®ķ": 7185,
      "Ġà®īà®µà®ª": 7186,
      "à®©à®°à®ŀ": 7187,
      "Ġà®°à®£à®®": 7188,
      "Ġà®īà®³à®ª": 7189,
      "Ġà®ħà®µà®²à®¨": 7190,
      "Ġà®¯à®ľ": 7191,
      "Ġà®īà®°à®ļà®²": 7192,
      "inter": 7193,
      "Ġà®Ĳà®µ": 7194,
      "Ġ380": 7195,
      "Ġà®ħà®µà®©à®µà®©": 7196,
      "Ġ480": 7197,
      "à¯į)\"": 7198,
      "ĠPric": 7199,
      "Ġà®·à®µ": 7200,
      "ĠCourt": 7201,
      "à®®à®£à®ļ": 7202,
      "Ġcre": 7203,
      "Ġpay": 7204,
      "inger": 7205,
      "asik": 7206,
      "Ġmus": 7207,
      "urity": 7208,
      "ĠFM": 7209,
      "ĠKann": 7210,
      "à®ĵà®ĵ": 7211,
      "Ġlaw": 7212,
      "Ġgirl": 7213,
      "Ġret": 7214,
      "oval": 7215,
      "iff": 7216,
      "uthuv": 7217,
      "ected": 7218,
      "obal": 7219,
      "Ġà®ĥà®µ": 7220,
      "akkal": 7221,
      "ÙĳÙ°": 7222,
      "isease": 7223,
      "ĠISBN": 7224,
      "FS": 7225,
      "lon": 7226,
      "nool": 7227,
      "tra": 7228,
      "à¯įà¯į": 7229,
      "à¯įâĢĶ": 7230,
      "à®°à®µà®ķ": 7231,
      "à®¾êŀī": 7232,
      "à®ªà®¯à®±": 7233,
      "Ġà®ªà®µà®³": 7234,
      "à®ļà®ļà®°": 7235,
      "à¯ĩ(": 7236,
      "Ġà®¨à®¯à®µ": 7237,
      "Ġà®īà®³à®¤": 7238,
      "Ġà®ľà®¯": 7239,
      "Ġà®ķà®²à®ļà®®": 7240,
      "Ġà®¯à®·": 7241,
      "à®ħà®ķà®¤": 7242,
      "Ġà®ļà®°à®µà®£à®ķ": 7243,
      "Ġà®Īà®¯": 7244,
      "atter": 7245,
      "ĠSC": 7246,
      "aiya": 7247,
      "ought": 7248,
      "ĠId": 7249,
      "Ġà®ĩà®®à®¯à®®": 7250,
      "Ġfish": 7251,
      "agai": 7252,
      "Ġ161": 7253,
      "Ġ1300": 7254,
      "Ġnadu": 7255,
      "room": 7256,
      "Ġ10000": 7257,
      "eme": 7258,
      "ape": 7259,
      "Ġ280": 7260,
      "eech": 7261,
      "aterial": 7262,
      "ĠJunior": 7263,
      "ĠTechnology": 7264,
      "yclone": 7265,
      "Ġjewellery": 7266,
      "ĠAdvanced": 7267,
      ".''": 7268,
      ">{{": 7269,
      "Am": 7270,
      "PI": 7271,
      "ait": 7272,
      "si": 7273,
      "ype": 7274,
      "Ġant": 7275,
      "à®¿[": 7276,
      "à®Łà®µà®¤": 7277,
      "à®®à®ļà®¨": 7278,
      "à®µà®ªà®ķ": 7279,
      "à®ļà®ļà®ª": 7280,
      "à¯Ģ'": 7281,
      "à¯Ĥ'": 7282,
      "Ġà®Ĩà®Łà®ª": 7283,
      "Ġà®ĩà®²à®ļ": 7284,
      "Ġà®Łà®µà®²": 7285,
      "Ġà®ħà®µà®®à®°": 7286,
      "à®ļà®®à®©": 7287,
      "Ġà®ļà®°à®Ł": 7288,
      "ince": 7289,
      "Ġà®ĩà®µà®³à®¤": 7290,
      "Ġ7000": 7291,
      "à¯į?!": 7292,
      "Ġ850": 7293,
      "ĠMen": 7294,
      "ĠAut": 7295,
      "1994": 7296,
      "Ġpower": 7297,
      "ĠBar": 7298,
      "Ġthod": 7299,
      "ela": 7300,
      "à¯ģ!âĢĻâĢĻ": 7301,
      "Ġ167": 7302,
      "Ġ168": 7303,
      "ĠWW": 7304,
      "Ġland": 7305,
      "Ġvid": 7306,
      "à®ĥà®°": 7307,
      "405": 7308,
      "istan": 7309,
      "illion": 7310,
      "ĠStory": 7311,
      "ĠYear": 7312,
      "Ġwithout": 7313,
      "ĠProgram": 7314,
      "akkam": 7315,
      "ICE": 7316,
      "Ġusing": 7317,
      "à®£à®¨à®²à®©": 7318,
      "Ġhero": 7319,
      "ĠMedical": 7320,
      "ography": 7321,
      "Ġbelow": 7322,
      "oftware": 7323,
      "AY": 7324,
      "Fit": 7325,
      "XX": 7326,
      "ck": 7327,
      "post": 7328,
      "Ġend": 7329,
      "à®ķà®ķà®µà®ļà®®": 7330,
      "à®¾à®Ĥ": 7331,
      "à®¯à®µà®²": 7332,
      "à®ķà®³à®ļ": 7333,
      "Ġà®İà®ľ": 7334,
      "..!!": 7335,
      "à®³à®°à®µà®®": 7336,
      "à®²à®®à®±": 7337,
      "Ġà®ľà®¯à®¨": 7338,
      "à®¤à®ªà®¯": 7339,
      "à®ĩà®±à®ķ": 7340,
      "Ġ340": 7341,
      "à®¾?)": 7342,
      "à®µà®ļà®©à®®": 7343,
      "online": 7344,
      "ĠCopy": 7345,
      "à®ıà®Ł": 7346,
      "oly": 7347,
      "ĠBhar": 7348,
      "ental": 7349,
      "ured": 7350,
      "Ġhead": 7351,
      "irror": 7352,
      "Ġdictionary": 7353,
      "ĠEMI": 7354,
      "ĠKn": 7355,
      "ĠVol": 7356,
      "chi": 7357,
      "ĠUs": 7358,
      "à®¾..!!": 7359,
      "Ġvari": 7360,
      "imal": 7361,
      "rah": 7362,
      "illa": 7363,
      "à¶Ń": 7364,
      "ĠAdd": 7365,
      "ĠCollege": 7366,
      "rough": 7367,
      "Ġformula": 7368,
      "noolaham": 7369,
      "'...": 7370,
      "380": 7371,
      "BF": 7372,
      "Ne": 7373,
      "Page": 7374,
      "Solution": 7375,
      "box": 7376,
      "ga": 7377,
      "iber": 7378,
      "sub": 7379,
      "à®©à®µà®²": 7380,
      "à®µà®£à®®": 7381,
      "à®°à®®à®°": 7382,
      "à®¤à®°à®ķà®Ļ": 7383,
      "Ġà®ķà®²à®ļ": 7384,
      "à®ļà®®à®¯": 7385,
      "à®ĩà®´": 7386,
      "Ġà®ĵà®®à®©": 7387,
      "à®ħà®·": 7388,
      "Ġà®ħà®´à®µ": 7389,
      "inik": 7390,
      "Ġà®¤à®µà®ķ": 7391,
      "Ġ1909": 7392,
      "atus": 7393,
      "alayam": 7394,
      "ĠSkin": 7395,
      "itation": 7396,
      "ĠAtt": 7397,
      "à®Ĳà®®": 7398,
      "1983": 7399,
      "Ġà®Ĩà®µà®£à®ķ": 7400,
      "ĠIV": 7401,
      "Ġmov": 7402,
      "Ġ146": 7403,
      "Ġ134": 7404,
      "Ġhad": 7405,
      "iri": 7406,
      "riev": 7407,
      "ikkai": 7408,
      "ived": 7409,
      "Ġlac": 7410,
      "Ġval": 7411,
      "180": 7412,
      "Ġstate": 7413,
      "Ġà®ªà®°à®®à®©": 7414,
      "cept": 7415,
      "Ġà®³à®°": 7416,
      "ffee": 7417,
      "ongress": 7418,
      "akku": 7419,
      "airav": 7420,
      "ĠðŁĶ": 7421,
      "ĠTNTJ": 7422,
      "ancer": 7423,
      "ĠEdits": 7424,
      "ekho": 7425,
      "ĠEducational": 7426,
      "ĠAngkor": 7427,
      "ĠOriginally": 7428,
      "ushkodi": 7429,
      "360": 7430,
      "?.": 7431,
      "Per": 7432,
      "PDF": 7433,
      "ÙĢ": 7434,
      "à®¤à®¯à®µ": 7435,
      "à®®à®µà®©": 7436,
      "Ġà®ķà®³à®©": 7437,
      "à®ļà®²à®ķ": 7438,
      "à®£à®µà®ª": 7439,
      "à®ķà®µà®ļà®Ļ": 7440,
      "à®¯à®¤à®®": 7441,
      "à®ľà®°à®¤": 7442,
      "à®¤à®°à®£à®®": 7443,
      "Ġà®ķà®²à®ķà®ķ": 7444,
      "à®¯à®©à®ķ": 7445,
      "à®³à®µà®Ļ": 7446,
      "Ġà®Ĭà®Łà®²": 7447,
      "Ġà®®à®°à®µ": 7448,
      "à®¹à®Ł": 7449,
      "Ġ1903": 7450,
      "Ġà®¨à®ķà®°à®ķ": 7451,
      "à®īà®Łà®®": 7452,
      "ĠCare": 7453,
      "icy": 7454,
      "rek": 7455,
      "1976": 7456,
      "1956": 7457,
      "1957": 7458,
      ".,),": 7459,
      "Ġmed": 7460,
      "ĠDC": 7461,
      "Ġ162": 7462,
      "à¯ģ..\"": 7463,
      "Ġhapp": 7464,
      "à®ĩà®²à®Ł": 7465,
      "ried": 7466,
      "avam": 7467,
      "123": 7468,
      "Ġla": 7469,
      "256": 7470,
      "Ġelect": 7471,
      "rue": 7472,
      "ðŁĳ": 7473,
      "Ġjust": 7474,
      "Ġadv": 7475,
      "ĠTele": 7476,
      "Ġà¥¤": 7477,
      "ĠKetone": 7478,
      "-%": 7479,
      "Dekho": 7480,
      "ME": 7481,
      "Man": 7482,
      "mp": 7483,
      "oa": 7484,
      "ïĢ": 7485,
      "à®µà®¹": 7486,
      "Ġà®ķà®ķà®©": 7487,
      "Ġà®®à®µà®©": 7488,
      "à®Łà®®à®Ļ": 7489,
      "Ġà®°à®®à®£à®©": 7490,
      "à®³à®¤à®±": 7491,
      "à®µà®©à®ļ": 7492,
      "Ġà®ħà®©à®¸": 7493,
      "Ġà®ľà®©à®°à®ŀ": 7494,
      "Ġà®ıà®±à®µ": 7495,
      "Ġà®ļà®®à®¤à®°": 7496,
      "à®ļà®®à®£": 7497,
      "à®ĩà®³à®µà®°": 7498,
      "à®®à®©à®ª": 7499,
      "Ġ2024": 7500,
      "Ġ2023": 7501,
      "ĠTrichy": 7502,
      "ĠSat": 7503,
      "ĠModi": 7504,
      "à®Ĳà®¸": 7505,
      "Ġ153": 7506,
      "ĠBro": 7507,
      "Ġmother": 7508,
      "Ġfile": 7509,
      "ĠHP": 7510,
      "Ġ131": 7511,
      "Ġ176": 7512,
      "Ġdown": 7513,
      "estion": 7514,
      "Ġà®¤à®°à®®à®£": 7515,
      "125": 7516,
      "Ġ???": 7517,
      "à®¿!âĢĿ": 7518,
      "Ġà®¨à®Łà®©à®ª": 7519,
      "Ġâĸ": 7520,
      "à¯ĩ...'": 7521,
      "à¯Ī..!!": 7522,
      "rypt": 7523,
      "action": 7524,
      "Vijay": 7525,
      "appa": 7526,
      "okes": 7527,
      "ĠØª": 7528,
      "oxic": 7529,
      "ĠClick": 7530,
      "Ġkathaikal": 7531,
      "Spark": 7532,
      "à®ĥà®ĥà®ĥà®ĥ": 7533,
      "Ġprotest": 7534,
      "ĠAval": 7535,
      "mazon": 7536,
      ")(": 7537,
      "FA": 7538,
      "NS": 7539,
      "TO": 7540,
      "scri": 7541,
      "à®¤à®¹": 7542,
      "à®°à®¹à®®": 7543,
      "à®¾_": 7544,
      "à®©à®Łà®°": 7545,
      "Ġà®®à®ļà®ķ": 7546,
      "Ġà®®à®ĩà®ķ": 7547,
      "à¯į.?": 7548,
      "à¯Ģ!": 7549,
      "Ġà®°à®²": 7550,
      "Ġà®°à®®à®²": 7551,
      "Ġà®°à®£à®¤": 7552,
      "à®ľà®¯à®µ": 7553,
      "Ġà®İà®´à®²": 7554,
      "à®¹à®£": 7555,
      "Ġà®Īà®¨": 7556,
      "ams": 7557,
      "...!": 7558,
      "à®ļà®²à®ªà®¤": 7559,
      "Ġ420": 7560,
      "alavu": 7561,
      "Ġà®µà®³à®°à®¤": 7562,
      "ĠPur": 7563,
      "ĠPER": 7564,
      "ĠPublic": 7565,
      "ĠSun": 7566,
      "ĠSup": 7567,
      "edu": 7568,
      "ĠAustral": 7569,
      "Ġside": 7570,
      "1947": 7571,
      "1978": 7572,
      "asc": 7573,
      "elry": 7574,
      "Ġbu": 7575,
      "ĠLtd": 7576,
      "ĠLearn": 7577,
      "Ġfollow": 7578,
      "idge": 7579,
      "ĠOS": 7580,
      "Ġhim": 7581,
      "à¯ĩ!''": 7582,
      "Ġdep": 7583,
      "Ġdetails": 7584,
      "Ġlook": 7585,
      "Ġà®ķà®®à®²à®ķ": 7586,
      "ĠUp": 7587,
      "à®¾\",": 7588,
      "à¯ĩ..?": 7589,
      "Ġà¤¸": 7590,
      "Ġlead": 7591,
      "ĠOfficial": 7592,
      "Ġpres": 7593,
      "ĠStudy": 7594,
      "à®©à®²à®®à®±": 7595,
      "rishn": 7596,
      "ĠLabels": 7597,
      "urugan": 7598,
      "/>": 7599,
      "Bay": 7600,
      "PC": 7601,
      "RL": 7602,
      "hal": 7603,
      "ique": 7604,
      "oe": 7605,
      "oom": 7606,
      "rd": 7607,
      "ÂĢ": 7608,
      "Ð°": 7609,
      "à¯§": 7610,
      "à®Łà®ķà®µ": 7611,
      "à®ªà®´à®¨": 7612,
      "à®³à®µà®¤": 7613,
      "Ġà®®à®³à®®": 7614,
      "Ġà®®à®²à®Ļ": 7615,
      "Ġà®¤à®¹": 7616,
      "à®´à®µà®¨": 7617,
      "à¯į,[": 7618,
      "Ġà®Ĩà®¤à®©": 7619,
      "Ġà®ħà®°à®³": 7620,
      "à®ľà®£": 7621,
      "Ġà®ľà®©à®®": 7622,
      "Ġà®¯à®²": 7623,
      "Ġà®ħà®ªà®¯": 7624,
      "Ġà®®à®°à®£à®ª": 7625,
      "Ġà®¸à®ķ": 7626,
      "Ġà®Īà®¯à®®": 7627,
      "Ġà®ķà®¤à®ķà®³": 7628,
      "Ġ1906": 7629,
      "Ġà®µà®²à®¯à®ķ": 7630,
      "aterm": 7631,
      "à¯į)|": 7632,
      "thing": 7633,
      "ĠNok": 7634,
      "ĠPRO": 7635,
      "let": 7636,
      "1977": 7637,
      "ĠRadio": 7638,
      "Ġ1898": 7639,
      "///": 7640,
      "Ġwrit": 7641,
      ".......": 7642,
      "Ġ1700": 7643,
      "ĠKerala": 7644,
      "avai": 7645,
      "ĠIns": 7646,
      "ĠRep": 7647,
      "anks": 7648,
      "iant": 7649,
      "Ġ\\(": 7650,
      "ĠUSB": 7651,
      "ĠArticle": 7652,
      "Ġmarundhalavu": 7653,
      "ĠWordPress": 7654,
      "ĠCharcoal": 7655,
      "Ġà®¨à®¯à®µà®ŀ": 7656,
      "499": 7657,
      "Coin": 7658,
      "DC": 7659,
      "PU": 7660,
      "df": 7661,
      "sn": 7662,
      "ïģ": 7663,
      "Ġî": 7664,
      "Ġair": 7665,
      "à®Łà®±à®ķ": 7666,
      "à¯Ī|": 7667,
      "à®±à®°à®ļ": 7668,
      "à®ļà®²à®µ": 7669,
      "Ġà®ĩà®¤à®¯à®ķ": 7670,
      "à®ķà®°à®£à®®": 7671,
      "à®·à®ļ": 7672,
      "Ġ((": 7673,
      "Ġà®ķà®²à®µà®°": 7674,
      "à®©à®®à®©": 7675,
      "à®ķà®©à®²": 7676,
      "à®¹à®¹": 7677,
      "onic": 7678,
      "ores": 7679,
      "à¯į);": 7680,
      "Ġà®ªà®³à®ªà®³à®ķ": 7681,
      "Ġ.,": 7682,
      "ĠCoun": 7683,
      "ites": 7684,
      "omet": 7685,
      "Ġtreatment": 7686,
      "Ġ151": 7687,
      "Ġcard": 7688,
      "ison": 7689,
      "ides": 7690,
      "ĠFund": 7691,
      "ĠForm": 7692,
      "à®¿âĢĻâĢĻ": 7693,
      "Ġtown": 7694,
      "Ġà®©à®¤": 7695,
      "organ": 7696,
      "Ġiss": 7697,
      "ĠState": 7698,
      "eylon": 7699,
      "ATE": 7700,
      "vert": 7701,
      "ĠðŁĺ": 7702,
      "akathaikal": 7703,
      "Ġheart": 7704,
      "ĠPeriyar": 7705,
      "anguages": 7706,
      "duction": 7707,
      "à®ľà®ľà®ľà®ľ": 7708,
      "urrent": 7709,
      "akshmi": 7710,
      "ĠTwitter": 7711,
      "NEWS": 7712,
      ",âĢĿ": 7713,
      "SO": 7714,
      "TI": 7715,
      "What": 7716,
      "ces": 7717,
      "vision": 7718,
      "à¯į<": 7719,
      "à®¤à®¯à®ķ": 7720,
      "à®¯à®´à®ķ": 7721,
      "Ġà®ķà®ªà®³": 7722,
      "Ġà®ªà®Łà®ªà®Łà®µ": 7723,
      "à®¤à®°à®ļà®®": 7724,
      "à®ķà®²à®µà®°à®®": 7725,
      "Ġà®ķà®°à®ķà®°à®ª": 7726,
      "à®ħà®©à®¨": 7727,
      "Ġ1907": 7728,
      "ily": 7729,
      "esw": 7730,
      "ĠPe": 7731,
      "Ġà®ĥà®ªà®¯à®°": 7732,
      "ĠMang": 7733,
      "à®Ĳà®¤": 7734,
      "reet": 7735,
      "Ġschool": 7736,
      "195": 7737,
      "1986": 7738,
      "olgy": 7739,
      "ouch": 7740,
      "isamy": 7741,
      "asalai": 7742,
      "ĠBal": 7743,
      "andu": 7744,
      "Ġà®īà®´à®©": 7745,
      "ĠGen": 7746,
      "ĠErek": 7747,
      "104": 7748,
      "à¯ģ'.": 7749,
      "owers": 7750,
      "iyal": 7751,
      "iful": 7752,
      "à¯į_(": 7753,
      "à¶ļ": 7754,
      "Ġà®ħà®°à®ļà®®à®°à®ª": 7755,
      "ĠØ§ÙĦÙĦ": 7756,
      "eneration": 7757,
      "ĠTechnolgy": 7758,
      "ĠCategory": 7759,
      "ĠNeutral": 7760,
      "Ġkaraiyin": 7761,
      "Previous": 7762,
      "Kanags": 7763,
      "asikala": 7764,
      "airavini": 7765,
      "ĠErektion": 7766,
      "Ġkaraiyinile": 7767,
      "ner": 7768,
      "oil": 7769,
      "yp": 7770,
      "yt": 7771,
      "yes": 7772,
      "Î±": 7773,
      "à¯ģ}": 7774,
      "à®ķà®¯à®®": 7775,
      "à®ªà®±à®ķ": 7776,
      "à®µà®Łà®¤": 7777,
      "à®¤à®®à®ķ": 7778,
      "Ġà®Ĩà®£à®µà®ķ": 7779,
      "Ġà®¤à®²à®µ": 7780,
      "à®ļà®®à®¤": 7781,
      "à®ķà®´à®¤": 7782,
      "à®±à®µà®±à®®": 7783,
      "à®µà®ķà®£": 7784,
      "à®īà®Łà®±": 7785,
      "ĠPath": 7786,
      "ĠSl": 7787,
      "adam": 7788,
      "Ġsk": 7789,
      "Ġsam": 7790,
      "à®¤à®ļà®Ļ": 7791,
      "ĠDur": 7792,
      "ĠDHA": 7793,
      "Ġfa": 7794,
      "Ġfamily": 7795,
      "agram": 7796,
      "Ġown": 7797,
      "Ġ164": 7798,
      "riage": 7799,
      "unic": 7800,
      "umai": 7801,
      "ĠUK": 7802,
      "ĠChoco": 7803,
      "Ġele": 7804,
      "Ġevery": 7805,
      "à¯ĭ?âĢĻ": 7806,
      "isha": 7807,
      "Â¯Âĭ": 7808,
      "plain": 7809,
      "Ġà®ħà®¯à®²à®µà®°": 7810,
      "ĠForum": 7811,
      "âĢĶâĢĶâĢĶâĢĶâĢĶâĢĶâĢĶâĢĶ": 7812,
      "Ġaddress": 7813,
      "ydro": 7814,
      "Article": 7815,
      "ĠTEACH": 7816,
      "ifferent": 7817,
      "atermark": 7818,
      "240": 7819,
      "BA": 7820,
      "DL": 7821,
      "hai": 7822,
      "mg": 7823,
      "Ð¾": 7824,
      "à®¿à®¾à®¿": 7825,
      "à®°à®Łà®°": 7826,
      "à®°à®ķà®£à®¤": 7827,
      "à®²à®µà®¤": 7828,
      "à¯ĪâĢĵ": 7829,
      "Ġà®ļà®¤à®ķ": 7830,
      "Ġà®ħà®¤à®²": 7831,
      "à¯Ī.(": 7832,
      "à®µà®²à®ļ": 7833,
      "Ġà®ħà®´à®¤": 7834,
      "à®ķà®Łà®ķ": 7835,
      "à®Ĩà®ªà®¤": 7836,
      "Ġ1904": 7837,
      "atory": 7838,
      "ĠNager": 7839,
      "ĠPas": 7840,
      "ĠPand": 7841,
      "ĠPage": 7842,
      "ĠSell": 7843,
      "icor": 7844,
      "itis": 7845,
      "reg": 7846,
      "Ġsource": 7847,
      "1985": 7848,
      "oul": 7849,
      "Ġinf": 7850,
      "Ġincl": 7851,
      "ĠOl": 7852,
      "Ġwomen": 7853,
      "Ġ149": 7854,
      "ĠHor": 7855,
      "ĠHGH": 7856,
      "Ġ166": 7857,
      "Ġ138": 7858,
      "Ġhair": 7859,
      "à¯ĩ!'": 7860,
      "ĠKur": 7861,
      "ĠVs": 7862,
      "à®ªà®¯à®£à®Ļ": 7863,
      "ĠWill": 7864,
      "Ġkw": 7865,
      "empl": 7866,
      "osition": 7867,
      "à®ħà®Łà®Ł": 7868,
      "170": 7869,
      "ĠChild": 7870,
      "atty": 7871,
      "Ġchar": 7872,
      "ovies": 7873,
      "Ġà¯§": 7874,
      "autiful": 7875,
      "ĠCarDekho": 7876,
      "ĠRemoval": 7877,
      "ĠPadasalai": 7878,
      "ĠAfric": 7879,
      "ÂĢÂ": 7880,
      "Ġà®®à®³à®®à®³à®µ": 7881,
      "ĠChocoFit": 7882,
      "Dr": 7883,
      "IST": 7884,
      "NATION": 7885,
      "bal": 7886,
      "yal": 7887,
      "İį": 7888,
      "à®ķà®ľà®©": 7889,
      "à®©à®´à®ķ": 7890,
      "à®ªà®©à®°à®²": 7891,
      "à¯Ī&": 7892,
      "Ġà®ķà®¯à®µà®°": 7893,
      "à®ļà®¯à®ª": 7894,
      "Ġà®ĩà®¤à®¯à®ª": 7895,
      "Ġà®°à®ľà®©": 7896,
      "à®¯à®²à®ķà®ª": 7897,
      "à®ľà®¯à®ļ": 7898,
      "Ġà®Łà®ĥà®ª": 7899,
      "Ġà®®à®©à®©à®®": 7900,
      "Ġà®®à®©à®īà®³": 7901,
      "à®İà®Łà®ª": 7902,
      "...âĢĻ": 7903,
      "ilos": 7904,
      "ĠTO": 7905,
      "à¯ĩ.âĢĿ": 7906,
      "Ġà®Ĩà®±à®Ł": 7907,
      "Ġà®ķà®®à®´": 7908,
      "ĠSiv": 7909,
      "ĠShar": 7910,
      "ĠALL": 7911,
      "Ġsch": 7912,
      "1979": 7913,
      "Ġcity": 7914,
      "Ġpo": 7915,
      "Ġportal": 7916,
      "Ġ1897": 7917,
      "ĠBack": 7918,
      "Ġ178": 7919,
      "athir": 7920,
      "ules": 7921,
      "otor": 7922,
      "ogen": 7923,
      "Ġ3500": 7924,
      "Ġ==": 7925,
      "ffic": 7926,
      "plit": 7927,
      "Ġcomfrey": 7928,
      "ibr": 7929,
      "antha": 7930,
      "ENT": 7931,
      "Ġknown": 7932,
      "utton": 7933,
      "cription": 7934,
      "embly": 7935,
      "ĠMusic": 7936,
      "accine": 7937,
      "ĠChapter": 7938,
      "ĠAssociation": 7939,
      ":-": 7940,
      "Con": 7941,
      "MO": 7942,
      "Voice": 7943,
      "Watermark": 7944,
      "aus": 7945,
      "cer": 7946,
      "sy": 7947,
      "voice": 7948,
      "Ġ000": 7949,
      "Ġakka": 7950,
      "à¯į=": 7951,
      "à®ķà®ªà®¤": 7952,
      "à®©à®Łà®ķ": 7953,
      "à®²à®´à®ķà®°": 7954,
      "à®³à®´à®ķà®°": 7955,
      "Ġà®¤à®ķà®µ": 7956,
      "à¯Ĭà®¿": 7957,
      "à®ªà®Łà®²à®¤": 7958,
      "Ġà®īà®¤à®ķ": 7959,
      "Ġà®ĩà®°à®¨": 7960,
      "Ġà®ıà®ľà®©": 7961,
      "à®¯à®²à®®à®°": 7962,
      "Ġà®ľà®²à®®": 7963,
      "Ġà®ķà®²à®ļà®Ļ": 7964,
      "Ġà®ļà®®à®£à®®": 7965,
      "Ġà®ħà®ªà®ķ": 7966,
      "à®Łà®²à®ª": 7967,
      "Ġà®¤à®°à®µà®²": 7968,
      "Ġ204": 7969,
      "ĠTer": 7970,
      "Ġà®ļà®ķà®²à®®": 7971,
      "ĠSan": 7972,
      "stories": 7973,
      "eder": 7974,
      "Ġ999": 7975,
      "ĠMet": 7976,
      "ĠAS": 7977,
      "ĠAward": 7978,
      "ĠAstrology": 7979,
      "1972": 7980,
      "1974": 7981,
      "ĠRAM": 7982,
      "Ġcount": 7983,
      "Ġ1893": 7984,
      "Ġà®µà®©à®ľ": 7985,
      "à¯įâĢ¦âĢ¦âĢ¦": 7986,
      "Ġ141": 7987,
      "Ġ177": 7988,
      "Ġdr": 7989,
      "une": 7990,
      "avel": 7991,
      "ivathu": 7992,
      "à®¾.....": 7993,
      "à¯ģ',": 7994,
      "ĠReport": 7995,
      "uthi": 7996,
      "anna": 7997,
      "attle": 7998,
      "à¥ģ": 7999,
      "Ġshort": 8000,
      "ternal": 8001,
      "================": 8002,
      "Ġsmall": 8003,
      "Ġtwo": 8004,
      "220": 8005,
      "dom": 8006,
      "ku": 8007,
      "ÑĢ": 8008,
      "à®°à®ķà®³": 8009,
      "à®°à®¯à®Ļ": 8010,
      "à®²à®¤à®®": 8011,
      "Ġà®®à®®à®¤": 8012,
      "à®¨à®Łà®ķ": 8013,
      "à®£à®³à®µ": 8014,
      "à¯Ĥà®¾à¯į,": 8015,
      "Ġà®Ĵà®¯à®°": 8016,
      "à®µà®¤à®ļ": 8017,
      "à¯ģ,.": 8018,
      "Ġà®ħà®±à®ļ": 8019,
      "Ġà®¯à®¸": 8020,
      "Ġà®ªà®ķà®±": 8021,
      "à®©à®®à®°": 8022,
      "à®¯à®ķà®Ł": 8023,
      "Ġà®ħà®³à®µà®³": 8024,
      "à®®à®°à®µ": 8025,
      "ilt": 8026,
      "ĠTime": 8027,
      "Ġà®īà®¯à®°à®Ļ": 8028,
      "Ġà®Ĩà®®à®£à®ķ": 8029,
      "thod": 8030,
      "à¯į!..": 8031,
      "à¯į...........": 8032,
      "ĠPark": 8033,
      "ĠPolitical": 8034,
      "ĠSaiv": 8035,
      "ĠSociety": 8036,
      "Ġà®·à®©": 8037,
      "à®Ĳà®İà®®": 8038,
      "ĠRice": 8039,
      "Ġpap": 8040,
      "asagar": 8041,
      "ĠBas": 8042,
      "Ġthambi": 8043,
      "Ġmark": 8044,
      "Ġ1100": 8045,
      "Ġbar": 8046,
      "Ġwoman": 8047,
      "ĠHand": 8048,
      "Ġ163": 8049,
      "ĠFind": 8050,
      "irit": 8051,
      "Ġnumber": 8052,
      "unty": 8053,
      "umm": 8054,
      "ikal": 8055,
      "à®ĵà®²": 8056,
      "usband": 8057,
      "Ġaut": 8058,
      "Ġvel": 8059,
      "à¯Ī!âĢĿ": 8060,
      "Ġgreat": 8061,
      "à¯ĩ?''": 8062,
      "istant": 8063,
      "160": 8064,
      "udget": 8065,
      "Ġà®ĩà®²à®µà®ļà®ķ": 8066,
      "à®¾',": 8067,
      "raw": 8068,
      "ĠIndex": 8069,
      "ension": 8070,
      "IND": 8071,
      "à®¤à®ķà®µà®²à®±": 8072,
      "à¯į..!!âĢĿ": 8073,
      "ohan": 8074,
      "string": 8075,
      "Ġblood": 8076,
      "Ġnaanjilnadan": 8077,
      "Ġslider": 8078,
      "à®ĩà®²à®µà®ļ": 8079,
      "Ġà®Ĩà®³à®µà®¨": 8080,
      "ĠDhanushkodi": 8081,
      "ĠWhatsApp": 8082,
      ")âĢİ": 8083,
      ".âĢĻ": 8084,
      "?!": 8085,
      "Ed": 8086,
      "MM": 8087,
      "New": 8088,
      "PF": 8089,
      "Re": 8090,
      "fruit": 8091,
      "rup": 8092,
      "sa": 8093,
      "uz": 8094,
      "vel": 8095,
      "Ð¸": 8096,
      "à®ķà®Łà®°": 8097,
      "à®ªà®³à®Ļ": 8098,
      "à®£à®°à®ª": 8099,
      "à¯Ĥ)": 8100,
      "à®°à®®à®ķ": 8101,
      "à®Łà®©à®ķ": 8102,
      "à®¯à®²à®ķà®Ļ": 8103,
      "à®ľà®¯à®¨": 8104,
      "Ġà®īà®£à®°à®ļ": 8105,
      "Ġà®ĵà®Łà®ķ": 8106,
      "Ġ2050": 8107,
      "Ġà®Īà®¤à®°": 8108,
      "Ġà®īà®Łà®²à®³à®µ": 8109,
      "ĠSa": 8110,
      "stit": 8111,
      "ĠMK": 8112,
      "oma": 8113,
      "Ġsn": 8114,
      "ĠRah": 8115,
      "olk": 8116,
      "Ġ1896": 8117,
      "ĠIf": 8118,
      "Ġthrough": 8119,
      "Ġbhp": 8120,
      "idamb": 8121,
      "agan": 8122,
      "Ġotha": 8123,
      "ĠGel": 8124,
      "Ġdue": 8125,
      "ĠKAL": 8126,
      "à®·à®¯à®®à®²": 8127,
      "Ġ215": 8128,
      "ĠInc": 8129,
      "Ġgu": 8130,
      "ocol": 8131,
      "Ġà®ħà®ľà®¨": 8132,
      "à¯Ī',": 8133,
      "376": 8134,
      "span": 8135,
      "Ġvijay": 8136,
      "ĠLankan": 8137,
      "á¹Ń": 8138,
      "poration": 8139,
      "Ġà®¤à®ļà®°à®¤à®©": 8140,
      "scribe": 8141,
      "!..": 8142,
      "310": 8143,
      ":)": 8144,
      "Fi": 8145,
      "Ge": 8146,
      "Link": 8147,
      "Trans": 8148,
      "tal": 8149,
      "Ġà®ªà®µà®¤": 8150,
      "Ġà®ķà®ļà®Ł": 8151,
      "Ġà®®à®¯à®ª": 8152,
      "à®ļà®ļà®©": 8153,
      "à®´à®µà®°à®®": 8154,
      "Ġà®°à®¤à®®": 8155,
      "Ġà®ıà®¸": 8156,
      "Ġ(âĢĺ": 8157,
      "Ġà®¤à®²à®ª": 8158,
      "Ġà®®à®©à®µà®²": 8159,
      "à®¤à®µà®´": 8160,
      "à®²à®µà®³": 8161,
      "tham": 8162,
      "ening": 8163,
      "ĠPo": 8164,
      "ĠSab": 8165,
      "ĠSize": 8166,
      "ĠCircle": 8167,
      "Ġsir": 8168,
      "ĠBiryani": 8169,
      "urasu": 8170,
      "ĠGeneral": 8171,
      "Ġdem": 8172,
      "Ġnar": 8173,
      "Ġneed": 8174,
      "Ġkal": 8175,
      "ipl": 8176,
      "à¤²": 8177,
      "tity": 8178,
      "Ġechar": 8179,
      "rug": 8180,
      "ackfruit": 8181,
      "efore": 8182,
      "appadi": 8183,
      "ĠAlangulam": 8184,
      "cessdate": 8185,
      "rivate": 8186,
      "ĠSecret": 8187,
      "Ġnanjilnadan": 8188,
      "ĠDoctor": 8189,
      "ĠSingh": 8190,
      "Ġà®ıà®ķà®®à®©à®¤": 8191,
      "plication": 8192,
      "Ġthodarb": 8193,
      "ĠCopyright": 8194,
      "rieved": 8195,
      "ikkaigal": 8196,
      "Ġecharikkaigal": 8197,
      "650": 8198,
      "NH": 8199,
      "hot": 8200,
      "kgm": 8201,
      "soft": 8202,
      "yarl": 8203,
      "Ø®": 8204,
      "âĻ": 8205,
      "äº": 8206,
      "à¯ģ//": 8207,
      "à®Łà®¯à®°": 8208,
      "Ġà®ħà®ķà®Ł": 8209,
      "Ġà®¤à®·": 8210,
      "à®Łà®°à®ķ": 8211,
      "à®¤à®©à®ļ": 8212,
      "Ġà®ķà®£à®£": 8213,
      "à¯Ī.''": 8214,
      "Ġà®²à®ľ": 8215,
      "à®ħà®Łà®ķ": 8216,
      "à®°à®£à®©": 8217,
      "à®ļà®¤à®¨": 8218,
      "à®¾.âĢĿ": 8219,
      "ĠPG": 8220,
      "ĠSearch": 8221,
      "à®ıà®²": 8222,
      "Ġ978": 8223,
      "ĠMadurai": 8224,
      "ĠMicro": 8225,
      "omic": 8226,
      "Ġsell": 8227,
      "1948": 8228,
      "Ġ157": 8229,
      "Ġpress": 8230,
      "ĠIT": 8231,
      "à®Łà®£à®ķ": 8232,
      "Ġmem": 8233,
      "Ġmilk": 8234,
      "à®°à®³à®¯à®®": 8235,
      "Ġne": 8236,
      "Ġnight": 8237,
      "Ġvil": 8238,
      "Ġà®ªà®°à®®à®¤": 8239,
      "Ġ**": 8240,
      "abol": 8241,
      "udio": 8242,
      "acher": 8243,
      "aji": 8244,
      "ustom": 8245,
      "Ġ\\\\": 8246,
      "ĠViews": 8247,
      "returns": 8248,
      "Ġà®®à®°à®ķà®¤à®®": 8249,
      "ĠEducation": 8250,
      "Organization": 8251,
      "ĠGoodreturns": 8252,
      "ĠðŁĻĤ": 8253,
      "FT": 8254,
      "OG": 8255,
      "RS": 8256,
      "UT": 8257,
      "Yarl": 8258,
      "aal": 8259,
      "ling": 8260,
      "ming": 8261,
      "ray": 8262,
      "van": 8263,
      "à®Łà®°à®®": 8264,
      "à®¯à®ªà®°": 8265,
      "Ġà®ķà®ļà®¨": 8266,
      "à®ļà®£à®Ļ": 8267,
      "à¯ĢÂŃ": 8268,
      "Ġà®Ĵà®Łà®®": 8269,
      "à®ķà®µà®³": 8270,
      "à®²à®®à®£": 8271,
      "Ġà®ļà®®à®£à®¤": 8272,
      "Ġà®¤à®©à®²": 8273,
      "Ġà®ĵà®µà®²": 8274,
      "à®ħà®±à®®": 8275,
      "Ġà®¤à®Łà®¯à®µ": 8276,
      "à®´à®ķà®ļ": 8277,
      "Ġà®Īà®£": 8278,
      "atur": 8279,
      "à®¾?..": 8280,
      "Ġà®ļà®ķà®ľ": 8281,
      "à¯į?,": 8282,
      "à¯į???": 8283,
      "ster": 8284,
      "ĠMir": 8285,
      "'')": 8286,
      "Ġcoronavirus": 8287,
      "Ġpan": 8288,
      "Ġ182": 8289,
      "Ġ1895": 8290,
      "isk": 8291,
      "Ġbig": 8292,
      "à¯ģ!)": 8293,
      "ĠOru": 8294,
      "Ġwife": 8295,
      "Ġà®ļà®©à®ļà®®": 8296,
      "à®¤à®ķà®®à®±": 8297,
      "à¯ģ...âĢĿ": 8298,
      "ĠWest": 8299,
      "iven": 8300,
      "Ġ275": 8301,
      "ĠJournal": 8302,
      "ĠCheck": 8303,
      "ĠStar": 8304,
      "undai": 8305,
      "ĠExam": 8306,
      "ĠZeta": 8307,
      "anthi": 8308,
      "ottai": 8309,
      "NewsArticle": 8310,
      "à®ľà®¯à®¨à®ķà®°à®ª": 8311,
      "Entity": 8312,
      "Ġattack": 8313,
      "Ġvisit": 8314,
      "ĠRetrieved": 8315,
      "ĠErogan": 8316,
      "mainEntity": 8317,
      "OfPage": 8318,
      "ilosoph": 8319,
      "yarlvoice": 8320,
      "YarlVoice": 8321,
      "mainEntityOfPage": 8322,
      "MD": 8323,
      "Sri": 8324,
      "aur": 8325,
      "val": 8326,
      "Ã´": 8327,
      "Î¿": 8328,
      "à®µà®¯à®ª": 8329,
      "à®¨à®²à®ª": 8330,
      "à¯ĭ(": 8331,
      "à¯Ģà¯į": 8332,
      "Ġà®°à®£à®ļ": 8333,
      "Ġà®Ĭà®ķà®Ļ": 8334,
      "Ġà®İà®´à®¤": 8335,
      "Ġ\".": 8336,
      "atore": 8337,
      "à®ªà®ķà®µà®¤": 8338,
      "Ġà®Ĩà®±à®°": 8339,
      "ĠCash": 8340,
      "ĠCode": 8341,
      "ĠMale": 8342,
      "read": 8343,
      "Ġskin": 8344,
      "à®Ĵà®ķ": 8345,
      "leased": 8346,
      "1971": 8347,
      "Ġ159": 8348,
      "oli": 8349,
      "Ġà®µà®³à®ļà®°à®µ": 8350,
      "ĠIr": 8351,
      "ĠmAh": 8352,
      "Ġà®Ĭà®Łà®ķà®ķ": 8353,
      "ids": 8354,
      "agon": 8355,
      "uro": 8356,
      "andh": 8357,
      "river": 8358,
      "unk": 8359,
      "avin": 8360,
      "Ġlong": 8361,
      "owder": 8362,
      "Ġgive": 8363,
      "Ġrelease": 8364,
      "à®¿!''": 8365,
      "Ø§ÙĨ": 8366,
      "Ġ;-)": 8367,
      "Ġspecial": 8368,
      "ĠiWatermark": 8369,
      "eget": 8370,
      "International": 8371,
      "Ġmaruthuv": 8372,
      "ĠDinamalar": 8373,
      "rown": 8374,
      "ĠOffice": 8375,
      "ategory": 8376,
      "eerai": 8377,
      "Ġdoctor": 8378,
      "Ġminutes": 8379,
      "ĠArticles": 8380,
      "Ġtranslation": 8381,
      "Ġsecond": 8382,
      "utcham": 8383,
      "ibrary": 8384,
      "'t": 8385,
      "Eng": 8386,
      "Jan": 8387,
      "MC": 8388,
      "Shar": 8389,
      "bar": 8390,
      "bot": 8391,
      "ford": 8392,
      "ËĪ": 8393,
      "à®®à®°à®£": 8394,
      "à®¨à®°à®®": 8395,
      "Ġà®ļà®²à®Ļ": 8396,
      "à¯ĭ....": 8397,
      "à¯į.âĢĺ": 8398,
      "Ġà®Ĩà®Ĩà®Ĩ": 8399,
      "Ġà®ħà®®à®°à®¤": 8400,
      "à®·à®£à®©": 8401,
      "à®©à®¤à®¯": 8402,
      "Ġà®ĩà®²à®¨": 8403,
      "à®ħà®µà®¤": 8404,
      "à®ħà®¯à®©": 8405,
      "à®Ĩà®¤à®°à®µ": 8406,
      "Ġà®¹à®¸à®©": 8407,
      "ino": 8408,
      "Ġ1902": 8409,
      "ĠSn": 8410,
      "ĠCard": 8411,
      "ĠCouncil": 8412,
      "icer": 8413,
      "Ġà®ķà®©à®ķà®ļà®ª": 8414,
      "omas": 8415,
      "1954": 8416,
      "ĠRa": 8417,
      "ĠBody": 8418,
      "elam": 8419,
      "ĠDh": 8420,
      "ĠDal": 8421,
      "ĠLaw": 8422,
      "Ġfact": 8423,
      "à¯ģ......": 8424,
      "Ġdon": 8425,
      "Ġdays": 8426,
      "ĠKairavini": 8427,
      "101": 8428,
      "Ġà®ªà®²à®©à®Ł": 8429,
      "usp": 8430,
      "ĠÂ£": 8431,
      "img": 8432,
      "osed": 8433,
      "à®¾!\"": 8434,
      "aja": 8435,
      "Ġleg": 8436,
      "peri": 8437,
      "Ġplace": 8438,
      "ĠPrab": 8439,
      "ombo": 8440,
      "à®ľà®¯à®¤à®ļà®®": 8441,
      "ittle": 8442,
      "ĠIslam": 8443,
      "Ġtechn": 8444,
      "ĠCentre": 8445,
      "ĠKavithaigal": 8446,
      "Ġà®ļà®°à®µà®£à®ªà®µà®©": 8447,
      "ĠLimited": 8448,
      "ĠEntertainment": 8449,
      "NEWSNATION": 8450,
      "ĠTEACHERS": 8451,
      "Ab": 8452,
      "BL": 8453,
      "Nadu": 8454,
      "ei": 8455,
      "fect": 8456,
      "web": 8457,
      "yel": 8458,
      "Å«": 8459,
      "à®¯à®ħà®°à®ļ": 8460,
      "à®¯à®īà®¤à®µ": 8461,
      "Ġà®¤à®ĥà®µ": 8462,
      "à¯Ģ\"": 8463,
      "Ġà®Ĩà®Łà®¤": 8464,
      "à®°à®®à®¯à®®": 8465,
      "à®¯à®®à®¤": 8466,
      "à®Łà®°à®°": 8467,
      "Ġà®ħà®Łà®ª": 8468,
      "Ġ219": 8469,
      "Ġà®ªà®²à®µà®°": 8470,
      "Ġà®ľà®ķà®®": 8471,
      "Ġà®®à®ķà®ľà®°": 8472,
      "Ġà®ĩà®©à®¨": 8473,
      "à®ħà®°à®Ļ": 8474,
      "Ġà®¤à®°à®©": 8475,
      "Ġà®Īà®İà®®": 8476,
      "thir": 8477,
      "ĠPort": 8478,
      "ĠSH": 8479,
      "ĠCoronavirus": 8480,
      "ĠCovid": 8481,
      "ĠCeylon": 8482,
      "ĠMLA": 8483,
      "ĠAmazon": 8484,
      "1988": 8485,
      "1981": 8486,
      "1982": 8487,
      "Ġpet": 8488,
      "Ġ1850": 8489,
      "Ġ1870": 8490,
      "ĠBrit": 8491,
      "ĠDef": 8492,
      "ĠData": 8493,
      "idhi": 8494,
      "Ġwant": 8495,
      "acter": 8496,
      "ache": 8497,
      "Ġhd": 8498,
      "ĠFort": 8499,
      "ĠGST": 8500,
      "Ġduring": 8501,
      "Ġnut": 8502,
      "ĠKh": 8503,
      "ĠKey": 8504,
      "otion": 8505,
      "odern": 8506,
      "ĠChina": 8507,
      "à¯ĩ...âĢĻ": 8508,
      "à¯ĪâĢĿ.": 8509,
      "235": 8510,
      "à¯Ī?âĢĿ": 8511,
      "ukudi": 8512,
      "à¯ĩâĢ¦âĢĿ": 8513,
      "rance": 8514,
      "Ġproduct": 8515,
      "Ġshow": 8516,
      "erman": 8517,
      "ultural": 8518,
      "Ġexp": 8519,
      "umbai": 8520,
      "Äģn": 8521,
      "ween": 8522,
      "ĠOrgan": 8523,
      "ĠCoffee": 8524,
      "Ġfront": 8525,
      "ozhi": 8526,
      "ilankainet": 8527,
      "ĠEngineering": 8528,
      "230": 8529,
      "Is": 8530,
      "One": 8531,
      "SF": 8532,
      "SI": 8533,
      "UC": 8534,
      "lin": 8535,
      "ler": 8536,
      "put": 8537,
      "trichy": 8538,
      "Øµ": 8539,
      "Ùĵ": 8540,
      "ãĥ": 8541,
      "à¯ª": 8542,
      "à®¾).": 8543,
      "à®ªà®¯à®ª": 8544,
      "à®¯à®£à®ķ": 8545,
      "Ġà®µà®¯à®±": 8546,
      "à®ļà®¤à®µ": 8547,
      "Ġà®¨à®µà®²": 8548,
      "à¯ĭ;": 8549,
      "à¯į.âĢ¦": 8550,
      "à¯ĤÂŃ": 8551,
      "Ġà®°à®¤à®¤": 8552,
      "Ġà®ıà®İà®®": 8553,
      "à®²à®®à®Ļ": 8554,
      "à®Łà®²à®µ": 8555,
      "Ġà®¤à®Łà®¯à®®": 8556,
      "Ġ310": 8557,
      "Ġ205": 8558,
      "ĠTrain": 8559,
      "arly": 8560,
      "à®°à®²à®Ł": 8561,
      "à®°à®ķà®¸": 8562,
      "Ġà®ķà®®à®²à®®": 8563,
      "ĠSah": 8564,
      "ĠMobile": 8565,
      "ĠTamilan": 8566,
      "adem": 8567,
      "Ġsing": 8568,
      "1965": 8569,
      "Ġ156": 8570,
      "Ġcyclone": 8571,
      "Ġ1867": 8572,
      "ĠOpen": 8573,
      "ention": 8574,
      "aces": 8575,
      "Ġnagai": 8576,
      "Ġà®ªà®µà®³à®®": 8577,
      "ivity": 8578,
      "otes": 8579,
      "à¯ĪâĢĻ.": 8580,
      "Ġgovt": 8581,
      "175": 8582,
      "à®ªà®´à®ļ": 8583,
      "Ġchang": 8584,
      "uvan": 8585,
      "ĠiM": 8586,
      "ĠPrin": 8587,
      "TML": 8588,
      "Ġà¥¥": 8589,
      "Posted": 8590,
      "ïĢ½": 8591,
      ",\"": 8592,
      "EU": 8593,
      "LAN": 8594,
      "dr": 8595,
      "ean": 8596,
      "kum": 8597,
      "pu": 8598,
      "Â£": 8599,
      "Ã³": 8600,
      "Äĵ": 8601,
      "Ġà·ĥ": 8602,
      "à®ķà®ļà®¤": 8603,
      "à®³à®ŀ": 8604,
      "à®ķà®³à®ķà®°à®®": 8605,
      "Ġà®ħà®©à®¤": 8606,
      "Ġà®¤à®´à®²": 8607,
      "à®´à®ķà®©": 8608,
      "à¯į,âĢ¦": 8609,
      "Ġà®ĩà®¤à®¯à®¨": 8610,
      "à®¯à®°à®ķ": 8611,
      "Ġà®ªà®Łà®ªà®Łà®¤": 8612,
      "Ġà®ľà®¯à®µà®°": 8613,
      "à®ªà®°à®ªà®°à®ª": 8614,
      "Ġà®ħà®²à®ļà®ª": 8615,
      "Ġà®¯à®¯": 8616,
      "Ġà®īà®£à®µà®ķ": 8617,
      "à®¤à®µà®ļ": 8618,
      "Ġà®ĵà®µà®©": 8619,
      "à®ħà®®à®²": 8620,
      "Ġ202": 8621,
      "à®¹à®ľ": 8622,
      "Ġà®ªà®¯à®¸": 8623,
      "atu": 8624,
      "ĠSMS": 8625,
      "rees": 8626,
      "Ġtri": 8627,
      "Ġtrain": 8628,
      "Ġ154": 8629,
      "Ġ188": 8630,
      "Ġ1860": 8631,
      "Ġ1876": 8632,
      "Ġmen": 8633,
      "elle": 8634,
      "Ġbec": 8635,
      "à¯ģ?âĢĻâĢĻ": 8636,
      "ĠOTT": 8637,
      "Ġà®ªà®°à®µà®µ": 8638,
      "à¯ģ...âĢĻ": 8639,
      "Ġ174": 8640,
      "irm": 8641,
      "Ġdistrict": 8642,
      "ĠEarth": 8643,
      "ĠEcon": 8644,
      "ĠKUR": 8645,
      "iabet": 8646,
      "estival": 8647,
      "aving": 8648,
      "ĠWin": 8649,
      "Ġ222": 8650,
      "255": 8651,
      "Ġstyle": 8652,
      "phone": 8653,
      "ocon": 8654,
      "à®Īà®ķ": 8655,
      "ellig": 8656,
      "ĠYog": 8657,
      "ĠYour": 8658,
      "endra": 8659,
      "à®¿?âĢĻ": 8660,
      "ahoo": 8661,
      "Ġbeautiful": 8662,
      "ondon": 8663,
      "ults": 8664,
      "Ġarticleà®ķ": 8665,
      "ĠEditor": 8666,
      "Thir": 8667,
      "COM": 8668,
      "Ġcolor": 8669,
      "ĠCenter": 8670,
      "ðŁĺŃðŁĺŃðŁĺŃðŁĺŃ": 8671,
      "Ġà®Ĩà®ļà®©à®µ": 8672,
      "imbatore": 8673,
      "ANKA": 8674,
      "Ġîİį": 8675,
      "!,": 8676,
      ")]": 8677,
      "299": 8678,
      "RF": 8679,
      "cont": 8680,
      "eth": 8681,
      "uh": 8682,
      "wa": 8683,
      "zee": 8684,
      "Åį": 8685,
      "à¯«": 8686,
      "à®®à®¤à®°": 8687,
      "à®ªà®·": 8688,
      "Ġà®¤à®©à®°": 8689,
      "Ġà®ĩà®±à®µ": 8690,
      "à¯ĭ),": 8691,
      "Ġà®Ĩà®ķà®°": 8692,
      "Ġà®ªà®²à®Ļ": 8693,
      "Ġà®ªà®²à®ļà®°à®ķ": 8694,
      "Ġà®ľà®²à®¨": 8695,
      "à®ªà®°à®µà®³": 8696,
      "Ġà®ĵà®®à®®": 8697,
      "à®ħà®²à®Ļ": 8698,
      "à®²à®ķà®ļ": 8699,
      "Ġà®¹à®£": 8700,
      "Ġà®īà®¯à®°à®µ": 8701,
      "à®ķà®£à®©": 8702,
      "2022": 8703,
      "ĠNtrichy": 8704,
      "Ġà®·à®¹": 8705,
      "Ġà®ľà®©à®ķ": 8706,
      "Ġà®µà®ļà®µ": 8707,
      "adesh": 8708,
      "Ġterm": 8709,
      "190": 8710,
      "1968": 8711,
      "1952": 8712,
      "1953": 8713,
      ".,)": 8714,
      "Ġà®ķà®Łà®²à®Ł": 8715,
      "Ġ184": 8716,
      "Ġ1820": 8717,
      "Ġ1880": 8718,
      "ĠIPS": 8719,
      "ĠBoss": 8720,
      "Ġbus": 8721,
      "Ġway": 8722,
      "ands": 8723,
      "ĠHind": 8724,
      "irc": 8725,
      "avigation": 8726,
      "à®£à®±à®Ł": 8727,
      "Ġlaunch": 8728,
      "Ġ235": 8729,
      "Ġ264": 8730,
      "à®ĥà®ªà®¤": 8731,
      "tains": 8732,
      "allur": 8733,
      "Ġ[[:": 8734,
      "à®ħà®°à®ļà®°": 8735,
      "Ġà®®à®°à®£à®ļ": 8736,
      "ĠAnsw": 8737,
      "Ġshopping": 8738,
      "ĠUnion": 8739,
      "ĠSpecial": 8740,
      "Ġà®ļà®°à®µà®£à®®": 8741,
      "Ġphotos": 8742,
      "elebr": 8743,
      "Ġincest": 8744,
      "Ġstrong": 8745,
      "ĠRoad": 8746,
      "âĨĳ": 8747,
      "Char": 8748,
      "Gl": 8749,
      "HD": 8750,
      "ML": 8751,
      "MW": 8752,
      "ball": 8753,
      "light": 8754,
      "minist": 8755,
      "za": 8756,
      "Ġè": 8757,
      "à¯ģâĢľ": 8758,
      "à®Łà®ļà®¨": 8759,
      "à®©à®ļà®ª": 8760,
      "à®®à®°à®£à®®": 8761,
      "à®³à®°à®®": 8762,
      "à®ķà®³à®µà®©": 8763,
      "à®ªà®Łà®£": 8764,
      "à¯Ģ?": 8765,
      "à¯Ĥ\"": 8766,
      "à®µà®°à®Ł": 8767,
      "à®¸à®ķ": 8768,
      "à®ķà®®à®¯à®®": 8769,
      "à®°à®®à®¨": 8770,
      "Ġà®ħà®µà®¨": 8771,
      "Ġà®ªà®¤à®¨": 8772,
      "Ġà®ķà®°à®£à®®": 8773,
      "à®µà®²à®¨": 8774,
      "âĢĿ,": 8775,
      "Ġ399": 8776,
      "Ġ191": 8777,
      "ato": 8778,
      "ĠTerm": 8779,
      "à¯įâĢĻ-": 8780,
      "alitha": 8781,
      "oni": 8782,
      "ongal": 8783,
      "ared": 8784,
      "ĠNS": 8785,
      "ĠNam": 8786,
      "à¯į?)": 8787,
      "à®®à®£à®µ": 8788,
      "ĠAT": 8789,
      "rect": 8790,
      "Ġtimes": 8791,
      "Ġsug": 8792,
      "Ġpri": 8793,
      "Ġpop": 8794,
      "Ġ1891": 8795,
      "ĠBatt": 8796,
      "à¯įâĢ¦âĢ¦.": 8797,
      "ĠLANKA": 8798,
      "ential": 8799,
      "urch": 8800,
      "à¯ģ...âĢĻâĢĻ": 8801,
      "ired": 8802,
      "akistan": 8803,
      "Ġ245": 8804,
      "ĠWar": 8805,
      "aps": 8806,
      "à¤¹": 8807,
      "comm": 8808,
      "1500": 8809,
      "à®¾âĢĻ.": 8810,
      "Ġà®ªà®°à®®à®¹à®®": 8811,
      "ocr": 8812,
      "udram": 8813,
      "ankar": 8814,
      "ians": 8815,
      "plex": 8816,
      "ĠPlan": 8817,
      "ĠðŁĮ": 8818,
      "Ġuses": 8819,
      "ĠThirum": 8820,
      "Ġquestion": 8821,
      "Ġà®Ķà®°à®Ļ": 8822,
      "India": 8823,
      "à®Īà®Īà®Īà®Ī": 8824,
      "inikanth": 8825,
      "snore": 8826,
      "330": 8827,
      "BD": 8828,
      "Feb": 8829,
      "Gr": 8830,
      "My": 8831,
      "VD": 8832,
      "ban": 8833,
      "down": 8834,
      "her": 8835,
      "Ã¶": 8836,
      "ÙĮ": 8837,
      "å·": 8838,
      "à®¤à®£à®©": 8839,
      "à®°à®·à®©": 8840,
      "Ġà®ķà®³à®°": 8841,
      "à®ķà®³à®¯": 8842,
      "à¯Ĩ-": 8843,
      "Ġà®¨à®¯à®¤": 8844,
      "Ġà®Ĩà®¯à®ķ": 8845,
      "à®°à®®à®³": 8846,
      "à®·à®¨": 8847,
      "à®ĩà®µà®Ļ": 8848,
      "à®ħà®²à®ķ": 8849,
      "à®°à®ļà®²": 8850,
      "à®Ĩà®ªà®°": 8851,
      "Ġ328": 8852,
      "Ġà®Ĩà®¯à®©à®°": 8853,
      "Ġà®µà®²à®¯": 8854,
      "ĠTake": 8855,
      "thal": 8856,
      "ĠSBI": 8857,
      "Ġà®ķà®©à®ķà®ļ": 8858,
      "ĠMin": 8859,
      "à®ĩà®¤à®¯": 8860,
      "Ġtit": 8861,
      "1945": 8862,
      "1958": 8863,
      "1969": 8864,
      "Ġ1871": 8865,
      "à®ªà®£à®ķ": 8866,
      "Ġmain": 8867,
      "ĠDeg": 8868,
      "à¯ģ!.": 8869,
      "à®°à®³à®¯à®¤": 8870,
      "aced": 8871,
      "ĠFin": 8872,
      "Ġ172": 8873,
      "Ġdest": 8874,
      "Ġnext": 8875,
      "Ġver": 8876,
      "Ġ269": 8877,
      "à¤ª": 8878,
      "ĠJava": 8879,
      "ovir": 8880,
      "anga": 8881,
      "angam": 8882,
      "à¯Ī.....": 8883,
      "ĠStalin": 8884,
      "Ġà®īà®ªà®ķà®°à®£à®®": 8885,
      "Ġwhite": 8886,
      "ugu": 8887,
      "ĠProject": 8888,
      "ĠÙĤ": 8889,
      "ambu": 8890,
      "ĠShare": 8891,
      "coin": 8892,
      "Ġplan": 8893,
      "à®īà®²à®ķà®³": 8894,
      "à®īà®²à®ķà®ª": 8895,
      "ĠTopics": 8896,
      "Ġperiod": 8897,
      "ĠSubscribe": 8898,
      "ĠMedium": 8899,
      "ĠAirsnore": 8900,
      "à®¾]],": 8901,
      "ĠAthavan": 8902,
      "ĠDepartment": 8903,
      "ground": 8904,
      "àµį": 8905,
      "ĠMachine": 8906,
      "ĠiMove": 8907,
      ",.": 8908,
      "::": 8909,
      "CG": 8910,
      "CS": 8911,
      "EX": 8912,
      "PL": 8913,
      "SM": 8914,
      "TION": 8915,
      "ke": 8916,
      "sch": 8917,
      "ÛĮ": 8918,
      "Ġel": 8919,
      "à¯į>>": 8920,
      "à®ķà®¤à®¤": 8921,
      "à®²à®µà®Ł": 8922,
      "Ġà®ķà®ľà®©": 8923,
      "Ġà®ħà®°à®®": 8924,
      "Ġà®¨à®¹": 8925,
      "Ġà®Ĩà®²à®¤": 8926,
      "à¯ģ.<": 8927,
      "à®ķà®ªà®ª": 8928,
      "à®¤à®²à®Ł": 8929,
      "Ġà®°à®¨": 8930,
      "à®ľà®©à®ª": 8931,
      "Ġà®ªà®Łà®ªà®Łà®ķ": 8932,
      "Ġà®ªà®£à®µà®°à®¤": 8933,
      "Ġà®ªà®°à®µà®ļà®ª": 8934,
      "Ġà®Ĳà®ļà®°": 8935,
      "Ġà®µà®Łà®ĩà®¨": 8936,
      "arc": 8937,
      "orial": 8938,
      "Ġ|--": 8939,
      "Ġà®ķà®®à®ķ": 8940,
      "à®īà®·": 8941,
      "star": 8942,
      "Ġsit": 8943,
      "Ġ189": 8944,
      "Ġ1888": 8945,
      "Ġ1892": 8946,
      "ĠBigg": 8947,
      "Ġthese": 8948,
      "ĠDos": 8949,
      "Ġfine": 8950,
      "Ġfull": 8951,
      "Ġop": 8952,
      "ĠHour": 8953,
      "ĠElection": 8954,
      "unch": 8955,
      "umin": 8956,
      "Ġ232": 8957,
      "iger": 8958,
      "à®ĥà®ľ": 8959,
      "istry": 8960,
      "ify": 8961,
      "457": 8962,
      "ankal": 8963,
      "ellow": 8964,
      "à¯ĭ?âĢĿ": 8965,
      "ðŁĻ": 8966,
      "Ġjokes": 8967,
      "Ġproduc": 8968,
      "à®¾..?âĢĿ": 8969,
      "COVID": 8970,
      "????????": 8971,
      "asamudram": 8972,
      "AVAI": 8973,
      ";;;;": 8974,
      "Ġetc": 8975,
      "ĠAmerican": 8976,
      "Ġproblem": 8977,
      "oscope": 8978,
      "ĠPERAVAI": 8979,
      "å·ŀ": 8980,
      ".;": 8981,
      "119": 8982,
      "260": 8983,
      "Br": 8984,
      "For": 8985,
      "May": 8986,
      "OV": 8987,
      "jun": 8988,
      "split": 8989,
      "Â¸": 8990,
      "æī": 8991,
      "à®ķà®ĩà®°": 8992,
      "à®¤à®ľ": 8993,
      "à®Łà®ĥà®ª": 8994,
      "à®¾|": 8995,
      "à®±à®¸": 8996,
      "à®ļà®¯à®°": 8997,
      "à®ļà®¤à®°": 8998,
      "à®ļà®¹": 8999,
      "Ġà®ħà®ĩ": 9000,
      "à®ªà®Łà®°": 9001,
      "à®¯à®®à®¨": 9002,
      "Ġà®ħà®®à®°à®©": 9003,
      "à®·à®Ł": 9004,
      "ĠâĢº": 9005,
      "Ġà®ªà®²à®ķà®Ł": 9006,
      "à¯Ī.,": 9007,
      "à¯Ī,''": 9008,
      "à®İà®µà®©": 9009,
      "Ġà®ĵà®ªà®°": 9010,
      "à®ļà®°à®Ļ": 9011,
      "Ġà®¹à®¯": 9012,
      "info": 9013,
      "Ġ326": 9014,
      "atta": 9015,
      "ĠTur": 9016,
      "Ġà®īà®¯à®°à®ķ": 9017,
      "Ġ,,": 9018,
      "ĠPhys": 9019,
      "ĠSRI": 9020,
      "à®¤à®¨à®²": 9021,
      "itamin": 9022,
      "ĠMA": 9023,
      "ĠMaterial": 9024,
      "Ġsay": 9025,
      "oles": 9026,
      "Ġcourt": 9027,
      "Ġ1885": 9028,
      "Ġ1881": 9029,
      "ĠBig": 9030,
      "Ġbal": 9031,
      "à¯ģ??": 9032,
      "ĠOx": 9033,
      "urs": 9034,
      "ander": 9035,
      "ĠEp": 9036,
      "aker": 9037,
      "umal": 9038,
      "ivil": 9039,
      "ulf": 9040,
      "128": 9041,
      "apid": 9042,
      "imate": 9043,
      "ersion": 9044,
      "Ġgeneration": 9045,
      "ĠJay": 9046,
      "Ġread": 9047,
      "Ġ802": 9048,
[...]
